#version: 0.2
Ġ Ġ
ĠĠ ĠĠ
ĠĠ Ġ
i n
ĠĠĠĠ ĠĠĠ
o r
s e
> <
r e
o n
e r
s t
a t
Ġ t
Ġ =
Ġ i
d e
) <
: <
Ġ a
l e
č Ċ
m p
a l
r o
m e
h e
or t
a r
" "
Ġ c
mp ort
Ġ f
i on
- -
ĠĠĠĠ ĠĠĠĠĠĠĠ
l f
se lf
Ġ p
Ġ n
a n
e n
Ġ re
i t
Ġ in
u t
u r
c t
Ġ s
) :<
a s
in g
de f
ro m
g e
_ _
Ġi mport
e s
Ġ o
Ġ d
r a
Ġt he
, <
f rom
e d
l o
Ġ m
n t
Ġ b
e x
o l
"" "
p e
Ġ "
ur n
Ġ w
t urn
Ġ self
l i
. <
r i
Ġ def
-- --
a me
Ġre turn
u m
c e
o t
Ġ 1
u e
in t
Ġ -
i l
Ġ T
Ġf or
u n
as s
o de
""" <
i mport
Ġ #
Ġi f
Ġa n
se r
u l
c k
Ġ (
st r
Ġa s
a d
i s
c l
c h
e st
v al
Ġ '
ĠĠĠĠ ĠĠĠĠ
Ġi s
] <
Ġ [
> #
p t
= =
e l
Ġt o
t h
f i
Ġ S
on e
y pe
at e
c o
i d
Ġ N
i st
cl ass
n ame
er s
Ġo f
a b
u p
" ,
# #
a p
Ġ 0
h t
ex t
ul t
ge t
Ġ 2
at ion
( )
Ġ +
r an
q u
ĠĠĠĠ ĠĠĠĠĠĠĠĠĠĠĠ
o d
Ġ A
ser t
me nt
Ġan d
a se
Ġ C
. _
Ġin t
at h
Ġ <
( )<
d i
p ut
at a
Ġ """<
en d
p y
Ġ L
m a
Ġ _
---- ----
i le
( "
r or
on t
Ġ I
it h
Ġt h
Ġ str
ct ion
k e
i c
an d
Ġ= =
Ġ __
Ġ P
Ġ se
Ġ- >
Ġ *
pt ion
i me
ĠN one
Ġ l
ra y
re s
Ġ ex
v e
al l
t er
t ype
le n
a ck
g s
Ġ e
i g
i z
f or
e t
Ġn ot
Ġc o
0 0
Ġ F
y p
Ġn um
Ġ h
Ġ g
Ġre s
Ġ D
] ,
Ġ st
' ,
v er
ab le
) )<
de x
~ ~
en t
__ (
== ==
li st
e ct
r ror
r int
E rror
Ġas sert
c he
a m
Ġ u
p l
Ġ :
Ġ .
" )<
Ġ de
p ar
ran ge
mp le
t est
Ġ O
b j
Ġ val
Ġb e
Ġ x
Ġa r
` `
in it
Ġ or
a ge
t o
Ġ R
Ġn p
ut il
Ġw ith
l y
" <
u b
ut ion
Ġt est
r ue
i p
## ##
Ġf rom
at or
p er
y s
Ġ lo
g ht
c on
p ro
Ġm a
Ġ 3
Ġ M
d o
ap p
Ġ v
ar gs
Ġ """
p o
) ,
i se
c es
in e
se t
] )<
d er
Ġd i
iz e
m at
u nt
Ġ {
ri ght
> >
f t
e m
p ath
t r
ers ion
Ġ range
c i
ar ray
/ /
li b
q ue
o ol
s s
Ġ y
ol ution
u re
al se
Ġ B
or e
el se
( '
n um
Ġc on
Ġ r
qu al
Ġ len
I n
util s
ĠL ist
E x
ar t
re nt
or d
bj ect
Ġp rint
Ġf ile
v i
( [
Ġa l
Ġn ame
( <
an g
lo t
= "
ke y
p re
Ġ me
Ġp ro
Ġ get
Ġp y
fi le
Ġi t
" ,<
u s
Ġ else
Ġt yp
Ġ he
a g
e w
u le
pe ct
p s
Ġ list
f f
' <
Ġth at
p a
mp y
Ġ on
Ġres ult
re e
co m
h o
d ata
c a
ode l
Ġ k
ri b
ra ise
-------- --------
s o
Ġ le
e g
Ġ j
se d
th on
Ġb y
i m
c ode
ra p
Ġc ont
od ule
Ġ ro
ĠT he
Ġ un
fi g
V al
. __
t ime
a in
i f
ĠS olution
th od
Ġ )<
Ġ @
a ult
' )<
for m
Ġ U
Ġw h
Ġnum s
g g
f o
o ut
Ġ G
Ġtyp ing
pect ed
Ġse t
ar y
~~ ~~
Ġf un
ment s
a y
e qual
lo w
) ,<
a st
an ce
Ġc ol
ĠĠĠĠĠĠĠĠ ĠĠĠĠĠĠĠĠ
Ġa re
Ġc l
ra me
p en
as sert
ct or
ht t
Ġ+ =
o m
I N
u mpy
in d
" :
i v
t e
b er
i r
in dex
o s
Ġo s
app end
k w
( ):<
en s
==== ====
m o
Ġth is
] )
o k
N one
t y
o ur
li c
Ġm at
Ġs ys
it y
in put
ur l
que st
ar n
h a
Ġval ue
Ġ ``
t a
Ġ `
ĠF alse
Ġd ata
un d
ĠT rue
ption al
Ġ 4
ing s
lo at
0 1
Ġc h
i ve
at ed
u es
* *
c ol
el d
ĠI n
i es
> """<
Ġma x
Ġex pected
a mple
Ġp ar
p lot
c ont
kw args
Ġ* *
] :<
ĠR e
Ġd o
) .
Ġp re
R e
: //
h is
#### ####
Ġ en
Ġ at
il l
Ġc ur
} <
r y
Ġ H
Ġ >
re ad
Ġ W
en er
ction s
n p
di r
m s
up le
Ġ %
Ġn ode
b le
re d
. .
il d
E R
O R
Ġc an
Ġ 5
Ġin put
() )<
Ġs up
an t
u st
val id
s ing
pl it
O N
s c
. """<
th er
T rue
p rint
or ch
() .
[ "
Ġ raise
f un
it e
val ue
E N
b u
ation s
ption s
and as
i al
Ġ( <
qu i
Ġt ime
Ġn umpy
v ersion
Ġw e
Ġp ip
o w
er n
Ġ >>
b ase
n s
p ort
Ġt ype
' ,<
A T
ut put
Ġ E
] [
Ġar ray
er ror
ar k
htt ps
Ġp ath
ĠC o
ĠĠĠĠĠĠĠĠ ĠĠĠĠĠĠĠĠĠĠĠ
ma ge
s ize
co mp
ar d
Ġ>> >
Ġp andas
i eld
ut e
st ance
b o
ce pt
ĠP y
T ype
Ġw he
yp es
fi x
Ġt m
ran s
Ġ[ ]<
ces s
he ck
n y
ĠO ptional
p on
s plit
a x
Ġin dex
n ot
di ct
ad d
m in
de d
Ġcl ass
ig ht
1 0
Ġh as
d d
ang o
e mp
C on
N ode
res ult
ĠT his
Ġs o
Ġb ool
c ur
j ango
se s
g th
Ġd f
Ġo bject
E C
y n
as k
> )<
l l
Ġ key
co unt
b ack
6 4
le ft
d a
a ce
it er
s on
ma x
ate time
pe ci
ä ¸
num s
Ġwh ile
> @
o u
re n
Ġs ub
m ap
i x
l ine
c ore
rap h
Ġd type
c s
Ġro ot
Ġd ist
Ġpy test
Ġ right
] ,<
m and
o p
Ġstr ing
ad er
Ġm in
Ġal l
3 2
l at
d type
a ct
= '
ar get
it em
par se
Ġdef ault
or m
Ġt orch
in k
a c
m odel
f e
Ġc ode
C H
n e
p p
o bject
t ext
Ġo ther
me thod
Ġan s
n ext
ig n
ul d
Ġn o
w ord
Ġp ass
Ġ |
pon se
Ġ< =
IN G
res s
Ġ[ "
or k
in fo
S E
Ġco mp
Ġ. .
o in
at tr
ro up
v el
a ve
c re
en se
it ion
Ġu se
t ri
ma in
str ing
ut h
ab el
P E
ce ption
k en
Val id
n ode
t ypes
Ġm odule
F alse
Ġp a
Ġv ersion
: `
) )
Ġn ew
ri x
u ct
Ġle ft
Val ue
Ġnum ber
ver t
par am
at ch
Ġw ill
a re
iv en
t rib
pa ce
i ct
Ġlo gg
! =
ĠD e
Ġco unt
o und
L ist
0 2
Ġar r
c al
ool s
Ġc heck
Ġ /
py right
ss age
Ġ Ex
in stance
># <
ri es
at es
p ack
Ġ z
Ġp o
L o
d ist
Ġb u
lo ad
con fig
an ge
ro w
ern al
ĠS e
1 2
ha pe
de nt
S t
do m
Ġfun ction
s ub
d ing
[ :
m b
ctor y
a k
Ġd jango
Ġi d
ĠA ny
h er
E S
for mat
ca che
t ers
j oin
Y PE
) :
mple ment
Ġs ho
Ġcol le
A R
Ġ1 0
Ġme thod
p r
ro ot
w e
Ġs y
Ġ !=
ĠĠĠĠ Ġ
do w
ï ¼
ran dom
or y
peci fi
all y
b y
t es
' :
our ce
] .
s um
In dex
Ġ 6
qu en
Valid ator
m odule
e p
ut ure
a che
m l
st art
i fi
i ch
Ġ https
f loat
F rame
ar ch
ĠPy thon
le d
f rame
~~~~ ~~~~
re am
so le
Ġhe ad
a il
r ite
Ġa b
er ies
re q
po p
Ġin st
Ġ V
fun c
t ra
Ġsup er
Ġt ry
Ġn e
li f
Ġ end
---------------- ----------------
r c
a ch
m ark
Ġf loat
" )
Ġdi re
Ġ Ð
ar r
ion s
B ase
" ]<
in al
d ate
ĠRe turn
Ġmat ch
ĠU n
I C
ar i
c ation
' s
C o
A r
Ġu sed
w ith
T he
======== ========
m on
d f
Ġt ext
EC K
Ġu ser
Ġis instance
A L
ĠC on
g ments
Ġdi ct
D e
ic al
CH ECK
eg er
Ġ up
i ck
S T
or s
Ġi ter
- <
ator s
ĠI f
r on
Â ł
qui re
st ra
( (
ri d
Ġa x
ata Frame
Ġst art
Ġ url
it s
Ġlogg ing
w o
Ġa dd
am b
Ġp l
arn ing
) ):<
int ernal
M E
Ġ ext
P ro
u ser
end or
Ġre quest
per ty
he ad
Ġm odel
Ġcolle ctions
Value Error
' '
ort ed
le ment
" ]
g u
Ġch ar
Ġcur rent
Ġval ues
re ate
n d
Ġt arget
Ġ K
int s
in ary
######## ########
lo ck
ul l
se nt
P I
Ġw ord
po s
Ġ[ '
T est
[ '
v ent
' ]<
plot ly
f uture
Ġwh ich
def ault
g or
val ues
Ġon ly
c u
amb da
ĠT est
ir st
l a
Ġt emp
v endor
Ġex p
y le
rans form
Ġd atetime
Ġsho uld
D E
v ed
raise s
in es
CHECK ING
R E
m y
py test
Ġex cept
Ġco m
Ġpa rent
Ġint er
gg er
L E
de n
Ġ[ <
ĠĠĠĠ ĠĠ
che ck
lo g
Ġ one
li ke
tr ing
Ġs um
Ġ \
an s
c ase
P y
Ġb ase
Ġp er
Ġcont ain
Ġe lif
Ð ¾
__ __
er o
Ġfor mat
" :<
Ġb ack
Ġp art
Ð °
Ġ 7
n g
ĠCo pyright
F ile
quen ce
im um
e y
[ -
' t
Ġg ener
ad ata
ed it
i de
len gth
U T
Ġ error
se ries
ĠT YPE
Ġwhe n
Ġf ind
te mp
in dow
trib ute
Ġh ave
Ġan y
u se
lo b
all able
Ġp os
l ate
Ġse e
t s
00 0
li ent
Ġp lot
pl ace
Ð µ
int er
Ġs u
Ġf irst
j ect
ç ļ
ol s
sc ri
Ġo utput
Ġg iven
çļ Ħ
ra w
ult i
ap i
Ġo ut
pro perty
I ON
arn ings
Ġa pp
C ont
Ġp d
con d
o bj
Ġo per
orm al
Ġt ra
ĠD ataFrame
i ble
1 1
an ag
Ġit em
w ork
ĠA r
Ġy ou
Ġu sing
iz er
yn c
o g
w er
Ġm o
ĠS eries
Ġo bj
c or
ĠB ase
Ġt ree
htt p
l er
Ġ 8
m is
ĠN ot
T T
Ġ q
ot al
u al
er y
Ġcon fig
( _
ig h
Ġ 9
ar g
Ġl ine
ĉ ĉ
re g
Ġun der
pa rent
Ġ> =
g n
j son
I T
Ġ Q
In put
p i
Ġre ad
Ġa c
cl u
st at
re ct
> _
ut f
s h
mo ve
de l
Ġm s
anag er
Ar ray
rib ution
) .<
id th
lic ense
R es
name s
in s
id x
il ter
as ses
c y
co ding
Ġd p
p ol
Ġ qu
a mp
ĠT ype
col or
ĠReturn s
n ew
re quest
as h
Ġsup port
ck et
Ġid x
tr y
Ġlo g
g roup
Ġcont ext
ed ge
Ġs ize
py thon
P ar
u g
vi ron
= [
Ġst ack
lo se
pro cess
st all
w rite
Ġm ust
cl s
Ġs ource
Ġl ang
Ġr un
e c
Ġd is
re turn
I nt
ut o
l abel
st ri
Ġ J
Ġres ponse
1 6
co py
k ip
ne ction
Ex ception
pro ble
m it
s hape
d u
w w
t adata
Ġ Y
) ]<
at ter
O utput
Ġ ser
ame ters
i b
9 9
Ġ. ..
Ġc ache
__( <
u res
z e
Ġs pecifi
ĠF or
pre sent
ack age
ex er
ge st
le vel
n o
F or
ĠT ime
ĠT uple
plot lib
r un
d b
Ġan not
ff er
ree Node
E qual
at ive
Ġs h
ĠI ter
] ]
Ġ- *
at ase
ms g
Ġ{ <
ta il
ren ce
in ed
Ġp ri
b ers
Ġplot ly
ab c
N ame
A N
vi ce
ch ar
w a
or g
Ġc all
Ġn ext
Ġme ssage
Ġt wo
o pen
it le
ra m
vi de
ï¼ Į
es s
o f
' )
Ġdi ff
" ),<
Ġval id
Ġc ase
v is
n an
s ort
test ing
le ct
Ġ ._
Ġo pen
ĠDe f
Ġb ut
Ġ ""
to ken
i o
Ġj son
Ġfile s
ct ools
le ase
ens or
ĠUn ion
iz ed
o ptions
n er
s ol
s u
ĠP ar
Ġ{ }<
t x
ver se
le t
cont ext
Ð ¸
** **
a v
Ġh and
Ġe ach
I O
uth or
item s
EN SE
Ġlen gth
Ġannot ations
Ñ Ĥ
i od
ht ml
IC ENSE
al led
C h
S et
ot her
en v
Ġro w
Ġ //
TT P
or der
ĠS t
> __
ca le
if y
Ġname s
valid ators
st ack
re ak
Ġc reate
Ġw arnings
st em
D ict
c ri
2 5
Ġb o
on g
S S
Ġ X
Ġ2 00
ĠD ict
del ta
Ġo ver
lat form
p ri
mple x
assert Equal
( *
to ols
ke ys
" ])<
ens ion
end s
Ġar gs
'' '<
rap per
me ssage
N ot
Ġ ì
out put
G L
Ġy ield
um n
ce ptions
ĠL ICENSE
] ]<
Ġdo es
I D
2 01
q l
Ġint eger
d is
quire ment
Ġs orted
ol d
Ex ample
Ġdire ctory
et code
C O
L exer
ic ense
lo c
s y
Ġi mage
W arning
stra ct
n umpy
Ġ- =
() ,
Ġf ield
base validators
ch ain
ĠP ro
app ing
que ue
Ð ½
U n
b ar
Ġma y
o us
S D
model s
fi eld
Ġms g
pre c
com mand
n a
l ink
Ġfun ctools
Ġm ath
Ġne ed
o pt
ic ode
ci py
S e
/ <
Ġso me
re f
w ard
Ġa v
Ġdist utils
t ings
x y
: :
Ġ{ "
Ġm id
Ġco py
' :<
Ġm ap
bu ild
ent s
pe c
ut es
Ġto ken
Ġs ame
Ġor ig
\ \
2 0
g raph
M odel
Ġma ke
` <
Ġcl s
bo x
00 00
iter al
Ġt uple
i mage
Ġbu ild
um ber
ĠSe e
s ys
Ġf ound
f a
p h
ail able
Ġpy thon
Ġi mplement
st ate
um ns
Ġmat rix
at ing
Ġ --------
ma il
Ñ ģ
m d
F I
", "
U L
fun ction
T ime
Ġre present
le ments
. ,
Ġp ackage
" ):<
up port
( __
Ġpar se
A S
in f
le etcode
c all
Ġchar act
clu de
Ġa p
pack age
s che
Re turn
Ġar gu
Ġre qui
st yle
w are
fo o
ã ģ
R L
Ġ( "
æ ķ
( -
mat rix
atase t
L O
T o
str uct
le an
tail s
Ġ" <
Ġst ate
t uple
OR M
Ġv ari
ro l
V ersion
Ġmat plotlib
Ġcur r
P ath
Ġt otal
t he
ate gor
w h
ro und
vi ew
low er
å Ī
ĠI mport
ĠC om
Ġ[ [
Ġor der
ge x
t orch
Ġ random
t able
Ñ Ģ
n ect
an y
-- <
f ter
par t
A B
ã Ģ
Ġf ol
Ġsy mpy
el l
ax is
Ġen um
Ġpy gments
R O
Ð¾ Ð
pre fix
Ġint o
Ġal low
n n
E X
Ġ ValueError
Ġex ist
Ġ )
f ace
c lose
ur ation
1 5
2 02
Ġw ork
ĠIn dex
ĠP ath
" ],
Ġl ambda
å ı
Ġin it
m al
t ree
Ġg raph
b in
Ġb inary
m od
Ġre g
e ad
le x
Ġb reak
Py thon
Ġax is
Ġl ast
ust om
Ġd ate
po int
Ġa d
lob al
v id
ĠB SD
T his
( {
ist er
pl an
Ġm ore
Ġi gn
A ny
() ))<
' ]
Ġn on
) .__
Ġm od
pl ay
e at
Ġtyp es
l d
pl y
A D
mp ty
s p
AT E
Ġs ing
f fi
re pr
Ġth an
us h
ult ip
Ġit s
Ġwhe re
f ind
t z
() .__
file s
ĠT reeNode
l ass
i mple
Ġt er
ĠO pen
Ġv is
num ber
ress ion
A C
Ġhas h
ĠC allable
par ame
Ġby tes
F ORM
un k
` .<
cur s
Ġe lement
Ġcom mand
ex p
n ow
Ġde tails
Ġfun ctions
co der
and id
mo st
ample s
u pt
ĠĠĠĠĠĠĠĠ ĠĠ
__ )<
ĠS et
il er
rib ut
ri al
par ser
stri p
ĠN ame
l ay
ĠS tring
proble ms
Âł Âł
so ur
: :<
Ġlo ad
cu ment
l p
comp at
Ġle vel
ĠImport Error
" .
od y
Ġpar ser
ol ve
Ġma in
Ġcon vert
do c
unt ime
ĠL icense
di m
comp ile
r t
Ġcol or
Ġs cipy
st ant
1 00
ĠD ist
Ġl abel
t ing
Ġdiff e
Ġa ct
u age
Ġs olution
error s
ĠG ener
b ool
ss ion
h and
P Y
fe rence
Ġw as
ĠI nt
I mplement
å ħ
t arget
an n
S tring
Ġ" __
st amp
i que
Ġin stance
EN T
Ġ1 00
viron ment
ex cept
ex ceptions
Ġ li
w he
Ġ( '
by tes
N A
lic ation
i ew
ĠT ext
Ġun it
Ġ1 2
ĠĠĠĠĠĠĠĠ Ġ
æ ľ
ER S
prec ated
r ary
Ġext ra
Ġ ]<
el s
d uct
le s
Ġc or
tx t
} )<
Ġp ol
C ol
Ġ edit
C om
i e
mat ch
â Ķ
s ign
ul ar
w ise
K E
FORM AT
M L
Ġfol low
d atetime
sour ce
b e
1 4
Ġign ore
scri ption
l ambda
cri pt
Ġ\ <
L I
ĠK ey
q a
> ]<
t ransform
æķ °
o me
Ġar g
tri ze
Lo gger
F ield
et work
) ))<
Ġb ot
od ing
for e
Ġg roup
atter n
N O
i a
trib utes
Ġo pt
ith ub
Ġiter tools
Ġ ):<
c at
F A
ok en
OR S
Ġ &
parame trize
pre cation
et a
Ġfun c
i ce
v en
Ġo ptions
st d
Ġst at
Ġ Z
____ ____
Ġc oding
t ure
il ity
Ġnum bers
g ine
ĠA PI
r type
r st
T ext
Con fig
w n
en code
T H
Ġnode s
// //
ir s
Ġ ----
Ġthe n
UL T
m id
m ask
V ar
Ġthe re
Ġno qa
gor ith
Ġst ream
iz ation
SS L
Ġpl t
mp t
a ise
c li
3 4
] *
Ġpre fix
il t
p atch
g ithub
Ġn n
ĠH TTP
er ge
de red
cl asses
S um
a ke
Ġt ri
Ġ lib
O D
Ġf ast
o b
do ut
v ers
lo gger
} ,
Ġf req
C ase
ĠG H
U N
init ion
Ġs che
Ġsu ch
w idth
ĠA n
Ġw in
upt ools
Ġ2 01
Ġ --
S ub
A t
ĠN ode
o ok
Ġ edge
Ġlang chain
c ord
Ġl ink
at ab
plan ation
Ġm ark
m ode
g rid
Ġfile name
l ines
ĠIter able
Ġo ptional
file name
o ver
g ener
+ =
ãĢ Ĥ
cur rent
" {
atab ase
me tadata
Ġg rid
Ġhe ader
Ġe mpty
Ġcont in
ho w
. "<
Ġin di
scri pt
Implement ed
ĠI t
Ġhe re
Ġse cond
o id
a fe
E n
in stall
Ġ* <
Ġ }<
w in
Ġe lements
Ġof f
s l
ä¸ ª
bu g
Ġf ont
m ory
Ġal so
ic ally
Ġm ode
we ight
Ġn x
it ed
ä »
c lient
([ [
D ist
ĠAr gs
Ġpar am
Ġ utf
Ġ http
g ram
Ġt e
} ")<
Ġst yle
Ġdf s
d le
ifi er
er r
M A
5 0
å Ń
Ġinst all
e ps
================ ================
Ġp latform
fi rst
ab s
Ġf rame
Q L
wa it
K ey
ty le
Ġ' '
Ġhe ap
form ation
el y
Ġi o
Ġb et
indow s
up date
o ff
F F
r it
ĠĠĠĠĠĠĠĠ ĠĠĠĠĠĠĠĠĠĠĠĠĠĠĠ
Ġd t
`` .<
t rans
our ces
k ens
um my
ble m
we en
er os
pt h
s rc
Ġf l
pl at
Ġurl lib
er ate
In fo
Ġ ë
ĠList Node
Ġword s
Ġre n
re ctory
D ata
cont ent
Co mp
-- -<
T R
ĠO utput
Ġex ample
la gs
str u
bu ffer
ig r
" ))<
C ode
ĠW e
Ġcontain s
Ġa li
v ar
om ial
Ð »
c ate
o o
Ġs p
2 4
lo cal
G et
f g
com mon
Ġy our
f req
mis s
################ ################
] ))<
re place
Ġth read
Ġf a
S ON
Ġ ent
_ (
FA ULT
T ra
res ponse
A l
ĠNot Implemented
Cont ext
" ),
Ġget attr
a u
Ġav ailable
le te
([ "
Ġm y
ut able
M P
ç »
Ġoper ator
Ġ2 02
o st
er t
3 3
lic en
che s
t itle
Ġen coding
Ġch ange
n ormal
c le
se arch
ic s
Ġre t
Ġpo int
Ġcontin ue
i mp
Ġreturn s
Ġs ign
pen den
ro p
st ream
Ġk w
Ġ like
å Ĳ
t yp
ww w
ag ing
f ont
è ¿
fix ture
Ġ license
head ers
ver y
w rap
B u
b lock
ä¸ Ģ
ï¼ ļ
Ġ-* -
ra g
I mage
ame ter
h ash
di ff
Ġ-* -<
m anager
Ġ" .
ategor ical
Ġre move
ĠĠĠĠĠĠĠĠĠĠĠĠĠĠĠĠ ĠĠĠĠĠĠĠĠĠĠĠĠĠĠĠĠ
T YPE
Ġstr ings
ix in
Ġenum erate
ĠĠĠĠĠĠĠĠ ĠĠĠĠ
n ing
Ġhead ers
D i
Ġm ultip
ction ary
con sole
ss ible
T ree
] +
Ġdiffe rent
it ive
Ġde precated
re move
Ġe vent
Ġdefault dict
back ends
it ies
per ator
l ast
Ġhe ight
Ġat tribute
Ġc re
M odule
I L
d t
f ul
or age
end er
] ],
= ["
f it
t en
__ ,
Ġa fter
H and
able s
ser ved
de v
Ġpro vide
1 8
tra in
f ilter
r iter
to col
and ard
cre ate
Ġpre v
T uple
Ġ queue
Ġz ip
c an
ĠA t
ot e
Ġsing le
ex pected
ri de
l ing
it es
mb ol
s ide
], [
cont rib
li ght
ch ild
get Logger
~~~~~~~~ ~~~~~~~~
to p
Ġc alled
Ġme tadata
1 3
c ul
stract method
gorith m
4 0
Re quest
Ġ' .
k g
val s
T E
v es
ĠC ol
al most
Ġcont ent
ĠI mage
Ġspecifi ed
Ġ2 0
ĠA ll
cont ain
ern el
Ġ å
o ck
unt er
b a
Par ser
Ġin formation
ĠA l
I ME
Ġa uto
a uth
ast ype
Ġd ig
up lic
at er
Ġback end
UT H
Ġ-------- --<
ĠC ont
po ints
Ġto p
ran d
b it
Ġc ast
reg ister
ens ure
Ġmax imum
ar ange
pro ject
ĠPar ameters
ĠU RL
ran k
Ġlo ok
ä ½
ifi ed
ĠIn valid
at ure
ĠD o
5 6
i str
is sing
= {
( ?
1 7
as ic
m ath
2 00
class method
Ġm ask
A PI
Ġint eg
Ġb ound
emp ty
Ġinst ead
Ġper iod
Ġmethod s
E L
Ġmodel s
yn omial
ä º
ext ra
Ġg o
. ")<
sol ute
g t
} "<
e ar
he s
I S
Ġs ort
th ing
plat form
ition al
param s
ess age
ĠF ile
M ixin
mple te
Ġi m
-------------------------------- --------------------------------
dow n
For mat
ì Ŀ
ve ctor
o ption
Ġobject s
vid er
Ġse arch
Ġans wer
I d
> '''<
Ġfollow ing
Ġt ransform
T O
de code
o se
Ġwe ight
ss l
Ġh igh
ĠV ersion
o int
ub le
i er
s ha
in sert
Ġun icode
ĠSe quence
Ġs hape
ĠR es
Ġdi r
1 9
a ction
M anager
ic es
Ġbet ween
as sed
on ly
Ġerror s
U S
> -
G ener
vis ion
G iven
Ġde l
Ġn ormal
Ġorig inal
U P
3 0
on es
Ġt z
Ġw idth
d types
d ot
ĠC heck
ĠA UTH
A n
# <
__ <
O f
Ġat tr
Ġargu ments
or ig
' .
Ġunit test
E P
p ass
ĠDef inition
Ġpo ints
re lease
Ġqu ery
e k
t ed
Ġcomp at
Ġset tings
Ġpath lib
ribut ed
pl t
ĠAUTH ORS
s kip
Ġlogg er
D o
peci al
ro ll
Ġin clude
Ġpro cess
gg ing
quire ments
**** ****
e val
ĠIn put
ca use
Ġt rans
di rect
stat us
Ġinit ial
O bject
ĠL iteral
G E
s pec
Ġle t
Ġoff set
Ġstr uct
do cs
i ft
Ġ"" <
ens ions
z ero
Ġren der
Ġimplement ation
q rt
ĠN umber
, -
upport ed
st dout
le g
ke ep
ĠDef ault
2 2
H e
Res ult
L e
t ag
Ġrequi res
l ang
ad ded
> )
c ed
Ġcharact ers
po st
temp late
on gest
back end
he ader
å ¤
Con sole
ub lic
ci mal
' ):<
s orted
ex ec
C ache
] ])<
he ap
D I
Ġresult s
com m
en ter
Ġw ant
ãĢĤ <
eg ative
module s
ul er
s age
Ġthe m
Ġt able
ĠC h
co pyright
C lass
Ġ{ }
read line
pack aging
202 4
Ġch ild
ca pe
he ight
Ġrequest s
è ¾
lo sed
Ġtest s
5 5
st ore
p ip
' ),<
ĠCo mp
Ġ util
EX T
Ġhas attr
Ġt rue
un it
Ġab solute
m ulti
ve lo
Ġname d
ĠW he
Ġg lobal
mb ed
i an
Ex planation
Ġcol umns
word s
z y
) -
" ],<
r u
Ġw rite
de vice
æ ĺ
F un
Ġvis ited
p ed
P re
li ce
; <
] ):<
stat ic
che my
dent ifier
ra di
Ġwith out
typ ing
-------- ----
che d
g en
ĠM ulti
ri ch
mplex ity
Ġbot h
qu ery
Ġdire ct
read y
Ġpro ject
ry pt
N umber
Ġkw args
({ "
å º
yn am
L S
al cul
n on
Ð º
Ġcl asses
il der
ĠP er
Ġre mo
O C
at rix
Ġf eat
Ġpos ition
Ġreturn ed
em o
= (
ow er
h as
s ync
ĠEx ample
Ġex ception
Ġset up
Ġlo w
ĠNotImplemented Error
test s
Ġmo ck
le ction
der r
off set
` ,
S tr
as on
Ġpo ssible
Ġcontext lib
Ġo p
e lement
now n
field s
Ġarray s
c ent
Ġe qual
e vent
Ġ---- ---<
Ġ[ -
al th
z eros
Com mand
all close
bo ok
Ġre f
L ine
ter m
å ĩ
f low
std in
ist s
Ġbe fore
Ġcharact er
ĠL o
m ary
us r
ca st
on ical
ci i
Ġ ver
Ġde que
ix ed
Ġa g
Ġset uptools
a uthor
ch ange
Ġrequi red
pecifi er
# !
f fix
[ [
= <
Ġse quence
me an
`` <
istr y
Ġdef ined
S olution
ang le
Ġp assed
url lib
Ġsy stem
ĠPy gments
Ġhe lp
ib ility
vi ded
di rectory
O S
Ġs olve
S er
Ġ' __
Ġc lient
ce back
en gine
po se
di v
col umns
d p
t ask
n one
as ync
d jango
I G
Ġj ust
Hand ler
Ġ1 1
m ul
3 1
Ġf ull
Ġte am
] ])
cre ment
â Ģ
ĠEx ception
array s
Test Case
æ ł
me ta
pol y
b inary
se cond
he d
ant ic
Ġ1 6
) [
ĠU se
Ġab s
T ER
b l
ab stractmethod
proble m
Ġat tributes
Ġen code
ith er
Ġs cript
t on
cs v
Ġex ec
D type
dir s
f ill
ĠRe quest
b ed
U R
f init
âĶ Ģ
Ñ ĥ
nt ax
Ġcol umn
Int er
ĠCon sole
T oken
Ā Ā
ac y
p age
Res ponse
a i
c fg
m all
o ps
bo ard
get attr
ERS ION
P R
r ng
Ġin valid
St ream
I t
" ).
ma ke
Ġw rap
Ġthe y
Ġre verse
Ġimport lib
Ġheap q
andid ate
Ġ :<
s parse
ile d
z en
v ari
`` ,
da pt
d ay
M e
st ep
Ġ mp
ffi ci
Ġc types
w arn
Ġgener ated
- >
z ip
Ġargu ment
set up
Ġt ag
[: ,
Ġw ay
package s
__ ":<
Ġcon nection
H E
ord in
Ġd on
b ot
Ġlang uage
gu ment
Ġso cket
Ġinteg ers
s pect
8 0
s how
a ys
t ect
i as
C ON
Ġc nt
is ion
ĠS QL
ĠY ou
Ġst ore
id get
Ġmin imum
l per
Ġcon sole
c cess
lib s
Ġdo c
ĠIter ator
dle ware
è ¡
ĠB y
f l
en coding
: -
T IME
> """
ĠN O
c ap
n et
Ġo ption
Ġp ick
comm un
def or
Y ou
set tings
case s
Ġs pace
Ġpar ameters
defor ces
Ġtemp late
c c
Ġc ustom
I ter
f ft
Ġpro blem
Ġ200 6
æĺ ¯
Ġse ries
Ġwhe ther
ro zen
ĠCo unter
6 6
Ġbe en
DE FAULT
Ġdi ctionary
Ġst ep
d s
2 3
lat ive
ĠT ra
sche ma
p ha
Ġ'' '<
Ġv iew
H TTP
T ML
le ss
Ġt mp
ho st
m an
ites pace
er ic
d m
Ġ ensure
n ull
AN D
wa ys
f n
in ce
andid ates
Ġin fo
ĠA dd
at tribute
7 8
fe at
a a
ers on
ĠType Var
Ġl ines
Ġ keys
E D
en ce
ĠI D
N o
se rial
Re quirement
g o
__ ()<
se ssion
velo p
è ¯
Ġpar ameter
Ġw rapper
re en
Ġpart s
Ġas ync
me s
ay er
a ut
Ġse rial
Ġco ver
Ġo ld
es cape
Ġs ql
ç Ķ
Ġ1 5
Ġn d
Ġw indow
Ch ar
] ]:<
Ġgener ate
ĠDist utils
Ġpro vided
igh b
Ġbe cause
Ġsub process
en viron
O r
vi ous
() )
Ġm erge
re al
s ample
ĠNot e
ĠOpen GL
con vert
a f
? <
fa ctor
Ġe ven
R aise
at t
KE Y
Ñ ı
s v
T ensor
sc al
} )
n orm
) ]
i pe
Ġ licen
F a
Ġun ique
Ġact ual
b ody
u mp
M essage
ĠC reate
commun ity
ar row
nd array
Ġ.. .<
F ound
l t
t ick
ase s
as ure
ĠO r
bo und
Ð ¼
e q
Ġf ilter
Ġre served
ise ct
Ġlicen sed
0 5
end ing
Ġre place
å °
con nect
H el
u int
Ġ æ
#! /
Ġal ready
Dist ribution
Ġlo wer
E nt
int eger
mis c
ate g
b s
ho ok
qui res
ft ware
Test s
pos ition
ĠAr ray
cor ator
Ġup date
Ġter ms
k it
Ġdoes n
Ġtime out
ĠS o
me d
og le
ĠKey word
g ra
> }<
ĠType Error
ĠCom mand
u ation
å ®
S y
' ))<
l s
a gs
de scription
node s
Ġmultip le
or ed
è¾ ĵ
ext ension
Ġb lock
le arn
Ġitem s
) ),
Ð ²
Ġa wait
ĠCom ment
ar s
d at
res ources
an ces
NA ME
Ġs kip
code s
I I
se quence
il y
D ataFrame
Ġm on
Ġedge s
Ġ err
ĠC ategorical
Ġu ses
stru ctor
al ind
start s
Ġc ell
ĠCon fig
I P
Ġ ,
Ġthe ir
9 0
Ġ[ (
is s
Ġcon s
id den
Ġthe se
Ġex c
Ġright s
ar gest
it ial
t ension
qu are
} ,<
Ġh ow
Ġz ero
A Y
Ġbo x
Type Error
t otal
py gments
eg g
l c
ci es
B y
cont rol
Ġbase d
Col or
ĠĠĠĠĠĠĠĠ ĠĠĠĠĠĠ
Ġf inal
A pp
c md
Ġdo cument
Ġlo cal
O K
Ġwith in
Con nection
o lean
Ġf ig
c p
Ġ{ '
Ġcan not
De f
release s
ha vi
t t
ĠS y
í ķ
Ġm issing
s ave
s ql
t mp
S eries
s olution
P D
res h
In valid
O L
e ded
St ate
stra ints
E lement
per t
Ġlabel s
B U
Ġ keep
Ġse ssion
.. .
ch ann
ro me
Ġs plit
y Type
:` ~
Ġexist s
M ax
ã Ĥ
ff ect
{ }
Ġo ur
wh ile
z one
T ools
Ġt s
li ed
u dent
to m
ug h
0 3
O P
AB C
Ġfield s
Ġa ction
', '
em bed
d ings
st derr
emp late
Ġc md
li p
a T
S I
ĠD E
ĠEx amples
ĠĠĠĠĠĠĠĠ ĠĠĠĠĠ
d antic
f c
ax es
Ġ# :
Ġhand le
al s
m t
whe el
im ize
Ġsho w
T reeNode
Ġremo ved
ĠP EP
po ol
Ġfor m
Ġser ver
Ġ ~~~~~~~~~~~~~~~~
S C
Ġst d
Ġc a
Ġoper ations
label s
dist ribution
Ġco mb
0 8
con nection
c d
in di
Ġ" _
g round
Ġco st
Ġt ask
Ġdist ribution
O pen
em ory
Ġ ê
Ġinter face
O ptional
w arning
Ġre l
Ġsupport ed
s afe
Ġcon nect
2 6
Ġ-------- <
Ġs ample
Ġi mp
row s
a uto
or ld
Ġab out
x x
di g
v ate
D es
u id
al low
static method
Ġs k
ĠM y
Ġconfig uration
åĩ º
7 5
Ġto kens
as cii
u ff
dist utils
Ġc ho
li mit
se ction
de bug
Ġre lative
8 6
Ġde scription
Ġf ill
Ġpath s
Ġch unk
ist ory
Ġe ither
æ ĸ
mark er
Ġperiod s
is on
ri ver
U p
Ġad j
ĠG et
starts with
Ġin spect
] :
Ġk ind
Ġ" \
me mory
//// ////
ay out
def ined
ce ll
us ion
OR D
åŃ Ĺ
con v
* .
ĠS tyle
ex pr
Ġe val
s pace
g ree
ĠFor mat
ĠMulti Index
Ġtime delta
rag ma
t ol
pert ies
W rapper
all back
Ġf ail
Ġbu ffer
con f
Ġin sert
Ġal gorithm
ĠTime stamp
Ġst ri
Ġother wise
] ),
co mplex
Ġs sl
mo unt
Ġs imple
ĠInt er
co pe
) *
ĠA B
Ġcontain ing
d ataset
Ġd ataset
p at
Ġcom mon
Ġs low
Ġp attern
Ġm an
Ġnames pace
U RL
Ġe mail
ex c
Ġext ension
u d
du mp
ok up
t wo
A uthor
ver age
e e
get item
in der
tri c
ä¸Ģ ä¸ª
Ġp ragma
Ġap pro
ces sing
8 8
Ġl ong
n x
ime ns
AC K
p ress
o uld
ug in
Ġa ut
s cale
f er
id s
Ġh ook
mo ck
Ġdo wn
ar ison
ren ces
Ġse par
ä¸ Ń
r al
ĠJ SON
col umn
ter min
Ġme mory
Ġthread ing
Ġlo op
æ ī
Ġo b
s ite
child ren
able d
g h
Ġt itle
Q u
ext ensions
DI R
ci o
EC T
do main
ĠR aise
g lobal
ĠN o
i k
ĠM apping
Ġp atch
Ġs rc
il ar
" }<
Ġre lease
V AL
Ġbu ilt
ng ine
Format ter
a ded
V iew
ro ugh
Ġdi m
s pecifi
im g
ure d
Ġb isect
pass word
æľ ī
an k
Ġre ason
im ilar
C heck
å Ľ
Ġinst alled
S G
cal ar
py plot
ess ion
7 4
ren der
di o
P RO
lic it
Me thod
tribute Error
Ġ( (
ĠI O
Not Found
0 6
i ke
ION S
ma g
onical ize
L en
Ġ" ,
Ð ´
gex Lexer
0 4
Ġe very
> `
_ ,
B ack
ST R
D ATE
Ġuser s
g ment
Ġw ould
par ts
int ypes
Ġle x
Ġwhe el
Ġs ha
Ġmo st
precation Warning
N um
b stract
ta gs
Ġdig its
ok ie
Ġpro duct
s or
U M
ĠD jango
ĠN um
ĠIn stall
S tyle
__ ':<
le st
f p
Ġn orm
yn cio
ĠL ink
________ ________
ex it
A dd
Ġallow ed
U ser
ä¸ º
cur ity
Ġor d
inal g
Ġfa ctor
A SE
W he
ch o
Ġn etwork
P a
lo y
ER R
as ing
ap ply
Ġvari able
F O
Ġr ng
feat ures
s up
b b
Ġpol y
Ġcor rect
j or
Ġs ol
Ġde vice
Ġp kg
t ensor
che ma
G raph
lo cation
w rapper
l in
ategor ies
m ut
s pe
hand le
indi ces
L ink
æ Ī
Ġ ----------------------------------------------------------------
Ġd ynam
Ġ vert
Ġmodule s
ĠP re
num bers
s w
g ame
ĠB u
Ġim g
scal ar
object s
lo gging
Ġpar sed
Ġac cept
miss ions
Ġbe havi
" \
3 5
ÂłÂł ÂłÂł
C allable
h s
Ġparam s
(" /
sy stem
O ptions
Ġb it
alind rome
OR T
Ġde penden
e mail
Ñ ĭ
Ġprovide s
do uble
v o
Ġsh util
Ġi dent
ĠI N
ol der
Ġse nt
th read
çĶ ¨
lex ers
request s
sc ore
Ġre quirement
igr ations
bu ilt
in valid
con stant
R eg
ri e
re quen
ur ing
Ġse en
Ġnd array
Ġcase s
miss ion
k ind
b atch
Lo ader
Ġlib rary
Ġre al
Ġac cess
path s
Ġav oid
__ .
on ents
link ed
w indow
ç ¬
Ġc alcul
() )):<
Ġpro xy
s qrt
im al
Ġtra in
Ġs ave
( \
M O
i re
ĠD atetime
up y
Ġal ways
) ])<
V ERSION
p attern
se lect
Ġimport s
Ġs c
w arnings
mal lest
ĠW h
po ch
se c
re l
Re ader
Ġpart ial
D O
se q
to ol
Ġen v
so cket
Ġcode cs
pa che
re es
t ty
to kens
E vent
Ġb ody
m or
al k
de lete
Ġindi ces
Ġdis play
al le
T h
Al chemy
l yp
ex ists
Ġc ap
25 6
Ġrepresent ing
4 4
cre asing
ro ss
lex er
add ing
W ord
(" \
W e
li m
Ġtime s
Ġs a
Ġp op
cur r
St ack
r at
ĠC ON
de t
3 6
ã ĥ
rc Validator
lot s
bo se
ç Ĥ
L M
est ed
S H
res pon
CO L
ç Ľ
u x
ĠI Python
EN S
Ġin clu
ĠC ode
Ġm ulti
ĠA pp
Ġf n
Ġ3 0
Ġc y
Ġ raw
12 8
åħ ¥
st er
pri ce
co s
E T
v ing
al f
c ard
q dm
ch unk
ĠT oken
cri ption
A P
In stall
ĠS ub
a le
ĠA pache
ent ion
~ <
ĠIn c
' ])<
e red
Y ES
cre t
C lient
group s
ier arch
Ġu sage
ĠF un
Ġs ide
Ġl ongest
Ġab c
Ġ1 000
P er
pro duct
Ġraise d
J SON
ĠT o
: ]<
re quires
ign ore
ä ¾
ĠU ser
is h
c v
d uler
st eps
ĠTime delta
act er
un ique
f y
2 7
set s
[ _
Ġd ay
iv ely
Ġro t
Ġc tx
é ĩ
å ľ
user name
r as
mis sing
B O
ĠP latform
ĠT h
Ġex act
il ters
PD X
ĠS PDX
çĤ ¹
l ong
List Node
ĠE n
Ġinter val
dir name
Ġre du
OD O
Ġstat us
Ġsh ort
igr ation
ĠSQL Alchemy
Ġpre vious
Ġo c
col s
2 9
r s
ak es
Ġfor ward
o per
Ġversion added
S o
ĠS pace
ES S
re gex
Ġ ra
ut ton
col ors
[: :-
il ing
Ġde st
init ial
] ==
ĠM e
Ġen vironment
i loc
2 8
Ġw rit
Ġco mplete
ES T
ĠG iven
Ġpo st
Ġs cale
.. /
pe at
an not
Ġlo cation
æľ Ģ
upy ter
G roup
2 000
V ER
ic ro
d rop
re verse
lay er
Ġspecifi c
and om
Ġen gine
se ed
str ings
() ,<
M ap
. *
he ll
g i
Ġa mount
tes IO
Ġrun ning
Ġad ded
comp iler
ordin ates
f ull
Ġs w
res hape
D ate
7 7
M in
Ġn ow
or es
me th
ue ue
ĠO n
Ġtemp file
ac ity
P L
M atrix
Ġw ho
et ch
pos it
Ġiter able
EN D
è ®
Ġf lags
Ġ' #
Ġ1 3
Ġs pec
Ġexp ression
ĠZ Z
0 9
Ġp age
term ine
Ġli mit
W ith
ĠH ero
Ġraise s
ward s
d Tuple
u sed
Ġp yp
Ġfl ag
' \
S ize
av ailable
re set
Ġ' <
Ġde code
ender able
ĠR untime
e ffici
D is
Ġd b
E num
Ġm any
l inalg
ser ver
R et
Ġl a
so ci
Ġse lect
Ġd atabase
pre v
Ġcan onicalize
st orage
Ġper form
) +
Ġdo main
uplic ate
Ġ1 4
whe re
iz es
= -
Cont ent
ĠD i
tra ck
as y
A s
stri ct
Ġre main
Val ues
he nt
ed i
un ct
app lication
Ġdist ance
Ġre q
> ..
W S
mple t
Ġpre sent
Ġarg parse
o x
Ġcode s
pa ces
ar ge
Ġpol ynomial
A G
i ent
Ġth rough
ver sed
Ġcache d
! <
atase ts
et adata
u ally
g b
ect or
P AT
hent ic
Ġb atch
Ġ3 2
function al
> [
Ġ< <
u ous
me di
sing le
co st
lay out
test cases
ĠW indows
r ont
Ġd imens
Ġp ool
ns upported
It em
ĠM eta
Ġlink ed
Ġnamed tuple
Ġali ases
Ġpri ces
Ġpackage s
Ġ' '<
Ġdist ributed
Ġ" -
iv es
Ġ" )<
r ate
Ġe mbed
Ġfile names
crement al
ver ter
Ġbo ard
L ike
dapt er
Q U
Ġ vector
Ġc lose
P ool
Ġres ource
Fun ction
Ġd ummy
g in
Ġs ince
ĠOr dered
alle l
IN E
Ġcon stant
og raph
ule s
Ñ Į
Ġf in
f lags
dis patch
Par se
l ap
Ġsub class
Ġv ia
O n
A uth
f lat
st andard
Ġcompat ibility
re st
up per
3 9
Ġtoken izer
Ġter m
' ),
Ġde sc
_ <
on al
count s
Ġcount er
Ðµ Ð½
R un
c rypt
ĠO perator
chann els
Ġapp lication
s lots
ro t
Ġ5 0
ç ¤
Ġtra ck
âĶĢ âĶĢ
I dentifier
Ġ Ñģ
T able
Ġcre ated
Ġcon struct
so ft
==== ==
hand ler
3 8
ĠGener ic
ĠPer iod
Ġrow s
Ġa uth
ĠA R
ĠI S
ĠM IT
Ġ Error
Ġle ss
ĠQ u
format ter
Ġlo c
N ING
h igh
in ation
ĠT ODO
yp ed
mb ols
Ġde p
edge s
l iteral
' ],
lat es
T ool
k nown
Ġle ast
Ġoper ation
de precation
p andas
ç¤ º
" ].
Ġre curs
Ġpro perty
ul ation
ĠM ark
ĠGener ator
Co unt
Ġp e
ĠAB C
w d
ĠH TML
Pro vider
Ġpro du
Ġas su
Ġs mall
M ark
Ġb l
requen cy
ĠĠĠĠĠĠĠĠĠĠĠĠĠĠĠĠ ĠĠĠĠ
result s
w s
ex ception
Ġ ),<
Ġ" %
Ġwork s
>> >>
Ġne eded
Ġsk learn
Ġj oin
S L
Ġst andard
ipe line
AB LE
bu f
g ress
L icense
he alth
Ġde pth
Ġs ix
Ġm m
lyp h
f s
in ner
Ġbe low
sub plot
read er
qu ent
Ġhand ling
Ġextra ct
user s
H ierarch
stra int
lo op
ĠO ther
ar ies
() ]<
c losed
qu iv
è¡ ¨
D B
Ñ ĩ
ĠIn itial
Ġex ceptions
ä¸ į
Ġg re
O per
Ġpass word
x ml
ĠD ata
Ġpri ce
__ ,<
` .
cu da
se ns
ut er
ter n
contain er
) ),<
Ġk ernel
ar gument
call back
Ġ $
Ġ' /
Not e
\ .
ĠString IO
load s
ffi li
' ).
Ġdirect ly
ĠPar se
2 1
Hierarch yType
Ġcor respon
ath er
Ġmo ve
ome try
E nd
c ar
Ġat t
Ġco mplexity
Ġst op
IN T
Ġsche me
(? :
C reate
EXT ENS
Ġa ffili
ra ction
Ġfont Tools
T ransform
Ġaffili ates
par ameters
Ġkey word
Ġe t
vers al
a lect
Ġtest ing
Ġent ry
ifi cation
Ġsupport s
Ġ( -
Ġs ite
posit ory
ra ps
Ġan other
ERR OR
u me
Ġma k
M apping
Ġn a
Ġvalid ate
per iod
P O
pt r
201 1
Ġg lob
la zy
Ġ â
k ernel
Tra ce
lo okup
ag g
er iv
Ġre tri
Ġch ain
unit test
Ġpos itive
u a
M ENT
6 0
cor ators
ograph y
IT E
Comp iler
å Ĭ
ex ample
ĠC O
å Ģ
d ition
4 5
Ġap ply
F ilter
it or
he app
ĠÐ ¿
Ġle g
in st
add ress
c nt
Ġde lete
Ġag ain
Ġpro perties
or ary
Ġpick le
uplic ates
Ġde bug
Ġpro gram
dis play
Ġcont ribut
ĠP ol
re quirements
Ġt r
Ġc ar
asure ment
Ġ ^
Ġbe ing
Ġmark er
Ġu nt
ĠL ine
Ġax es
ĠAt tributeError
us ing
C A
S chema
Ġco uld
Ġdata classes
------------ -<
P AR
ĠÐ º
ĠF ield
s imple
data class
ATE D
ä ¹
ĠS parse
Time out
Ġl st
ur i
Ġsy ntax
L ib
é ¢
time delta
åĪ °
attr s
ä» ¥
Cont rol
HE AD
color bar
Ġtext wrap
Ġs pecial
Ġ" /
Ġhe lper
velop ment
\ <
ĠInter val
u i
so me
he lp
on ent
ĠAl so
] =
un icode
red u
ĠF ast
Ġmy py
ĠA s
è §
c ustom
I M
unct uation
x es
I f
lo ss
s a
ĠB inary
æ Ĺ
Ġbo olean
c ision
Ġw arning
cu ments
MA X
AT A
f d
reg istry
ide o
Ġs afe
Ġs core
V E
l st
Ġ el
ÑĢ Ð°
ent ry
ant i
i ed
Ġset ting
Ġde cimal
Ġm ime
T ag
Ġh ost
Ġme an
act ive
Ġlog ic
arg v
C ur
i mplement
ĠQ Q
Ġc v
Ex tension
pi pe
ĠWhe n
Ser ial
) (
Ġpre releases
Ġcont rol
ĠB e
mple ments
ues s
ĉĉ ĉ
en vironment
Ġo dd
ĠDefault s
Ġ est
f inal
Ġreg ister
Ġcall s
Ġt ags
se e
Ġmod ify
ĠOrdered Dict
group by
F loat
Ġlet ters
ç» Ħ
Ġlook up
Ġ ],<
ĠO bject
Ġre pr
Ġde tect
I B
Ĵ Į
ĠThe re
ĠCol or
Ġp ack
py arrow
h i
Ġpro mpt
ad ing
cal c
p d
åı ¯
Ġf alse
Ġt qdm
Int eger
se p
E d
Ġhand ler
message s
P ol
ĠT e
licen ses
parser s
sche me
j i
ĠC lass
Ġfeat ures
we b
Ġre st
s upport
Ġd uring
t ic
Ġc allable
Ġdig it
] .<
cli p
Ġs ure
åľ ¨
Ġbehavi or
her it
by te
ation Error
SG I
sub process
Ġwh at
Ġpa irs
Ġuse ful
ĠL eg
Ġas yncio
> =
for ce
qu ant
Ġinter vals
Ġpa ir
PR EC
ho me
æ ŀ
é Ģ
p g
Ġt ensor
Ġcomp iler
ext end
p kg
Ġis s
Ġcol ors
[: -
ĠCo mplexity
ĠDatetime Index
id er
atter ns
C C
Ġde corator
ĠRaise s
P oint
Ġmessage s
Ġrepresent ation
ä¾ ĭ
Def ault
change d
ol ver
lang uage
R o
Ġre quirements
roll er
re cord
IN FO
A I
Ġ* =
ĠDE FAULT
quest ion
Ġinst anti
P ri
Ġt ake
Ġ rank
sh ift
T rans
() :
Whe el
Ġuser name
lo ader
Ġw intypes
meta class
P UT
valid ate
s lice
ĠĠĠĠĠĠĠĠĠĠĠĠĠĠĠĠ ĠĠ
Ġ ----------------
url s
re ated
Ġb in
pro to
Ġby te
ĠBy tesIO
) /
su ffix
t rue
Ġm apping
contain s
AL L
s i
Ġhash lib
Ġi p
Ġlo ss
mat ically
ĠĠĠĠĠĠĠĠĠĠĠĠĠĠĠĠ Ġ
e ver
ĠĠĠĠĠĠĠĠĠĠĠĠĠĠĠĠ ĠĠĠĠĠĠĠĠĠĠĠ
ow n
Ġspecifi er
ot on
9 5
Ġover ride
ĠR eg
CH E
ĠKey Error
Ġme ans
ĠR emo
Ġf p
f ail
DE PREC
op le
fe rences
> :
cre en
sign ed
ç ´
eg in
BU G
re r
ĠO S
ĠD is
ĠWh itespace
+ +
Ġl argest
Ġup per
Ġp ort
j a
Ġre ference
3 7
line ar
é Ĺ
Ġst eps
Z E
Ġpy dantic
Back end
mat plotlib
s ig
Ġstruct ure
built ins
Ġn ull
Ġsu ffix
ert ifi
Ġth ree
b ab
P os
:` .
P en
De precationWarning
set ter
Raise d
] -
W riter
p ad
c um
l lo
T ask
run ner
I s
En coder
Ġto ol
ĠM ax
Ġlet ter
S QL
v as
( **
s cipy
le ctor
fun ctions
ĠRes ponse
LI KE
P ower
Ġrepresent s
Ġal pha
che b
Ġdynam ically
cre te
import er
al ign
r b
w rit
pro mpt
radi us
B lock
Ġor dered
bu ilder
åº ı
Ġon ce
og ram
Ġc losed
m ing
iss ues
sc atter
Len gth
A ll
de pth
ĠM ock
s in
9 6
1 000
ĥ ½
ctor ies
Ġopt im
Ġ utils
æ İ
Ġf rozen
Ġdi vision
d raw
4 01
******** ********
a ma
FI X
Ġdependen cies
m erge
ile s
g ent
ĠSt ream
), (
OC K
au ss
opt s
AT ION
G R
dist ance
Gener ator
y ear
Ġdis able
Trace HierarchyType
ic y
Ġun pack
ĀĀ ĀĀ
PAT H
ag ent
u dio
C T
W ORD
Par am
ĠA sync
Ġs calar
fig ure
Ġdi v
Ġc he
NotFound Error
penden cy
Return s
Ġr untime
oton ic
Un ion
s k
fa ctory
F ont
eg ment
n ess
token izer
f older
a it
as array
st op
Ġd raw
pro du
} \
Ġs imp
Ġco mplex
are a
de sc
Des cription
S ession
å ½
Ġg ot
ĠBu ild
Ġlist s
ĠT ensor
it ch
ĠRe quirement
co mplete
sy mbol
ï¼ļ <
Ġvari ables
ĠDist ribution
Ġindi c
Ġsing ly
H ead
En vironment
l m
Ġcall back
Ġp ublic
level s
ĠCon vert
G B
F rom
ation al
Ġse nd
b asic
bo ve
R UN
Hel lo
Ġsys config
Ġg u
den se
res sed
Ġ' -
cl us
> *
Ġs pe
Ġrel ated
id dleware
.. .,
sh ort
Ð¾Ð ²
al pha
ist ent
æ Ŀ
ho uld
æ ³
'' '
ĠNO T
Ġco effici
ĠS pecifier
ĠR E
tra ined
AR K
DEPREC ATED
4 8
Ġre ce
fi gs
ĠS SL
Ġet c
Ġw ell
ta ke
å ¼
s amples
Ġnormal ize
A ME
) ).
D ataset
Ġdata class
A c
ĠT emplate
lib rary
num eric
__ .__
Ġb est
Ġimage s
p ick
ighb ors
W in
Ġ ge
Ġt gt
time out
* (
Ġfeat ure
D F
Ġat temp
Ġt d
Ġhigh light
Ġas soci
Ġ% (
l ers
P l
gener ate
Ġmat ches
Se quence
M eta
n etwork
it al
OK UP
ad j
W idget
Ġa bove
b its
Ġpar sing
s n
Ġt akes
C la
æ ¯
ĠNum Py
ut or
int eg
R ange
orig inal
r l
Ġd at
ĠL e
Ġinput s
m apping
è¾ĵ åħ¥
a pt
stat s
Ġ í
de corators
Ġadd itional
P RE
l ag
ed ia
Ġ[ ],
Ġst ored
o c
Ġre port
Ġc at
" .<
M emory
d ated
tri cs
F T
m i
ĠM atrix
Ġcon cat
Re ad
re curs
(" .
ain er
l ation
ĠThe se
let te
Ġversion s
Ġ html
curs or
á ´
Ġit self
resh old
Ġ2 4
peci fy
Ġd eriv
ĠS er
Ġtra ceback
pol ynomial
second s
Ġd ays
Ġin v
ist ic
ë ĭ
sol ve
Ð ±
å į
finit y
Ġattr s
Ġter min
9 8
ê °
Ġre try
B it
_ {
ig uous
ĠA bstract
literal s
he x
cle ar
con cat
di ms
Ġro und
Ġsu ccess
M S
comp are
Ġoc cur
Ġm ight
iv ot
Ġrelease d
0 7
specifi c
ch at
12 34
r untime
ale nt
u ate
Ġ2 5
un ion
LO OKUP
Ġdt i
SSL Context
+ )
un der
Ġcur sor
ateg ory
Lo ck
ĠÐ ²
å ¾
d ar
Ġrender able
' {
p ush
s pecial
ì Ĺ
Ġre direct
Q t
ass ign
quiv alent
H T
) ],
Ġ Values
Ġre cord
e ed
Ġw arn
ĠEx planation
> ``
ou gh
R ow
or n
Ġ1 99
in clude
p an
ĠM in
style s
D AY
Ġc li
c ing
Ġd ot
pri me
a red
il ities
Ġwe b
Ġ* ,
Ġneed s
' .<
Ġ2 55
Con straints
Ġ_ ,
row ser
Ġcontribut ors
Ġx ml
Ġ" #
è Ĭ
he lper
Ġ' \
Cla use
F inder
Ġ[ ]
mplet ion
Ġlo cale
at is
ĠM B
an e
set uptools
Ġcorrespon ding
c lean
Ġd one
ĠM od
le v
Ġc ir
Ġex it
N et
le ar
Ġre pository
li sh
le ep
ur al
cp u
ul ate
f ast
Ġres p
ĠN ew
Ð ·
Ġin d
do cument
è¾ĵ åĩº
d atasets
Ġt t
]) .
al ias
SI ZE
co deforces
ress ions
ck s
a w
M ulti
} .
command s
Q ueue
assert True
ĠÐ ´
åĽ ŀ
å Į
re v
Ġp ower
f li
quen ces
O ption
ĠA uto
D et
~~~~ ~~
Ġ es
ĠF ind
Ġc lean
De coder
names pace
av ing
Ġa st
`` .
en cy
Ex tra
å Ĩ
par sed
i dent
p df
Di ff
Line ar
ĠRe ad
Ġso ftware
s ix
O UT
Ġth ose
Ġ' ../
Ġallow s
, )<
Ġ" {
p c
Ġc s
me n
g is
} :
Ñģ ÑĤ
} {
de gree
Ġpl ace
Ġchild ren
Ġback ground
M ON
! ")<
e poch
Ġs parse
Ġde n
N aT
Ġre set
Ġexp licit
ĠP IL
ort ran
Ġs quare
Ġr tol
her o
Ġsup p
se nd
de rer
m m
Ġch ann
ĠT ree
è ¦
Ġwrap ped
ord s
Ġver bose
ct x
ĠM odule
åĪ Ĺ
cont est
Ġon es
Ġ' {
al chemy
ne ctions
Ġpro tocol
ifi c
åº ¦
ir d
Ġunt il
Ġre versed
ĠPlatform s
a fter
pro xy
Ġme mo
Ġtra iling
Ġg en
Ġpri me
Ġre gex
enderable Type
pre ter
Y PY
Ġredu ce
se n
ĠS tr
Ġany thing
ĠFun ction
Ġto o
Ġ' _
ĠH e
am ily
Ġnot e
ì ŀ
o ints
Ð ¿
CH AR
r strip
Con v
char acter
g r
Ġexist ing
Ġfor ce
7 6
Ġu s
Ġali as
en ded
Ġb ar
ormal ized
Ġcon v
lo pen
¦ Ĥ
leg end
Pro cess
j e
Ġcalcul ate
g a
sens itive
qui red
èĬ Ĥ
Ġne cess
Ġp h
ĠĠĠĠĠĠĠĠ čĊ
Ġex pr
ĠCo deforces
he llo
A li
Ġzip file
[ (
c andidates
m ar
Ġ( :
([ -
Ð ¹
tt p
ĠM odel
Ġsche ma
__ ",<
4 2
U t
S h
t ar
di ag
p k
Ġ âĶ
diff e
code Error
u ch
Ġimport ed
M iddleware
s upported
er m
Ġformat ter
ç¬ ¦
Ġf uture
Ġcon dition
inter val
dig its
b lob
ac count
Ġcontain er
Ġ= <
gener ator
T LS
Ġar ch
Ġgroup s
c er
Code c
ĠR un
Ġfrozen set
å ī
Ġc andidates
æķ° ç»Ħ
allow ed
icro soft
he et
Ġcomp ute
Ġ"" .
v oid
Ġopt parse
ur lopen
Ġtime zone
LO W
e lif
gu ments
Ġsecond s
Base Model
Ġn egative
Ñ ĸ
ĠP unctuation
(' \
C all
Ġm anager
_ /
am l
Ġs imilar
ĠC ache
open source
Ġre ct
time s
Se arch
Ġassoci ated
vide s
me tric
ri ces
Ġnetwork x
c enter
Ġbe gin
) //
åŃ Ĳ
Raise s
Ġf ix
equal s
pre d
ans wer
qu ote
Ġstr s
ins pace
N I
Col umn
Ġstat ic
me m
Ġre ader
ĠS imple
At tribute
Ġ1 9
ĠM ake
ĠA N
ig ure
o perator
OCK S
ĠĠĠĠĠĠĠĠĠĠĠĠĠĠĠĠ ĠĠĠĠĠĠĠĠĠĠ
U E
x is
as hes
code cs
Ġbu f
char s
m ultip
Ġpre cision
Ġcont ents
Ġsh ift
ĠUn icode
Ġlo ck
Ġdi alect
Co pyright
====== =<
Ġs ig
Ġst orage
n eg
max imum
Ġpy game
Ġon line
Ī ĺ
Ġfunction al
base d
ĠH ow
Ġp ush
IC T
=[ ]<
D ummy
Ġc ategories
Ġc f
min imum
ĠPro tocol
Ġc m
8 5
< =
èĬĤ çĤ¹
Ġcommand s
Ġinclu ded
al ance
Ġweight s
Ġ' )<
A nd
ĠF l
open ssl
C an
Ġm igrations
St at
redu ce
tri p
Ġline ar
C L
Re gexLexer
fun cs
format s
Ġgener ator
Ġcolle ct
è¦ ģ
compat ible
Ġc andidate
Ġfin ally
n egative
S pecifier
Ġt k
================================ ================================
t d
rypt ography
å ĴĮ
Ġhe app
count er
Ġa pi
r f
part ial
ä¸ ĭ
ĠInstall Requirement
Ġse ction
Ġa uthor
time stamp
B ox
P ass
Ġst ill
Ġdi ag
dump s
Ġpri vate
( ""
de st
w indows
hook s
Ġ# <
g l
Ġlex er
1 01
O ne
Ġmod ified
Ġdocument ation
comp onents
Ġauto matically
ut ed
R andom
Ġx p
Ġinst ances
Ġ6 0
ĠU nsupported
Ġdesc rib
S U
ĠInt eger
c ut
d river
Ġl ater
Ġbot tom
Ġsub missions
abs path
p ing
: ])<
Ġdir s
multi part
den ce
lang chain
ac cept
b c
var s
ĠG raph
t ain
Ġh ig
po wer
St art
ur se
df s
cate g
Ġmime types
Ġ200 5
å® ļ
o ptional
= _
ct est
Ġ1 8
) "<
() [
Ent er
M ES
o unt
Ġsy mbol
transform ers
categ ory
Ġmatch ing
P ipeline
Ġpo inter
M etadata
Ġs mallest
Ġap pe
config uration
ĠName dTuple
pp ed
ĠS T
Ġchange s
i ally
_ .
Ġcon structor
b box
Ġconvert ed
25 5
weight s
Ġa ge
Ġ""" :
ĠF ound
Ġstart ing
= ""
method s
d atabase
D S
b old
: ]
u ck
Ġde termine
å¤ §
w i
ser ve
Ġdire ctories
Bu ilder
X X
Ġt ick
################################ ################################
ang uage
Ġs qrt
} "
Ġco ordinates
RUN NING
r gb
ĠU sed
é¢ ĺ
N orm
> \
ce l
extra ct
ron g
æĹ ¶
> ):<
Ġb its
åĲ İ
Ġdef ine
Ġwe re
(" -
Di rectory
ends with
AND LE
assert Raises
Bu ild
ap s
Ġint ernal
ĠL exer
Ġcoeffici ents
li s
ad o
Ġare a
amp ler
l inspace
Ġ' ,
per ly
m k
ç §
gra d
res ource
pa y
pa re
ist ogram
ĠM emory
GE T
T emp
Ġp adding
Ġse gment
script s
ot h
Ġg h
Ġexact ly
ad min
in ct
æŀ ľ
an ced
ĠR ange
Ġk now
ion Error
Ġin dent
res olve
Ġdefault s
ĠÐ ½
ĠY our
T emplate
Ġde precation
ci rc
CO M
å ·
Ġp i
Ġsome thing
ĠC an
' re
Ġs pecify
cal led
mid dleware
ve c
Ġcheck s
Ġin side
Ġj ob
Ġcolle ction
' ],<
Ġapp end
Ġ Valid
ma c
ĠPar ser
Ġo wn
name d
p ublic
Ġdiffe rence
et Code
TO COL
L abel
cor rect
fli ct
ĠÐ ¾
M ARK
ĠE X
ut c
am ma
pop left
Ġbound ary
al ary
: ",
s ame
rand int
d ates
Ġf lat
Con vert
åĪ Ĩ
Ġre m
ĠInitial ize
è¡ Į
ĠD es
app ed
S P
context manager
Ġcompat ible
mp l
Ġ202 2
5 9
set item
gorith ms
Ġan g
en um
H TML
W AR
ME TH
) }
re quirement
ser v
ìĿ ´
. )<
opt im
S O
Ġst dout
Ret ry
E E
Ġl ayer
Ġlevel s
Ġencode d
ial s
A dapter
L L
.. .<
Ex ec
kip edia
po w
Ġp ix
Ġfast api
se par
LO C
side red
Ġsa ved
ĠL ib
we i
Pro xy
W indows
A d
z z
loy ee
] ],<
over ride
P latform
ĠRe gexLexer
ĠT ick
F ind
Ch at
al y
ĠH ash
) \
ç İ
en e
Ġcon sidered
Ġ" ._
range s
lay ers
(" _
% (
se curity
Ġext ensions
se gment
ĠW SGI
Ġset s
b i
ik i
Ðµ ÑĤ
ĠU p
im ation
rag ment
b reak
e lements
] (
constant s
ĠM YPY
ç¤º ä¾ĭ
ing le
al t
Ġp ad
Ġ1 7
ext ern
Le vel
Ġ Âł
Ġb asic
Ġz eros
> "<
o od
Ġ( )
pro g
mut ation
202 3
Ġ 64
Ð° Ð½
exec utable
Q Q
ĠA uthor
ĠG E
ws gi
M ode
Ġa round
h idden
ĠM essage
ma y
lo cale
ĠE ach
max size
un ch
- =
dig it
mon th
I R
m ult
() ):<
Ġme ta
è§ £
Ġm i
ĠOn ly
//////// ////////
Ġauth ors
Ġt ail
12 3
Ġsche duler
F S
re index
IN TER
subplot s
stru ction
Ġs lice
p ng
ighb or
Ġr v
at ely
re t
me ns
g reen
ff set
n dim
oo lean
I mport
æī Ģ
< /
ar m
index er
Ġche b
f ilters
H AS
Ġl arge
Ġma jor
c ip
Ġlo ader
tuple s
b ind
ë Ĭ
æ³ ķ
ĠOther wise
Ġy ear
un pack
script or
L C
n b
l r
in ing
Con verter
en o
IG N
P alindrome
Ġ. ._
Ġpre di
Ġ202 4
Ġin herit
Ġc ryptography
Ġd ual
ic en
Ġdire ction
Ġ escape
Ġvari ant
} '
E mbed
ë ¡
in ference
([ (
for ward
to ml
ĠPol y
Do cument
IB UT
[ ...,
temp lates
à ¸
ĠB ack
åħ ĥ
Ġgre ater
exp and
M y
Ġf oo
la h
ĠSparse Array
cont ents
ns i
ĠSe arch
è¿ Ķ
A M
di mens
åŃĹ ç¬¦
s cope
vis ible
F C
upport s
Fa ctory
B e
age ment
Co unter
Ġiss ue
ĠCodeforces Task
Ġg ra
Ġlower case
sup er
mp ro
Ġ'../ _
Or der
[ ^
å ¯
Ġformat s
S ER
Ġhe x
Ġsup press
auss ian
le gram
Pro tocol
ĠFormat ter
do ptions
TR IBUT
1 0000
æ Ģ
Ġ`` '
Y u
ĠĠĠĠĠĠĠĠĠĠĠĠĠĠĠĠ ĠĠĠĠĠ
ĠP ackage
eat s
log in
åĢ ¼
f name
Ġr at
Ġdo uble
è ·
T F
4 9
he st
th is
ĠD O
p ers
F orm
d ummy
ĠI P
Sy stem
MON TH
ĠEx tension
at ches
St ore
Ġ ).
ph p
Ġ2 6
R untime
= ['
icen sed
ou se
FI G
p u
a e
fun ctools
: %
en coder
56 78
SH ORT
Ġre pl
Ġinstanti ated
éĹ ´
Ġh idden
METH OD
i form
ateg y
Bu ffer
ĠSo ftware
Ġcell s
Ġi dentifier
Ġg uess
V is
r fc
Ġsha red
ormalized Name
Serial izer
äº İ
vide o
S ource
D ICT
Ġtime stamp
ë ¥
ith me
pol ys
99 99
ĠTe am
ri end
Ġcount s
Ġma de
Ġtuple s
pipe line
Ġqu ot
è¿Ķ åĽŀ
Ġ Value
SE T
M atch
or ity
ke yp
ĠOS Error
ma k
ari able
u v
se ek
L ayout
è¿ Ļ
Inter val
/ .
A ut
Ġas sign
/ {
ĠDe velopment
H ANDLE
ho ur
---------------------------------------------------------------- -------------<
. ')<
de s
ĠS h
æĪ Ĳ
US ER
ĠP RO
") ]<
ĠNot es
Ġcol s
ĠCont ext
Com mon
Ġstri ct
Ġvari ous
å ¹
Ġle ading
inf er
Ġf il
ĠĠĠĠĠĠĠĠĠĠĠĠĠĠĠĠ ĠĠĠĠĠĠ
1 99
in p
Ġb box
iz ers
comp ress
Fa iled
Ġd ump
Ġcurrent ly
e ffect
image s
Ġch at
ĠMe asurement
T ri
Ġs creen
l and
Ġcheck ing
Ð¾Ð »
Ġpart ic
ithme tic
en ch
ĠFast API
D own
one y
me ngine
Iter able
l ru
ri c
Ġl ayout
> "
B inary
e f
4 6
Ġsy mbols
Ġ2 2
f mt
Ġse q
4 7
it u
Ġf requency
DATE TIME
] ")<
mo ves
Ex p
Ġimplement ed
Iter ator
H ook
g mail
Ġcomp are
Ġvis it
produ ces
5 2
Ġ* _
lo or
im er
S cript
Ġn an
ĠF loat
Ġappro pri
A X
ma jor
w riter
H ash
len v
ue st
re ference
Ġc lear
ĠT emp
Ġqu ant
ĠBase Model
bo olean
Ġstyle s
He ader
ī ¤
o ogle
ëĬ Ķ
g it
is ing
" ^
I F
Ġt ar
Ġmid dle
CON T
ces sed
IG HT
O perator
w iki
Ġin f
part ition
m igrations
lo aded
ĠRequest s
sert ionError
cord ing
TYPE S
vari ant
int p
DE BUG
Ġp ut
ad ow
ĠCategorical Index
Ġnecess ary
M IN
ĠT able
Qu ery
ua lenv
di gest
Ġorig in
Ġx range
ĠĠĠĠĠĠĠĠĠĠĠĠĠĠĠĠĠĠĠĠĠĠĠĠĠĠĠĠĠĠĠĠ ĠĠ
ë¡ ľ
Ġdel ta
u func
Ġcon n
O T
sche duler
ynam ic
å° ı
ch or
Ġsub set
py dev
ĠU sage
ic le
bl ue
Ġdimens ions
ext ras
ue l
act ers
ys ql
ac ed
M on
c ategories
f alse
um lah
Time stamp
l ab
radi ent
ub e
Ġ---- -<
Ġc ore
st udent
([ '
g re
Ġt urn
Ġtr ust
Ġ" --
sha red
Ġadj ac
s mall
exec ute
f in
re a
Ġsql alchemy
. ",<
f ree
Ġcar ry
Ch ild
Ġis n
ìĿ ĺ
ba z
ĠS OCKS
in ja
D atabase
ç ½
ĠT rie
P U
r m
æ Į
or p
time zone
am ount
Ġ' %
Ġsign ature
ĠP Y
Ġp erson
Ġqu eries
D irs
S V
Ð» Ð°
ĠQ t
for med
O F
Index Error
Ġadd ress
---- <
Ñ Ĩ
ne ed
ot ent
ĠOpen SSL
è ĥ½
Ġcontain ed
direct ed
Ġcm doptions
ĠM on
ro ad
Ġh app
ĠH el
Ġqu ote
ç´ ł
U se
Ġ201 3
Ġsign al
Ġinitial ize
] })<
D ATA
æ Ń
ĠT ransform
Ġl ru
mon otonic
ĠCol umn
Ġh our
tra ce
Ġfast er
ĠTra ceback
P S
pre trained
íķ ĺ
VAL ID
c lo
Ġwrit ten
ĠS egment
Ġse p
V ector
m as
tra ct
ĠRemo ve
># #
Ġmark up
bound s
Ġ' ''
Lo ad
sec ut
([ ],
Ġcontext manager
), (-
ful ly
al o
Ġp ur
L EN
Base TraceHierarchyType
Ġ[' *.
et s
MO DE
Ġab stractmethod
z A
a res
b ra
par allel
ç ®
Ġro ut
Ġwe ak
Ġhook s
åī į
" ]:<
) }<
Ġm mengine
ad apt
di re
Ġe gg
å İ
ir t
Ġact ually
ertifi cate
format ters
r ing
Ġst ride
æ į
In cremental
F eat
ĠN aT
ĠM utable
S ort
normal ize
C ore
b egin
sol id
ĠLib rary
frame work
Ġmp l
Ġcomp arison
ĠSt art
Ġb ig
ĠN etwork
W indow
Ġe quivalent
rat io
in dent
C re
fi ed
FI LE
trans pose
P rint
table s
ĠW ord
[ <
transform s
B utton
in v
ĠL icensed
ĠAt tributes
Y in
ĠO R
wei Yin
Yu weiYin
j ob
secut ive
He ap
or dered
H O
Ġp ay
root s
Ġu uid
Ġagain st
P OR
u k
opt imize
Ġ{} ".
de p
Ġt ol
Ġf ixed
app s
B R
Ġv ideo
ä¸ ²
ĠC ustom
201 3
Ġe ffect
fe ature
Ġiter ator
h alf
que e
Ġre peat
Ġ1 0000
Ġat ol
Ġgener ation
n ative
U SE
pri ces
Ġstri p
av a
ordin ate
Ġl in
Ġby groups
Ġ2 3
Ġ( )<
o h
Ġme di
Ġê °
Ġt ied
Ġn ested
ck er
ac cess
Ġst udent
Ġun its
ä½ ł
O ver
si red
Ġadd ing
Dummy Object
ĠN A
Ġg ame
Ġ ~
Ġp ivot
Ġnum ba
t le
æł ĳ
al og
cap acity
Ġd st
Ġpro bab
Ðµ ÑĢ
go ogle
] ),<
Th read
ĠA c
çĽ ®
5 8
b ad
Ġt a
ar mor
ĠV ERSION
Ġv ar
ĠR et
Ġ* ,<
lif y
wh ich
A bstract
ble ms
F uture
ge d
Ġget text
Ġf ree
am er
IN PUT
struct ures
Ġ2 1
Ġgo od
un its
Ġma g
link s
input s
7 0
A ction
Ġf low
ĠWhe el
or iz
re peat
Ġtrain ing
={ "
Ġm x
Ġdimens ion
j it
ip File
al ys
vert ices
l ongest
So cket
con structor
Ġ"" ,
Fun c
con struct
out ine
imp l
> (
¬ ¡
In itial
exp ression
Ġf ront
Ġì ŀ
in ations
Ġin order
Ð¾ ÑĢ
ol ved
cl ar
pro c
g res
Ġse n
m q
comp arison
s hould
Ġthe me
tr ust
me trics
Ġex clude
String IO
Ġserial ize
ä ¼
EXTENS IONS
Ġin ner
Ġac count
valid ator
ĠÐ ¸
Ġwho se
Ġ question
IN DO
Type Var
com b
Ġtransform ers
ĠLeg acy
C E
ĠA d
TE D
Ġver ify
A xes
Ġin p
ĠT ag
Ġstd in
Ġex pect
out er
Ġf ilters
######## ####
cho ice
LI ST
Mark er
Ġs l
con n
fl ag
W h
} ')<
ĠV is
Install er
A sync
ĠW in
Ġinclu ding
ĠA uth
pl ugin
th ree
Ġfunctional ity
wi kipedia
Ġbound s
per i
De codeError
vis it
let on
P T
Ġassu me
Ġse ed
Ġ" \\
Ġc fg
im ator
p atterns
Ġ0 0
Ġcom ment
an cy
T ypes
(' /
ç¬ ¬
5 4
d x
co me
ĠM at
äº Ĩ
åħĥ ç´ł
a ctions
over load
ON E
ĠB ad
ĠR ender
Ġcap acity
b one
Ġdef inition
S rcValidator
ĠĠĠĠĠĠĠĠĠĠĠĠĠĠĠĠ ĠĠĠĠĠĠĠĠ
Ġapp lied
ĠP a
Ġchange d
MARK ER
ä½ į
Ġl ag
Se e
Ġappropri ate
7 9
å ¦Ĥ
re tri
quee ze
Ġ çļĦ
CO MP
S pace
Z Z
Ġindex er
Ġversion changed
block s
hentic ation
Ġw raps
te red
Image File
Ġcall ing
Ġ| <
T wo
åı¯ ä»¥
ĠH ttp
S pec
__ }
finit e
c andidate
Ġen able
er ce
D IT
Ġde termin
le m
FORMAT S
Le etCode
d st
Ġas k
Ġurl parse
Ġre v
Ġb ad
ãĢ ģ
M issing
Ġd ic
Ġh alf
um an
amp ling
h istory
AC E
Ġg reen
vers able
Ġali gn
+ <
Ġ4 0
check point
o auth
ra c
é ¡
c ending
) ?
je ction
ct ypes
x p
com bin
ĠG roup
% <
port s
è ½
äº Į
Ġs cope
Ġme m
Ð¾Ð ´
Ġc enter
D P
c m
Ġcomp onents
m metric
Ġsupp lied
B ACK
ĠJ upyter
pro vider
sub class
ĠCh at
ë¥ ¼
Ġl at
Ġ'' .
Ġal ph
e ometry
Ġgener al
Ġerr no
Ġ very
di es
ĠCON TRIBUT
Ġpart ition
gener ic
ç Ń
ĠP lease
: \
Ġval s
hes is
## <
][ '
bot tom
Ġretri es
c ity
Ġres pon
Pro blem
ss ions
Z ero
s m
ĠCon nection
sche d
ĠE num
Ġc ategory
cache d
Ġexp and
ĠB eats
b utton
e ven
ĠC ur
App lication
é ģ
te p
UL L
ìĿ Ħ
ĠR o
al i
OP T
S Y
Lo g
pon ent
ĠFile NotFoundError
task s
Hel per
ĠS ome
r aries
Ġb ias
ffici ent
Ġstate ment
ä½ ¿
Ġ= =======<
Ġs pa
Ġh i
pro ps
heapp ush
ĠFl ask
len dar
/ #
Ġde let
ì §
Ġcon nections
-------------------------------- ----------------
Ġevent s
Color Validator
Oper ation
Ġs cal
ge ther
Ġ rich
co okie
ĠRuntime Error
ci al
return s
Ġ âĢ
et ween
"," .
ë ł
de precated
ĠB lock
Ġh aving
t f
æ ¬¡
l it
00 1
Ġlo aded
b f
ra vel
Ġg cd
Ġ\ \
Token izer
è Ģ
oriz ont
i i
mb ers
Ġi mplements
Ġk nown
inter section
ĠSt ate
Param s
i ma
Ġreg ular
ie ve
Ġs im
Ġreg istry
) ;
ma ster
Ġpro blems
Ġspe ed
down load
L ast
ur face
da ys
Ġw ait
con st
Ġpro fit
arch ive
Ġsent ence
B ASE
cket s
m us
â ĸ
Ġ3 1
alys is
c f
Ġ }
Ex pr
django project
re name
w orld
Ġs hell
Ġde sired
C S
c n
ç» Ļ
ntax Error
Ġra ising
m ixed
I E
(' .
he re
Ġh yp
ĠD atabase
Ġde ep
ns ure
Ġfol der
sup press
ï¼ ī
s quare
Ġd y
set default
Ġoutput s
cor es
ma ch
Request Exception
Ġob tain
Ġs paces
process or
heapp op
Ġl iteral
Ġback track
Key Error
de cimal
ro id
ar a
s low
11 11
ain s
ĠPro xy
om s
ar guments
Ġpro p
ìĹ Ĳ
co gn
to k
vert ex
b n
In finity
ĠF ont
t ab
in x
po ses
ze ug
pay load
Ñ ħ
recurs ion
ĠA SC
k zeug
Ġdistribution s
ust er
g d
ï¼ Ī
ĠPro blem
S ign
Ġgo ogle
ĠP ip
Ġe ps
con s
201 7
M OD
c r
5 7
Ð ³
FI EL
serial izer
ĠGE OS
se cret
> ================
Ġd types
inter pol
, '
ĠConsole Options
a N
ts libs
velop ers
with out
H igh
are st
HEAD ER
Ñ İ
EXTENS ION
- \
ì Ħ
Ġ' --
ĠPy Installer
Ġmak es
Ġi de
yped Dict
B ar
D atetime
am ing
M o
w ay
Ġg lyph
P ackage
is o
t k
Ġcre ating
Ġth ings
Ġpl ayer
ly ing
' ].
N UM
ĠS um
ĠĠĠĠĠĠĠĠĠĠĠĠĠĠĠĠ ĠĠĠĠĠĠĠĠĠ
Ġgener ic
N ew
im ate
De pth
ph inx
C allback
Ser ver
æĸ ĩ
- %
qu ares
AN G
ëĭ ¤
re p
com ment
implement ation
I X
The re
ĠDo cument
Ġcorrect ly
st it
ĠP oint
ab ility
ed List
Ġdist inct
IT Y
Timeout Error
ĠASC II
Ġnum eric
pro x
Ġr ules
form s
is kit
ent ries
ĠO pt
) ``
ĠL ex
iv ity
a z
Ġimport ing
Ġ= >
Ġde bu
ex e
Test case
pri vate
ed u
ast ern
Ġcomp ile
0 33
th at
ĠMod ified
8 9
con su
play er
ok ies
Ġref er
ĠD ate
ĠConfig uration
é ķ
let ter
åŃ ĺ
offset s
^ ^
ag raph
=' ')<
xy z
ran ch
CC ESS
N S
O ut
dat at
do cuments
Ġ202 0
[ \
frame s
flat ten
Ġb as
light er
Ali as
ç½ ®
c ategorical
Ġre cent
pre di
np ack
finit yType
æķ ´
Ġtask s
Ġremain ing
mp loyee
Ġde gree
=[ [
Ġfig ure
pa ir
Ġexp ressions
MP L
ro po
Ġp tr
HTTP Error
pro p
mat ches
S EC
Ġsub classes
A uto
list s
Inter face
a h
ĠG oogle
Ent ry
Ġcy cle
pick le
ropo ut
Ġco ins
unt yped
dent ials
tick s
a zy
Ġpre vent
Pro duct
Ġres olution
Ġpl ugin
ĠLine ar
ĠS ession
ro py
Ġf it
C ustom
Ġres pect
Un known
s queeze
W N
g on
é ĵ
T EST
co dings
int o
Name dTuple
Ġext ras
vo ke
ĠC LI
ì Īĺ
ll m
pa irs
cache control
O ffset
l int
Ġdi vide
ĠC all
ĠCon stant
]) ]<
N on
st ates
pe t
lookup s
A gg
pen dent
Ġfa iled
CHAR S
Ġh old
ist ered
f etch
pre releases
mo ji
Ġ( [
ĠRes ult
Ġconnect ed
Ġ[ ])<
re c
b z
Ch ange
Ġmerge d
Ġexplicit ly
00 01
d l
le ast
Ġpartic ular
c ular
Ð° ÑĤ
ĠM igration
qu ad
card s
ĠÂł ĠÂł
s dist
u er
A SS
]) :
bound ary
Ġta ken
dimens ion
A GE
ä¸ ¤
view s
Ġco okie
ãģ Ħ
Ġ---------------------------------------------------------------- --<
Extra ctor
Ġd rop
f amily
ors kip
Ġdown load
Ġmak ing
g lob
ta ch
Ġrecurs ive
W rite
id ual
) ")<
Ġfail s
Future Warning
Ġcomp onent
ĠDist ributed
éĵ ¾
Ġse quences
ar range
ĠB asic
version s
m utable
at s
ĠSy mbol
au dio
ut ing
Ġd id
mod ified
Ġinter pol
ãģ Ĩ
h yp
ĠTime out
Ġ" ))<
pro d
L iteral
import orskip
v env
ĠA nsi
ĠF igure
V AR
Ġkind s
Ġin place
tri m
UT F
Ġa verage
ra ct
:` _
Ġres olve
Ġindic ating
## #<
ĠCh ar
te ction
Ġdest ination
or ing
ĠA p
event s
chann el
Ġc ard
ĠDe precationWarning
ENT I
iv ed
solid ate
T itle
Ġs ources
ap es
' ll
ì ł
pl ain
) **
). """<
valid ation
Ġsub array
Ġnormal ized
select ed
trans lation
h ing
Ġc lo
pe ated
Do es
Ġtri m
Ġmag ic
ĠLex ers
Ġw ays
qu ot
ĠO ne
RE G
Ġsp an
Ġent ire
Ġs in
Ġg it
col lection
Ġvert ex
vari able
________________ ________________
Ġchann el
Ġp ow
me asure
ce ed
en ate
sha res
Ġvert ices
Row s
F irst
orig in
N etwork
ud ge
may be
] "<
alcul ate
AR R
Ġc al
GL ES
uff le
Ġnot ice
be fore
_ )<
æĸ ¹
b est
ĠL og
src Validator
ĠE nd
§ ĭ
Ġcomb inations
Ġpos ix
embed ding
PRE FIX
al ph
qui ck
cre ase
AN T
w idget
Ġtemp orary
road cast
ĠWhe ther
ĠHow ever
st and
Ġsub string
ol low
prec ision
ĠLo ad
ro ute
ĠC ase
b eta
ow els
Ġlow est
O M
ĠT rans
INDO WS
S A
an te
Ġx y
Ġv irt
Ġup dated
diffe rence
MA P
py pi
C UR
Ġac cording
Ġdo cs
d y
Ġme ant
Ġr ule
ĠP ool
sa ved
Ġs atis
Ġre quire
li es
call s
is instance
ĠS ci
Ġv endor
TH ON
æł ĩ
Ġgu ar
problem set
Ġde cor
Ġf name
pro b
ifi ers
re main
Ġì ł
ĠN egative
Ġtermin al
CO D
C annot
il s
dist ributed
Ġ`` "
ĠPeriod Index
å¯ ¹
E astern
c ert
Ġc sv
g er
ç» ĵ
KE T
F E
Ġconstant s
load ers
clus ive
CON FIG
B ST
pl ine
ft ime
ser vice
fill na
D AL
ĠO Auth
at tributes
F R
ER T
Result s
warn s
Ch ain
] ["
if ul
A rea
]) )
AR T
Ġmon th
at ial
Ġbet ter
ĠWe b
output s
M ock
h ip
Ġb s
get ter
com mit
Ġag ent
" }
ĠTest Case
check er
Ġ5 00
aut iful
E ngine
Ġs amples
re direct
Ġutil ity
ĠUp date
serial ize
Ð ¶
Ġb ra
Ðµ Ðº
é Ļ
Ġchar s
Ġm k
ĠSe lf
Ġmm det
ĠFound ation
__( *
ang ular
Set Console
Ġstat s
? \
pp ing
Ġbo ok
su ccess
P age
é Ŀ
Ġhas hes
Ġbox es
Ġm ixed
ĠW rite
ä¸ Ĭ
T C
ri k
c allable
po sed
Ġr hs
obj s
6 5
Ġr ing
ĠRange Index
â ķ
Ġu func
ance l
Ġre d
Ġwork ing
Ġ201 2
Ġma int
add r
å §ĭ
ct ree
ĠP ost
fer red
ific ations
b r
[: :
Ġover load
distribution s
ore set
Ġal ong
lt k
ĠRender Result
. +
s leep
B ad
w intypes
ĠMe thod
' }<
ĠRe gex
open ai
VAL UE
record s
Ġto ols
S imple
Ġfollow s
}) "<
ro ken
work ers
ĠS U
wrap ped
sn ip
Ġ9 0
File name
Ġp en
ĠA xes
Ġdoc string
Ġaut os
Ġdependen cy
orn ado
min or
ä ¿
Ġal tern
ang les
cu it
se g
get env
ĠM o
whe n
c wd
Ġs m
Pre di
Ġpack aging
R GB
Ġc ert
che me
ĠR enderableType
ãģ ®
ho ver
Ġrat io
orizont al
Ġ` .
ĠR andom
~~~~~~~~ ~~~~~~
li er
p ix
rand n
/ '<
Ġd river
ĠT O
und le
Ġpl an
St orage
Ġr ate
vid ers
5 00
># -----------------------------------------------------------------------------<
Lo ok
Ġe asy
o ssible
Cur sor
Ed ge
f ront
Number Validator
Open GL
mut ations
7 2
Ġas cii
Ġnum er
specifi ers
Ġadjac ent
D iv
Ġ ERROR
def s
Ġpy lint
U nsupported
Ġw idget
par sing
att ention
Sy mbol
fa ces
embed dings
er ature
le ctions
c ult
m any
ĠF ilter
ĠR ich
struct ured
Ġw orld
ched uler
pro fit
ces ses
Pro vides
ÂłÂł Âł
ĠNO TE
ens ors
RE QU
åĲ Ī
C R
} ".
Ġre p
help ers
h ot
ind ll
Ġpre d
AL I
Ġeval uate
æ¯ ı
j k
O pt
Ġs ci
Ġd ue
() ))
et ree
e ff
U RE
re ce
AT OR
ÐµÐ½ Ð¸
Ġroot s
m ysql
r ation
and s
N U
ĠCont ent
Ġsepar ate
Ġc i
Ġs dist
In stance
Ġset attr
Ġsw ap
de g
Ġne ver
de pendency
per m
ĠW orld
FI ER
Trans port
Ġg c
alk er
ĠE vent
assert Is
Ġexec utable
s im
Ġun ion
S plit
Ġcons ist
Ġselect ed
div mod
peri ment
Ġpro cessing
co ords
Ġ201 5
Ġdynam ic
Ġst derr
ĠMark er
Ġmo ves
"] ]<
U ID
Ġid s
ĀĀĀĀ ĀĀĀĀ
éķ ¿
Ġ( ``
arg types
ĠM etadata
Ġoffset s
ĠQu ery
Ġre ach
run ning
Ġappro ach
roll ing
5 12
Ġap ps
head s
ĠAn not
Ġweak ref
) ==
uer re
Ġt run
is hed
ĠSt ack
Ġd x
Ġto gether
Num bers
Ġm ult
Ð» Ñı
è¿ Ľ
Ġsmall er
um mary
Re f
Ð½ Ñĭ
P H
Ġv oid
inter vals
ĠÐ ·
Ġhig hest
ur len
ĠSet s
vari ance
ĠP O
urlen code
Ġup load
BO SE
tz info
u ed
ç® Ĺ
Ġpl ay
4 3
Ġcons ider
b alance
Ġc e
Ġbuild ing
Ġë °
datat ypes
} /
Ġcon solidate
Ġserial izer
, ))<
Ġres ources
multip le
| \
ch an
cont roller
ä» ¶
Ġf etch
pre dict
chunk s
con figs
çĽ ¸
Ġb ind
assign ment
ENTI FIER
Ġf ew
Con straint
sum mary
cli ck
Ġlanguage s
C F
L eg
od d
Ġma c
Ġab stract
Ġdiff users
Ġembed ding
Ġc ut
Con nect
let ters
os ition
OR E
spe ction
e ch
de penden
it able
Ġautos ummary
Ġ"" )<
201 4
R ST
un ded
b ias
Ġa i
Ġhe alth
Lo okup
se l
ug ins
Ġa dapter
ed irs
ĠR FC
M ask
s q
iz ing
us age
sy mpy
Re present
rest ype
Ġdo ctest
ĠIt em
ce il
TO K
Ġpay load
> --------
(' -
To Win
f rozen
Ġwin reg
' '<
6 7
9 7
Ġt type
ĠF rozen
O DE
to ctree
D M
)) ]<
ĠZ ero
uest ion
Ġt w
] {
Ġe qu
om in
j s
fo und
Ġp r
Ġent ries
ĠO ver
ĠM AX
util ities
A xis
Ġaccept ed
iter able
åı ³
B asic
ð Ł
ĠLo cal
alo ader
M od
ì ļ
Ġl l
snip er
S CHE
ey e
ë ĵ
Ġro ll
Ġaccept s
åŃĹç¬¦ ä¸²
Ġheight s
< <
ag er
Ġscript s
A v
In it
ĠE ng
Ar gument
Ġhand les
Ġrepresent ed
y thon
201 6
mag ic
sw ap
Ġh ome
inter face
ä½¿ çĶ¨
in sum
ĠP rint
Ġcont est
9 2
d one
Ġl b
Ġ""" \<
mag ing
edi um
de tails
Option Error
py project
dt i
Ġposition s
de tect
Ġvalid ation
proto buf
Ġ202 1
Ġco urse
ĠDe cimal
Pro ject
ê° Ģ
or a
ge os
pat ched
Ġt c
ĠT LS
vid ual
LE D
L Y
Ġd uplicate
Ġbu ilder
Ġback wards
sw itch
ĠE d
E lements
Ġw riter
Ġderiv ative
' ^
ç ©
Ġex amples
ĠComp ute
Ġf mt
Ġinter preter
Ġo ps
ri ve
ĠL ook
cell s
Ġf ft
Ġset Up
Ġ12 8
E val
Ġì Ŀ
w ers
Ġfloat ing
period s
Ġn et
cont our
di c
Ġ2 56
æīĢ æľī
Ġa ctions
ist ics
Ġen viron
bl ack
as yncio
R emo
Ġb rowser
b all
Ġ" *
wh ite
() `
A A
u do
Ð» Ð¸
Ð»Ð° Ñģ
h icle
al anced
ri s
ĠM OD
ĠE nt
ĠTest Client
I ST
Ġc lip
Ġstart s
Ġtri p
ĠMax imum
Ġpro vider
data frame
sign al
stit ution
Ġact ive
Ġis na
Res ource
itu de
i um
Ġt f
te legram
Time delta
By te
C ategorical
r p
de coder
å¤ į
sc reen
è· ¯
Ġ },<
Ġcheck point
ĠDef ine
B ound
ab et
Ġdo cuments
inst alled
Ġread ing
P art
fix ed
s hell
act iv
ĠÐ ¼
ĠS ort
ct ype
vi rt
Ġunder lying
R I
Ġro b
ch r
ĠM ap
edit able
ĠĠĠĠĠĠĠĠĠĠĠĠĠĠĠĠ ĠĠĠĠĠĠĠĠĠĠĠĠ
base datatypes
OP EN
Ġlong er
to array
cy cle
mit ted
emo ji
: ")<
work er
Char Field
m ix
Ġd uration
Ġ_ <
: ],
l u
de ep
ca y
Lo ss
ile nt
ĠCode c
{ "
AS C
the ta
filter warnings
Ġp otent
ĠQ ueue
Ġdi gest
Ġpri mary
Ð¾Ð ¼
ĠIndex Error
v c
de pendent
Ġbut ton
DIR ECT
Ġreg ion
' ]:<
8 4
i li
Ġma ch
åĲ Į
b dist
mak edirs
L INE
g y
Ġ# #
M igration
b etween
ro ject
l arge
ist ant
ĠL anguage
la ma
in ery
init e
tr un
Ġappe ar
W rap
Ġcomp ression
Ġwrit ing
Ġpass ing
Ġstack level
At tr
ĠA ss
N D
index ed
ĠE nsure
Ġmin or
ne ighbors
Ġheapp ush
key word
202 0
>` _
Ġg ive
ot ion
ĠK e
Ġpe ople
Ġget Logger
0000 0000
parame ter
spe ed
po inter
p erson
¸ °
py pa
)) )
comp ute
Ġac ross
Col lection
Ġa dapt
SSL v
oper ators
ver ify
Ġca pt
act ual
S F
ĠP ass
the me
AD ME
ĠUnsupported Wheel
in line
st or
Ġdef ines
Ġco s
C ir
fa ke
Ġfl ask
ĉĉ ĉĉ
termin al
Ġoper ators
ĠLeg end
A ss
ÂłÂłÂłÂł ÂłÂłÂł
>< /
av es
Ġin crement
col lections
sy mbols
Ġ" '
] ",
gd al
Ðµ Ð¼
quent ial
L U
se ct
Ġreturn ing
vis ited
Ro ot
ĠL OC
keyp atch
s pecifier
Ġth reshold
S NI
d uplicates
k y
Ġcomp ress
Ġdis abled
ä» İ
re ason
ol ated
¦ ¬
diff usion
Ġâ ī¤
th reshold
ĠO P
host name
ĠH and
T arget
ĠI s
Ch unk
éĩ į
j upyter
u ator
([ ^
multi array
Per iod
y aml
ber t
H ero
Ġcon version
trans late
ex act
l argest
() ``
ac ci
ĠAl gorithm
Ġmm cv
i python
ac le
Ġas cending
pro tocol
At tributeError
co ver
We b
æ ı
pro gress
bit rary
ëł ¥
ĠF irst
set attr
Ġguar ante
ĠT wo
Ġa ble
ĠSer ial
8 7
st e
Ġla zy
Ġposix path
Ġ radius
Ġc ent
pi ed
Le ft
çİ °
2 24
Ġ Ñ
on acci
Ġrequest ed
amer a
Ġign ored
ĠIn fo
Pro fit
log ical
Ġcons ists
riend ly
dependen cies
k s
n ers
ĠC H
ĠLOC AL
åħ ¶
Ġlink s
Hand le
Ġshort est
Ġpyp roject
d ers
de corator
Stat us
Ġn eg
in creasing
RE D
U rl
ĠPy PI
Ġre arrange
Ġcho ice
Ġrout ines
A fter
LO G
ĠAnnot ated
ĠN ull
d up
connect ed
ĠSo cket
ĠDes cription
Ġ" {}
C LI
ro cessing
ĠHTTP S
sec ure
) ;<
E AR
Ġtra verse
D ay
Ġin verse
Ġatt ack
E mpty
" })<
± Ĥ
Ġc are
ĠSy stem
3 00
} '<
ar wh
S UP
Ġn t
Ð¸ Ñģ
LO AD
ex pect
Un icode
y label
app name
Ġcon flict
ĠP ri
ĠMark up
ver bose
Re ference
Ġiter ation
201 2
AC T
TOK EN
Ð½ Ð°
Ġrem ote
ĠMutable Mapping
so cks
è ´
f old
Ġpro gress
ĠE DIT
æİ ¥
ĠSci Py
C a
ro pped
py py
ĠTimedelta Index
Ġsig ma
Ġpre serve
Ġ| =
mul x
Ġ ------------------------------------------------
ra ms
ĠS ign
ĠC reated
Ġar t
Ġtra versal
, ),
R ES
context lib
clus ions
t ention
-- -
On ly
[: ]<
sv n
Ġutil ities
Ġrecurs ion
Ġarch ive
EN V
Transform er
P lease
t ot
g z
Ġchunk s
hand lers
C our
r ating
app engine
ss ib
Node s
le y
ro s
Ġf our
mat rices
5 3
U D
Ġ ÑĤ
Ġne ighbors
ĠTh read
vi e
Ġrot ate
cond ition
iz z
ut ation
ĠR ed
global s
Ġp atterns
Ġj ump
Ser vice
ag ram
' ``
ca led
ĠW ith
Par ameter
Ġimplement ations
Ġprodu ced
POR TED
âĢ ī
ĠHel per
Ġcon su
man agement
A gent
G ER
d uration
ì Ĭ
Ġh istory
yn ch
Ġhttp lib
er c
sc ores
) ')<
er kzeug
oper ations
str s
Ġ3 6
Cont ainer
ASC II
fl ush
o lo
ĠT ool
Ġ202 3
re m
Ġ1 02
reg ion
Ġ' \\
## #
lat ex
xx x
Ġso up
ĠGener ated
K T
il ine
ang ulation
cont in
Ġwho le
b ins
2 34
Re quires
Ġrun s
æ Ķ
doc string
[: ]
Class ifier
Str uct
lim iter
> ================================
Ġn pt
RO OT
transform er
> ========
D uplicate
un iform
Ġre c
Ġwh itespace
Ġbu y
ĠBase Distribution
Ġc atch
arwh als
en abled
ĠW ork
éĵ¾ è¡¨
ra ft
ĠO ption
gra de
Ġtk inter
and box
Ġpix el
R C
w raps
OPT IONS
C andidate
S OR
Ġ( _
æİ Ĵ
ĠCon v
ĠV er
riter ion
M ore
s cape
pro file
TLS v
vis or
Ġgo al
Ġexec ute
9 3
ul ated
a ces
ha ve
L LM
pe p
() .<
x label
co co
Connection Pool
8 3
Ġ ]
PRO TOCOL
res ize
åı ĸ
Ġ~~~~~~~~~~~~~~~~ ~~~~~~~~
writ able
Ġoccur red
ç© º
F oo
h ist
Ġf all
ex pi
pl us
NA MES
Ġst ones
Ġser vice
Ġpyp ar
åĬ ł
6 3
iv ers
Ġformat ting
+ -
Ġg t
ise s
Ġ201 9
s pa
at ures
Ġint ro
50 9
Ġcho ose
Lo op
ro ut
me sh
he ses
not e
S c
import ers
Ġle af
drop na
na ive
ĠEn vironment
b ig
up load
C M
se m
Ex ist
in ux
Ġw ild
ĠL LM
AS olution
check s
edit or
ic on
Ġ= ========
ra d
ĠL ock
re quired
ay stack
ns ity
ĠEng lish
Ġ( {
æķ° åŃĹ
ĠCONTRIBUT ORS
do g
NA Error
at ural
Ġs li
ail s
skip if
O p
ê ³
ĠV ector
Ġinstall ation
lin eno
: .
Ġ-- >
b ench
Ġl c
ĠIn st
cal cul
ĠAr gument
me ga
Ġse cret
pro viders
re quire
Ġo w
O B
res o
Ġmin utes
Ġ ve
(" %
Ġpypar sing
Ġkey words
Y our
) "
m x
ĠS ize
dispatch er
ĠCO M
x or
Ġen ter
cor outine
Ġrun ner
Ġopt s
æĿ ¥
ext ernal
sh ot
NO T
Ġca use
T ick
Ġd r
Ġen abled
virt ualenv
at ic
Ġback ward
pydev d
g cd
ĠC allback
å° ±
tool kit
é ľ
' ):
Ġm uch
sv g
dire ction
ro y
ĠI mpro
index es
Pro mpt
" ])
Ġ2 8
æķ´ æķ°
ol ation
float ing
cult y
CA CHE
Ġqu ad
ĠGener al
ari o
Ġadj ust
] \
hentic ate
n ested
Ġhand lers
Up date
> {
m er
Ġinclude s
b re
Ġ' *
non zero
Ġsepar ated
A IN
de creasing
mpt ion
callback s
]] ))<
Ġper m
ĠSU CCESS
Ġth ird
x fail
Ac count
Ġf raction
ĠF ace
Ġs cores
Ġsimp ly
Ġsign ed
re quent
Ġ[ ("
quest ions
RE T
æī ¾
Pl ugin
Ġdescrib ed
S orted
u it
Ġne ighbor
ĠP ublic
ĠAr row
Pos ition
EE K
G rid
K ind
é ĺ
Ġact iv
import lib
s imp
age d
AR Y
Ġvalid ator
ph ys
Ñ ī
ĠE mpty
Ġ{ })<
n or
ol ume
ver al
Ðµ Ð´
ynch ron
Ġun less
å¹ ¶
å Ŀ
Ġadd ition
T K
temp dir
d r
TIME OUT
éľ Ģ
âĶĢ âĶ
Ġoc curs
ĠÐº Ð»Ð°Ñģ
n u
¬ ¸
sp an
P oints
Ġt rees
Ġa udio
vid ing
v s
Ġp alindrome
== <
lo gs
Ġ` ~
import s
MP T
è® ¡
R ect
Ġs s
Mon th
ĠW INDOWS
f rac
t ures
Ġm us
num ba
pre tty
R ender
} }
Ġspecifi cation
prec ate
over flow
Ġbl ue
Ġretri e
Ġoptim izer
oh n
art ist
Un it
Ġfa ctory
Gener ic
Ġattemp t
Co st
leg acy
VER BOSE
j oint
le ts
Ġp t
Ð¸ ÑĤ
ff ff
s alary
time steps
ĠIn cremental
default s
t ics
Ġpre order
ar ded
mat ic
Ġdis patch
Ġdebu gging
u gging
]* (
ĠDo main
Ġformat ted
ĠY O
è¯ ·
Ġw indll
å¤ ļ
ĠInstall ationError
Ġfn match
L ES
Ġ" |
Ġr c
Pre fix
Ġc au
F ore
S upports
f ortran
Ġinv ok
ĠP l
C Compiler
pro cessing
att n
Ġbehavi our
Ġload s
li k
cont iguous
RE EN
gram ming
Ã ¡
ar ter
" [
C ho
N ormalizedName
U ES
Pa rent
s izes
age s
ĠE lement
we ak
HE EL
Ġr ather
ì ľ
Ġfor ms
Ġang le
t od
Ġw rong
co pg
Id x
ĠC lient
parent s
S ome
p ies
ĠS V
Ġdir name
ĠF inal
]) ):<
Ġmat rices
tmp dir
N e
on d
ol ded
Ġ' *.
) ",<
Ġf ib
Ġd up
Ġtri angle
ĠIP v
Ġext ernal
Ġad min
Ġcomb ination
ĠA li
Get Console
æĮ ĩ
D jango
Ġfil led
Initial ize
ĠT ri
post gres
å· ¦
N ext
S ame
Ġcomp iled
Ð¾Ð ³
Fa ctor
iter ator
Install Requirement
Ġu b
Ġy et
Oper ations
ex ist
app le
char set
pa red
P ack
r yp
struct ure
P TR
se ssions
ĠN on
ap er
åı ·
Pol y
ĠT op
(' ''<
cur acy
ĠP erson
Ġreg istered
b g
Ġw on
LE G
Can vas
I VE
y stem
Ġde scriptor
u uid
can onical
ä½ ľ
) %
P ost
R ight
R enderable
ç»Ļ å®ļ
ĠN e
Res olver
mid dle
UN D
6 8
ĠÐ¿ ÑĢ
r ule
ĠM icrosoft
interpol ate
Ġ" >
Ġde v
Gener ate
k a
mp ts
Ġf ace
En coding
M ake
q t
Ġrange s
UT C
Str ings
Ġret ain
Ġb ins
s d
ve red
Ġ... ,
tect ed
Ġbegin ning
Lo cal
Ġ// =
åı ª
recursion limit
ç Ł
ĠO ut
Ġconfig parser
Al gorithm
= ',
j ac
C reated
F ill
rib e
10 24
ĠInterval Index
adapt er
j umlah
() ),
ĠC alculate
Ġend point
b ut
cy thon
Ġunicode data
i ver
Ġb i
co okies
ĠA gent
match ing
æį ®
i mat
cre ated
B Y
R enderableType
Ġhand led
ĠInt eg
String Validator
ph one
Dirs ABC
Ġde g
Ġget s
S ingle
Ġrect angle
6 1
B L
Open SSL
Ġcert ain
Ġexp i
å¼ ı
Ġn one
ĠGener ate
Ġre com
py x
Ġen g
in el
Ġchar set
I mplements
Ġt ornado
separ ated
en ame
Ġr s
ĠHTTP Response
Ġindi cate
g ot
Ġi i
Ġs leep
Ġpro perly
aa aa
> ]
c ator
Ġsum mary
Ġperform ance
Ġ---------------- ----<
, "
A p
B ody
># ################################################################
Ġt ables
IT H
> `.<
æ ¨
Ġ um
Ġheapp op
e rest
Ġ" (
co mes
Ġtra ce
stri de
Ġlib raries
Ġp at
Ġd atasets
ĠP art
b undle
() ).
Ġblock s
B oolean
W H
list dir
ING S
LOC K
comb ine
D OC
[ ]
p id
([ ])<
assert False
Con stant
Ġ8 0
Config ured
tol ist
f loor
comp ression
Ġli ght
n ed
Ġ~~~~~~~~~~~~~~~~ ~~~~~~
å ¿
ip s
Ġinter pre
æľĢ å¤§
Temp orary
B ot
File Copyright
FileCopyright Text
e v
Ã ©
ur ses
Co okie
Ġdirect ed
* <
ur istic
(" --
qual ity
W EEK
Ġen ough
port er
Ġpre tty
Ġpre pare
ines s
soci al
L ayer
mp ify
perly Configured
At tributes
FF FF
ĠG NU
box es
lev ant
ĠS kip
Ġcast ing
SO LE
le af
dis able
ĠStyle Type
ach ing
f inder
w t
test case
Ġfiles ystem
ĠCommand Error
Ġc c
ĠCo unt
Ġflat ten
$ <
ĠR ight
åĲ ĳ
Ġ quick
Ġhash map
C lose
medi an
nt h
ĠJupyter Mixin
M ULT
back ground
Pa irs
k de
l b
normal ized
ĠValid ationError
re versed
ĠS orted
ĠD et
Ðº Ð°
Ġpre dict
ĠU sing
Ġhour s
> '
t b
ro le
ĠT ask
ff ine
part ite
can vas
Ret rie
ali ases
æ Ħ
é Ĥ
ch a
ĠN aN
SE PAR
40 4
Ġbuilt in
è½ ¬
5 17
ro uter
ĠL O
Ġtest case
sp inner
ê ¸°
ĠB oolean
Ġtrack er
" ][
dis cu
ĠZ ipFile
p adding
ge s
ĠF rom
ĠThe me
at ron
ĠR GB
FI RST
` ,<
Ġtorch vision
Ġopt imize
gen et
Word s
ĠRE ADME
O FF
T Z
Ġchar det
! !
Ġt b
de que
Ġiter ate
ME T
PO ST
Ġc u
as n
PI L
SEPAR ATOR
di ctionary
dat aloader
As sertionError
W ork
pre vious
ans i
ĠRe ferences
ĠV ariable
ĠCont rol
, )
in place
Ġe poch
ant s
LE TE
CO DE
wh l
ĠN umpy
Ex pected
Ġreplace ment
Does Not
ç ī
è µ
Fun ctions
~~ ~<
B egin
W W
su ally
local ize
Char acters
x s
ome tric
Ġgroup by
ĠPRO TOCOL
D uplicates
G RO
Ġs n
() }<
AT CH
rat ic
So up
g ro
Ġp ie
Ġse ll
ĠTemp Directory
ĠTraceback Type
E mail
` ):<
s imilar
lic ations
Ġpar allel
arg er
æ ĭ
up Error
Ġco ordinate
Ġh istogram
Ġcon straint
arn ed
01 01
her ical
Ġcondition s
ĠAuth ors
olded Case
ĠT H
O Auth
Q A
in i
Ġfl ush
P ORT
Ġappro x
Ġrot ation
ĠM ust
re qu
co erce
dent ity
mark ers
AN Y
åĪ Ļ
G eometry
() ]
pi e
ĠType Alias
IP T
AG S
sig ma
åį ķ
---- --
fe ren
sign ature
ĠAnsi ToWin
C D
S u
] >
Ġse ss
ek s
__ ).
integ ers
ĠÐ¾ Ð±
. ])<
b d
ge ometry
Ġen coder
Ġsuccess fully
ĠE ngine
Ġar bitrary
200 5
C alled
Lo cation
Ġtransform s
edi rect
Feat ures
encode d
mask ed
ke t
Ġun known
200 1
Ð½ Ð¾
pat ial
Ġchann els
" ))
ì§ Ģ
ig en
ĠAdd itional
Ġmaint ain
Ġm is
": "
ĠEx it
pat ches
Exp ression
re at
Ġtwo Sum
d uplicate
Ġ[ ["
\\ [
Ġide a
res olution
lat est
Ġce il
Ġgraph s
UN CT
Ġcre ates
L F
Ġw erkzeug
Ġe p
ĠArray Like
Ġremain der
Ġp g
ĠS ince
ĠPy Qt
ĠHTTP Error
Ġin creasing
bu cket
Ġcom m
tra ceback
Ġover write
**************** ****************
O ri
Ġend s
ĠTick et
S parse
é ĥ½
y e
de scriptor
RE AD
ĠS p
Ġpy tz
ĠCol lection
) ',
Ġ' &
Ġgroup ed
E ach
Ġres olved
ID ENTIFIER
Ġ+ <
ĠBase TraceHierarchyType
åĮ ĸ
Base Version
L R
ima genet
and er
/ ")<
D ig
ĠC ore
ĠRe curs
Ġpoint ers
O b
Ġs pl
di alect
Ġevery thing
rot ate
h istogram
Ġe ar
Ġsub tree
hour s
Ġatt ention
Process or
Ġex clusions
exp ressions
Ġpa lette
High lighter
ĠImpro perlyConfigured
ĠO per
al ic
ĠS ingle
Ġe as
periment al
ë ©
Ġp print
Ġex port
Ac cept
ex clude
Ġse c
`` ).<
ĠEx p
load ing
è¿ ĩ
initial ize
phys ics
py dantic
ĠU TF
ĠNetwork X
ä¸¤ ä¸ª
ĠP et
con verter
Ġglobal s
Ġadd s
DE F
ort ho
Ġk th
Ġid na
io us
wh itespace
I DE
ĠI I
rib ute
De pendency
pos itive
5 1
T erm
a verage
Ġoverride s
pe ople
Ġor ient
ĠF a
ow ner
. %
S cheme
Ġindi vidual
G lyph
ir seq
AR D
Tra versal
Ġleg acy
colorbar s
P ER
Ġint ern
AS K
j ust
Ġ4 2
Predi cate
ĠÐºÐ»Ð°Ñģ Ñģ
ur able
req s
200 8
ĠSe cret
circ uit
X ML
c b
m gr
lo ok
ll ama
File s
render able
Ġiss ues
Random State
a ware
Ġm oney
ix ture
38 4
Ġper mutations
ĠBe autiful
Ġrepl aced
Tri p
m icrosoft
s atis
DoesNot Exist
W R
r ules
Ġde dent
") [
ìŀ Ĳ
Ġsub sequence
å° Ĩ
Ġprobab ly
: =
d ynamic
rom an
ex cel
Ġal gorithms
te am
Ġch r
su ch
66 66
c ab
ĠL ag
h at
base name
p b
p ure
r pc
__ ))<
Ġw indows
Ġ( ?
up er
ener ated
ĠTra versable
ãĤ Ĵ
Co uld
RE DIRECT
ak ing
ĠCon nect
Dist utils
Ġst ates
Se lf
m ore
se quent
en ces
ĠR ot
ĠX ML
Ġnx t
ĠLo cation
) '<
L anguage
g amma
Ġp u
ill a
)) ?
ĠJ ust
00 2
Ġmask ed
Ġsystem s
men ded
H istory
V ariable
en able
Ġs v
Ġint ended
implement ed
V ID
a use
Ġm u
Ġwork ers
Ġ199 7
__ ",
åħ Ī
wrap pers
Iter ation
Ġhapp ens
T EXT
Ġ íķ
Ġmay be
> ~~~~~~~~~~~~~~~~
PO INT
Ġdeep copy
lo ur
Ġ`` (
Ġat exit
cl usion
co urse
lib Exception
recurs ive
FI LEN
MODE L
] |
Ġb eta
é Ľ
cl one
() ),<
Ġpro file
Des cript
= ",
Ġload ing
ĠDistutils OptionError
Ġy aml
ĠMy SQL
} ",
] },
b right
Ġexec ution
ĠA xis
ĠI maging
I MP
r d
ĠS upports
Test er
Ġdef ining
4 00
S egment
Ġlo gs
Ġ`` .
Ġ... ]<
ital ic
cs r
abc def
ĠD ATE
dimension al
Ġn ltk
Ġpl us
bot h
lin ux
Ġcom ments
new lines
E AD
ĠS top
(" <
M em
Dist ance
str ftime
Ġco in
Ġtyp ically
reg ate
SP EC
clar ation
Ġst k
å½ ĵ
t n
in order
al gorithm
Ġc um
Ġout side
Ġsol ver
B IT
Ġre peated
Ġreg ard
S how
Ġn arwhals
Ġcon f
) ",
Cont roller
pol icy
Cur rent
Ġs ync
ĠE mbed
AL LOW
ĠC re
Ð½ Ð¸
C y
(" '
if est
Ġsci kit
in er
Ġc lf
6 9
gu i
Ġpri ority
UN K
Ġguarante ed
ĠS how
ĠD ummy
Ð¾ ÑĤ
ĠÐ½ Ð°
ìĦ ľ
Ġas array
ĠInvalid Wheel
st able
Ġf o
éĩ Ĭ
A ccess
y m
In sert
ay ers
' [
B ER
Ġcon secutive
Ġrece ive
ar ily
Ġw alk
Ġsho wn
Ġpos itional
Ġsolution s
Method s
Ġc ity
Ġc wd
we ek
------------ --<
ara co
Ġi th
Ġs ilent
Ġm ut
Ġen count
Ġmon keypatch
s li
ce ler
Ġ" [
Ġ3 00
her m
Ġover flow
PY THON
f riendly
is file
h df
ar x
ĠB ST
ĠStr uct
N N
ins pect
platform dirs
- .
B AS
Ġwork er
v a
># ##
Ġ0 9
ĠCon straints
sys config
B atch
Ġf s
() ;
Av ailable
S ampler
len ium
ĠInvalid Specifier
Ġbuilt ins
ĠC ar
plat lib
Ġmultip rocessing
li ps
Ġ: ,
n el
and roid
Ġl s
T e
num er
Ġnew er
ĠUn defined
vers ation
iss ue
F FIX
f x
Ġd mp
sub set
Ġpur poses
Ġse m
Ġde velopers
config ure
99 9
RO M
plan es
N ull
int ern
res ses
Ġlist ed
default dict
Ġsu ite
ral ity
HEAD ERS
Ġnot hing
ĠDe p
====== <
ĠCur rent
Ġcon straints
Sy ntaxError
Ġprodu ce
re port
ĠP lot
g m
Ġ" +
ĠUn ix
Ġdiag onal
MPL ATE
4 1
Ġthe ta
Ġ`` <
Ġz one
sent ence
Extension Array
ĠMat plotlib
pa city
ĠH istory
Ġhig her
R ed
ĠF ortran
Ġcli ck
Ġ que
Ġn s
Stream Writer
ĠCategorical Dtype
f raction
unk nown
IL D
12 7
ident ity
ar ing
Ġse veral
([ <
Ġall auth
sub mission
d um
g uess
Ġ" âĸ
Ġz lib
train ing
al g
Ġo l
up dated
ĠInvalid Requirement
Ġcs r
FILEN AME
ĠF rame
Ar gs
Ġmod ifications
å ¸
Ġ: ]<
Name space
ĠText IO
Ġbas is
b id
ĠO ptions
Ġ{ !
Ġprint s
Ġ9 9
serial izers
Ġ~~~~~~~~~~~~~~~~ ~~~~
HAS H
Ġencount ered
ĠD ataset
Ġpre served
Ġ ke
Ġc p
Call er
t rees
py torch
comp onent
ĠâĶ ľ
mem ber
Ġ102 4
de cay
mp ath
Incremental Decoder
ĠFace book
B E
E M
c pp
Ġ è¾ĵåĩº
un e
compat ibility
Pol icy
",". ",".
ran t
ĠDe termine
f requency
p alindrome
ĠThe y
Ġf ra
---- -<
ĠN ormalizedName
Ġme trics
iv ari
Ġz mq
ĠB it
SU FFIX
= %
> ----------------
a j
co mpletion
ssib ly
B B
dict s
Di Graph
ĠInvalid Version
crypt o
Diff e
æĦ ı
t p
re po
parsed Version
Ġdecor ated
Ġview s
S K
U sing
W idth
d itional
Ġth ing
types hed
ĠEx tra
ĠNo Return
cs rf
Int ernal
Ġcost s
Ġse lection
Ġtemp lates
Ġover lap
serv ation
ìĬ ¤
éľĢ è¦ģ
æ¨ ¡
M et
å ģ
de dent
A V
N E
Ġq iskit
al gorithms
ce stor
Ġcre ation
c as
t type
av g
Ġ---------------------------------------------------------------- -------------<
ĠLegend re
m ime
Ġc ross
ur ther
Name d
WAR E
Ġdelet ed
j pg
Ġf inder
Ġ" :
ĠG DAL
æĸ °
éĻ ¤
D L
t i
he n
en c
Ġco mpletion
Ġ2 7
ĠPer form
ĠAs sertionError
a wait
lf iles
Ġ+ --------
Ġs ur
ot hesis
map s
ivari ate
s ci
Ġd uplicates
Ġcont our
Ġcir cular
: ]:<
ĠS chema
Ġe fficient
l work
av ig
Parse Error
$ ")<
l asses
ĠU npack
åı ī
ĠRes ource
z ones
ĠL C
ĠD type
consu me
I A
Y EAR
][ -
Stream Reader
: ])
f il
Ġn ative
Ġtransform ation
ë© ´
D el
Ġ ri
Ġ rand
lat er
accept ance
PE P
AD ATA
Ġconvert ing
rel u
V ert
ort h
Ġappe ars
N ormal
T S
en g
ĠB ut
Ġpro x
ff ers
char map
æł ¼
Ġsepar ator
ĠBe cause
Ġw ater
us al
Ġ10 4
ĠDE BUG
Ġp ipe
ĠL abel
mk dir
r ute
ĠName d
Ġprint f
------------ ---<
ç´ ¢
Ġtw ice
Ġme g
Co ordinates
GE OS
from roots
Ġp ub
il ation
thread ing
/ (
k er
è¡¨ ç¤º
mach inery
Ġp lat
__ ")<
In finityType
("" .
Ġow ner
= __
N PY
Ñ Ĭ
Ġin fer
ath an
Ġs i
IC E
ä» £
C RE
Ġp s
Ġin ference
ĠH ead
eval uate
ä¹ ĭ
L et
b isect
Ġ ?
er min
rel ated
ne ighbor
AC KET
/ ?
mo oth
S ample
f ect
sp atial
final ize
Ġf eed
Implement ation
Ġframe s
Ġinitial ization
Ġcho ices
ä¸Ń çļĦ
ag ic
201 0
tok list
Ġc ertificate
color Validator
S ITE
] _
ph ic
Ġ ðŁ
Ġr gb
ĠFrozen Set
b os
00 000
ĠIn stance
sum s
Ġsum s
Ġlog in
clo ud
en derer
Ġnum Rows
EN COD
mon g
Ġtrans action
Ġ ens
Ġneed le
Ġplatform s
S M
b order
Ġ è¾ĵåħ¥
ĠD FS
è§£ éĩĬ
J ECT
Ġh ard
ALI AS
Ġst ock
File Name
has hes
discu ss
Ġm apped
! "<
se udo
re lative
ex amples
ST AT
Ġsql parse
ĠVis ual
y es
Ġkeep dims
Ġ ut
in ject
ĠĠĠĠĠĠĠĠĠĠĠĠĠĠĠĠ ĠĠĠĠĠĠĠĠĠĠĠĠĠ
è® ¾
ip her
Ġback bone
Ġgener ating
Ġ+-------- +
p us
go od
ãģĨ ãģĨ
t gt
Ġis Palindrome
com ing
ĠThe n
` ."""<
il ers
is nan
ap sed
ĠM ay
ram mar
oo se
: ,
éģ į
8 2
__ :<
Hook Caller
' )]<
Ġas signed
ĠF red
Ġ5 12
Ġmark ers
Ġembed dings
diffe rent
å¦Ĥ æŀľ
u ses
in vert
A F
h ub
sc an
ann ed
z er
Ġco pied
__( ):<
og enerated
BR ACKET
Ġrespon ses
m ies
Ġst ores
Ġdire ctions
ä» ¬
Y es
åĲ ¦
cap s
STR ING
Ġvert ical
ë ³
on s
Ar g
4 40
Ġr uff
vari ables
mple ted
Ġv owels
Ġme chan
Ġsub sets
P OS
ĠLag uerre
c ss
an el
do ctest
S calar
k v
Ġre distribution
Ġb fs
ĠD B
vi ct
V ideo
ç ±
Ġbu cket
. '<
Ġ4 00
Ġd ta
ce dence
ĠF oldedCase
Ġ4 5
COL OR
éĿ ¢
D Type
r r
Ġs af
built in
Ġmean ing
Incremental Encoder
/ ',
P o
p x
ĠOr der
Ġ è
Ġar row
ĠS tep
cho ices
Ad min
. "
Ġpl ain
M IT
ĠS hould
äºĮ åıī
Ġre ferences
pytest mark
Pri me
ç Ĳ
me mo
Ġm d
Ġmax Profit
201 9
B Solution
S cheduler
Ġ er
ns wer
Ġ[" ._
ĠPro cess
ĠPro vider
Ġorder ing
Ġserial ized
Leg acy
F igure
Ġg r
Ġag ree
s ho
Ġindex es
Ġexpi res
T op
c ross
g iven
Ġp ipeline
Ġe moji
Ġin ject
Ġmulti part
quant ity
T ags
Ø §
ĠI mplement
Ġsche d
f ragment
an um
** <
Ġcom ma
UN T
Sub string
Or More
ç ¨
ç ¼
Ġ ])<
limit ed
ĠParse Exception
* ,
Ġpar agraph
Base Exception
Ġinterpol ation
U I
Ñ Ī
Ġ ç¤ºä¾ĭ
me mbers
ab stract
ren derer
complete Read
/ %
r hs
get cwd
Ġd d
Ġh er
pre process
ĠHttp Response
Ġde coding
per cent
ise d
Ġcal c
Ġ' +
Ġcons istent
Ġar ithmetic
Ġpy arrow
"] ["
ĠA nd
em ote
Ġresult ing
Di ctionary
dot env
ìľ ¼
ar son
Import Error
Ġinvok ed
) ],<
æ Ł
st ores
ĠHTTP Exception
hover label
at least
ro om
not es
Whe n
requ is
Ġp lease
Ġre levant
em b
out ube
ĠX XX
patch er
writ ten
h int
Â ·
ĠR aw
ĠM atch
SE L
) """<
Ġtry ing
Tree Builder
Ġfactor s
J son
)) ))<
ãĤ ĭ
agg er
as se
ĠĠĠĠĠĠĠĠĠĠĠĠĠĠĠĠ ĠĠĠĠĠĠĠĠĠĠĠĠĠĠ
Ġdo ing
mpt ions
e insum
ĠU t
ĠRe al
ĠQu ant
Temporary File
OL D
F L
æ ĥ
TT Y
Ġ... ,<
Ġnames paces
ĠInfo Extractor
A verage
ap py
height s
By tesIO
Ġdep ends
Ġ END
ĠS ource
Ġ`` /
ĠTest case
Ġmark s
stru ctions
V ari
f uel
Ġd ry
ll ms
FIEL DS
A ct
Ġb old
iter tools
Un defined
Ġtz info
k t
ro spection
Ġb g
L azy
e ach
Ġcomp uted
Ġfinal ize
Ġb dist
REQU I
an h
__( '
Ġinitial ized
v cs
Ġb alance
pt s
Base d
Ġf allback
Ġen di
ĠM IME
EX TR
gener ated
è¯ ¥
ĠInvalidWheel Filename
Ġco pyright
/ ",
im it
ĠComp at
path name
dis pose
diag onal
Ġo k
ĠC F
IL INE
X Y
ì ĸ
ĠH AS
ren cy
page s
M edium
Ġpar ses
` :
s heet
get text
Ġeval u
74 1
ĠCLI P
Ġpar ame
ON T
éĩ ı
K B
Ð» ÑĮ
äº ¤
LOC AL
` ):
Ġdate util
local host
Ġstd lib
SY S
Ġme asurement
fo od
Ð¾Ð º
en u
Ð¾Ð ±
sql ite
high light
åİ Ĩ
ç± »
? )
S pecial
se quences
al len
Ġre po
() )))<
Ġde lay
ĠÐ ±
ĠAN D
w ap
y a
Ġe q
ren gth
7 31
ca de
Ġmid dleware
ĠRet ry
w ater
on athan
Ġt ab
ĠG e
ĠBack end
r ust
Ġl arger
Add ress
ARR AY
ĠC Compiler
pos ix
ug ment
Ent ity
Ġmach ine
L argest
ķ Į
ex port
ĠĠĠĠĠĠĠĠĠĠĠĠĠĠĠĠ ĠĠĠĠĠĠĠĠĠĠĠĠĠĠĠ
ĠOpen AI
Ġdep end
Ġgreen let
e a
f allback
ë ¦¬
ĠS C
fix tures
Path s
R ing
T ok
ĠF I
ĠName Error
Inter pol
trun cate
de tail
ĠS H
mple ter
Ġme tric
ress or
Ġthread s
Ġident ity
, _
Ġs izes
Pro perty
Ġprogram ming
Diff usion
Ġde velopment
Ġ1 01
can not
Ġaut hentication
Ġupper case
Ġca lendar
å¼ Ģ
" },<
R aw
mo id
Code s
Connection Error
Ġident ify
li fied
ang ing
0000 00
Reg istry
ĠFred rik
ĠR ect
eg round
Ġp p
Ġmp math
Det ails
' "<
p ub
ĠPy dantic
Con flict
Ġfind ing
medi ate
Ġaltern ative
ç º
Ġ`` __
Ġtime it
Ġcode c
Ġgener ates
Ġte ar
ĠLink ed
Ġb ranch
Ġco ords
In sensitive
e b
ser ang
'] ),<
file path
Ġj edi
éķ¿ åº¦
o om
Ġw s
Ġ[ ],<
res p
Ġindex ing
Ġinter section
á »
é Ĵ
Char acter
Ro le
Ġmedi an
n ce
pro perties
Descript or
æ µ
in ops
and ar
ĠIter ate
âĢ Ļ
spe cs
Ġdep ending
Ġrecom mended
M any
Ġf ragment
und h
Ġhapp en
ĠL undh
ĠJ son
æľ ¬
S R
str ong
Ġsy m
Ġtri e
Do c
Ġremo ving
Ġ5 17
To o
æķ° æį®
ĠApp lication
g pt
Ġp ure
for wards
ĠU RI
Se curity
Ġmechan is
w rong
Ġn b
get value
Ġli k
Ġe mp
Ġbe comes
ä¼ ļ
1 10
ial og
De cimal
ABC Meta
Ġgo ing
Ġê ²
ĠYO LO
n i
ĠC SV
ĠP attern
Ġse curity
ĠTrie Node
Ġintern ally
SK IP
S tep
Ġy i
Ġle arning
Ġmat ched
ĠPy test
Ġsche mes
Ġloc ations
Ġover rid
Ġpython com
Ġ201 7
P C
ap prox
Ġdecode d
i ou
tra versal
ĠA fter
Ġå ĴĮ
ĠD on
Ġwhe els
Ġ10 5
AS M
EX PR
( ",
re mo
Ġcomb ined
ĠLegacy Version
Ġt p
==== <
ĠJ onathan
201 5
Ġsw itch
ç§ į
optim izer
U LE
æ ²
Ġ Ñĩ
ĠT ypedDict
ĠS im
aut oreset
Ġderiv ed
Ġre ally
Ġth us
sy m
ĠBeautiful Soup
D raw
U sage
ĠO ri
back ward
trans port
Ġalph abet
SUP PORTED
w b
us iness
Se lect
pure lib
Ġl r
un squeeze
iz able
Un ique
lim its
é¢ĺ çĽ®
' ))
re present
ultip le
He alth
i et
Ġsh uffle
Ġsha re
D AT
ĠSpecifier Set
IGN OR
expi res
s phinx
`` :
ast er
PY PY
ĠDi rect
çŃ ī
> /
a round
l ue
Ġ åĪ
># :
ma cos
ĠU N
ĠBinary IO
ÑĨ Ð¸
Ġscal ing
Remo ve
S ta
pt ime
pro j
pre pare
Ġì Īĺ
ĠìĿ ´
ed Array
ĠS calar
Int eg
annot ations
Ġh aystack
>################################################################# ############
9 4
k its
um ath
Ġpro viding
"] ))<
Ð¾Ð ·
loy ment
ĠClass Var
T ypedDict
Ġend ing
Ġ200 8
At tention
ĠMy Class
Ġclose st
ĠA L
Ġ`` _
TE MPLATE
dl pack
ul ly
ag rams
éģį åİĨ
request ed
gh i
VAL UES
ĠFun c
Ġvendor ed
B its
] !=
se en
Ġr fc
ĠSet uptools
8 22
Ġde al
ick range
orp his
ĠH as
ĠPro ject
W alker
th ers
ĠB ar
Ġread s
By tes
a o
oper ation
ĠG PL
Ġpolynomial s
i ence
pa lette
Ġos p
long double
Runtime Error
Feat ure
or ient
ÑĢ Ð¸
Ġpe ek
g aussian
fi dence
ĠCon struct
å® ŀ
Ġf d
Ġb el
ce eded
ot st
ĠMin imum
Ġquant ity
am in
Ġmo ving
å® ĥ
ul ative
Ex t
Ġwh ite
ENCOD ING
R Y
R edirect
h older
j ar
ĭ ľ
Ġt di
~~ <
Re LU
.. .")<
R U
ĠH art
Ġ201 8
net loc
Ġlex ers
T otal
Ġout er
ĠPackage Finder
Ġt da
un i
Ġper mutation
Ġcy thon
Ġdump s
bz r
M an
S core
c mp
an a
([ ["
cre ator
Ġpl ugins
Ġ200 9
lis hed
ĠCase Insensitive
std lib
T ry
t ell
ex istent
ĠP os
Embed dings
need s
P e
ab i
Ġk lass
åĬ ¨
sched ule
I V
P N
Ġ ĉ
Ġin vert
Ġsu bject
Ġfactor ial
Ġes cap
co ins
ign Key
la ke
40 3
c ated
Ġm ar
ĠM an
heap ify
Ġrel ations
Qu ant
BO OL
track er
] }<
Ġ ))<
color ama
ĠSV G
t up
Ġg ives
Ġ---- --<
TER N
Ġvector s
otst rap
Ġcon ven
ac ing
Com ment
cat s
sl ash
requen cies
re pl
Ġun i
arx iv
pol ar
mus l
ugging face
N ow
Ġp atches
Ġin correct
so ck
Ġarg types
Ġ... ]
Ġent ryp
Ġleg end
> |
L ICENSE
ĠS c
Ġdi visor
Ġcan dies
ĠE LF
æĪ ĳ
ç ł
is dir
Ġ2 000
split lines
ĠTest s
G ui
de comp
Ġf act
ed ian
F ail
íķ ľ
figs ize
ALLOW ED
f info
tr uth
" '
E scape
log n
temp t
åĨ ħ
ìĸ ´
F ixed
U sed
Ġa mong
gen ce
Ġsql ite
7 3
B M
S ha
k u
Ġ ell
Ġr ating
Ġoptim ization
Ġf urther
inter preter
Ġspecifi ers
Ġim mutable
att ack
ĠColor Validator
Ġfil tered
Ġit alic
Se lector
éĢ Ĵ
ar u
ut ures
un ic
ĠF ill
ĠW arning
ĠHart ley
g ate
get path
pen s
Ġfont size
au x
' ])
P attern
a int
b ian
ph i
33 33
domain s
ĠAN SI
ent ropy
ä½į ç½®
g lyph
Ġf ake
Ġback ends
Ð´ Ð°
is na
el low
Ġde comp
set recursionlimit
Ġis land
ĠL abs
Ġro bot
åĽ ¾
Ut ilities
Ġintro du
rout ine
nor mpath
G u
W ASM
c les
Ġt im
Ġre cogn
Ġs heet
ge bra
sour ces
Ġsimp lify
Ġgra d
D WORD
F inal
Ġ< /
Ġs can
Ġm ix
Ġì ¶
pyx l
Ġre ache
Ġbe come
Ġvirt ualenv
a ab
def ine
Ġ7 5
Ġli m
at ively
ĠS pecifi
)* (
ĠTO ML
Argument Parser
ĠF eat
Ġ3 4
ĠCaseInsensitive Dict
on ce
il low
ĠL arson
ĠM issing
min utes
ick er
sol ver
Comp arison
social account
M utable
an ded
Ġsu c
FIEL D
x t
Ĳ ľ
Ġtar file
çĲ Ĩ
w ill
Ġ/ =
over lap
Ġrecurs ively
pe g
Comp ute
leg ate
Ġdetermin ed
ss ue
Res ources
Do main
Ġip address
ĠRemo ved
Ġ Ã
Ġhas hed
. {
ap shot
ĠRe present
ON G
Ġren derer
ĠP h
ĠE ric
5 01
at ives
al loc
Ġst y
so und
cum ulate
MULT ILINE
t w
Ġunder stand
ĠCont ainer
ĠLink edList
bos ity
ĠM ODE
log y
Sub array
CUR SOR
ul a
ĠPro mpt
: ].
S pan
Ġp ast
ĠC andidate
ĠE asy
map per
Ġst uff
Ġme mbers
Bound s
. \
in cip
as m
ge eks
Ġno ise
se lection
M is
rt ol
Ġsp f
t as
na ke
Ġimplement ing
ĠConfig Dict
` _
ar b
ĠSe par
12 5
Same Tree
N ULL
or se
ol l
ke w
Ġse lenium
Ġe vict
The se
Ġad v
Max imum
Ġrece ived
ÐµÐº ÑĤ
Ġagree ment
h g
Ġ urlopen
]== '
æ Ĭ
Ġa mb
ern els
job s
c compiler
s mallest
Ġres idual
de let
sh adow
Ġvis ual
MA G
Ġpix els
fin ished
retri e
A ST
M at
args ort
Ġm n
cl ared
", )<
ction aries
Ġrespect ively
par k
Ġmulti ply
Ġi r
il on
Ġe lem
Ġpre ferred
Ġa m
Ġans wers
ĠĠĠĠ čĊ
Ġl lm
Ġen c
De vice
ĠPar ameter
Ġpol icy
MENT S
7 1
Z ipFile
j inja
ĠFigure Canvas
] '
u li
en codings
Ġ` -
ann el
19 2
Ġbl ack
ĠÐ´ Ð»Ñı
w alk
ĠM ask
key words
éĹ ®
Q uestion
in sensitive
it z
Ġd s
In di
plot ting
wh at
åĮ ħ
F ull
b um
in verse
se lector
Ġst ar
Ġlog ical
Ġdetect ron
z mq
(' _
Re cord
Ġbase name
Ġout file
Ġpro cessed
IN ST
CO UNT
K G
ow el
f ar
f lip
n l
Ĩ Ĵ
qu ared
clu ding
d n
er ance
Ġn or
ĠB Y
Ġcor ner
ĠBuild Environment
ç¨ ĭ
D D
^ {
st ones
"" <
ap ache
Ġbu g
è¿Ľ è¡Į
g pu
Ġmo ved
havi or
W ait
[ ["
un ix
Ġis olated
Ġg amma
stra in
PL AT
å¾ Ĺ
ponent ial
ëĵ ľ
' ]['
P ACK
fi cial
:: -
Ġdirect ive
Ġimp ro
B IN
ac c
utor ial
v ander
__ )
py parsing
(' --
Ġ200 1
inst ances
C ls
i dentifier
uplic ated
Ġcli mb
Ġh erm
del item
Represent s
L ongest
t series
li ers
str ptime
ĠC orp
pro ach
Ġcheck ed
book s
ĠTh at
ract ice
ro bot
Ġmem ber
Network X
d temp
cl uster
ĠO GR
ĠV iew
Ġsum m
Ġstr ategy
Not Implemented
Ġjob lib
VID IA
) `
æ ¡
al ive
Ġd ashes
") ])<
De corator
local s
Ðº Ð¸
D ES
Ġ ),
it ect
ge om
Ġ" =
fe ed
MO VE
mplet ions
ĠTH IS
H int
æł ¹
Ġfix ture
Header Dict
Ġpotent ially
Ġsub sequent
>`_ .<
ĠT ry
put ils
Ġdis k
We ight
ãĥ ¼
Embed ding
ĠSerial izer
] }
p ivot
Ġinter sect
search sorted
åº Ķ
Ġa gg
1234 5678
æį ¢
Ġl ayers
if fi
Ġwe ek
Or dered
Ġmon otonic
Ġclean up
LEG AL
S mallest
ed y
The me
Ġ[[ ]
Ġmeg atron
* ')<
r v
Ä ±
Ġg radient
Ġpre requis
ter ms
char m
è ¶
pro gram
({ '
u lo
Ġf lip
ad os
et y
EC ASE
Ġdict s
sh apes
Ġdiffe rences
//////////////// ////////////////
sc ene
RE F
AP P
[ ~
Ġw ave
ot s
Ġmap s
ĠPip Error
å ¥
ĠClass NotFound
åºı åĪĹ
S creen
à ¦
Pol ynomial
è ĩ
re aded
Ġf i
Ġs alary
ff e
ho od
Ġsu g
ighb our
BO M
ĠHead ers
at ty
Ġc t
Ġb order
Manager For
Ġtrans pose
O ps
EN ABLE
Ġdist ances
text ure
ĠSt andard
={ '
Ġsched ule
Ġin dependent
Ġe inops
istr ation
ë ı
re try
er atures
Ġprint ing
Ġurl join
abc de
Set tings
D EC
p ic
Ġt reated
as cal
) ]],
R EC
Ġ( `
ĠF orm
ĠAl low
m oney
Ġm igration
Ġpy asn
abc d
ĠSt udent
the docs
tool kits
> ,
Ġinter active
Ġf ully
Ġp k
Ġlength Of
He ight
Ġimp licit
n c
Ex it
read thedocs
rid ge
cu mpro
EP T
ĠSy m
c rop
ì ķ
ĥ ¨
de c
Ġn y
Ġu int
Ġquery set
âĶĢâĶĢ âĶĢâĶĢ
~~~~~~~~~~~~~~ <
e lem
Ġd pi
Ġfile path
mark s
remain ing
l apping
p q
é ħ
Ġ" $
Ġ201 1
Ġwild cards
SEL ECT
` )<
g inal
Ĭ ¸
> '<
Ġcon st
Link edList
Ã §
é ĥ¨
ĠN ow
Ġn dim
Ġtarget s
clu ded
itle ts
> ================================================================
to o
ĠU TC
cond s
sy ntax
M ult
c lib
d ropout
n able
Ġo thers
fi c
]] ]<
ĠÐ· Ð°
H ER
c ates
Ġp ers
ĠS EC
Ġu sually
ĠSt ore
ob s
iet f
Ġar y
(' <
ĠH EAD
NO DE
UR I
i mag
ĠC DP
Ġde signed
Ġtrans late
it ter
pre order
ĠV in
position s
Platform DirsABC
Ġj ax
.. ..
id na
ont o
ĠSy ntaxError
Ġindic ates
b roadcast
g onal
il li
ĠRe place
Ġcir cuit
æİĴ åºı
spa wn
' ][
ĠS u
ĠC ir
py game
ĠP ack
build ers
åĲ «
hex digest
I Z
f r
l an
½ æķ°
Ġ urlencode
on gs
m icro
ĠT C
=[ <
Un less
Ġspecify ing
contin ue
cumpro d
> \\[
I ES
â ī¤
\\ ]:
Ġlook s
zip file
Pa ir
cut s
uk k
Ġan imation
ĠI MP
ĠW rap
AR E
Ġsort ing
Ġpe ak
Ġconsist ing
ĠCo py
cor r
Ġinstall ing
wait able
ĠWeb Socket
look s
M SG
Ġc tr
ĠF our
Ġ12 3
BU ILD
86 01
Ġpredi ction
Ġfra ctions
] +=
Cont ains
15 9
Ġol der
D ialog
p end
Ġ' ',
ĠRe ference
an aly
co ef
skip na
pen ded
inter faces
Ġ'. '
ĠAc cept
C ERT
s urface
ĠA S
==== =<
ĠE mployee
Reg ion
ĠKe ep
calcul ate
E st
N umpy
Ġ' ')<
Ġx or
Ġmin imal
ĠDi ctionary
Ġle etcode
Co py
Ġ201 6
ĠHash able
ĠZero OrMore
U UID
urn ame
ĠE val
Ñģ Ñı
ia lect
ĠâĢ Ķ
Ġvirt ual
IGNOR ECASE
or ation
Ġe li
Ġì ķ
Tra ceback
ĠID NAError
ĠSer ver
ag ents
Ġhelp ers
I mp
P erson
Ã £
back wards
Ġpost order
ĠDep ends
d ll
># ################################
mark up
ick le
Reg ister
Ġcapt ure
st ar
iv ing
>@ _
Ġsatis fy
æ Ľ
ĠF ree
Ġnew line
cer ts
deg rees
g ly
Ġa nt
ver gence
tri z
Sta irs
9 1
i or
å »
Ġpro b
DE X
Console Output
Ġman ip
SH A
Cursor Info
> ',
ra cle
ap ath
Ġde limiter
Ġcu da
e qu
Ġre feren
lo cs
Ġg ain
Ġ'. /
Ġcover age
Hel p
support s
------ +<
"" ,
un set
Ġ5 08
Tra cker
="" )<
Ð°Ð½ Ð¸
ortho gonal
( ',
== '
Ġmin imize
200 9
GRO UP
ĠA ct
ĠUn it
ĠNO QA
B AD
e es
æ ±Ĥ
Ġstate ments
Ġvis ible
éħ į
d c
Ġd a
Ġis Valid
Se quential
C ar
Ġf loor
Ġin s
ĠT IME
Ġ3 5
Ġper cent
) '
Ġc sc
Ġs ay
lat in
Ġext ended
weight ed
can onicalize
product s
Ġbra ckets
" ):
qu eries
Ġst oring
ĠB ook
"] ),<
Ġtmp dir
cons istent
! '''<
H ttp
Ġre cur
ol id
ĠL azy
no ise
cap ital
Ġredu ction
circ le
çł ģ
== =<
ĠAPI s
U B
ĠN VIDIA
Ġtemp erature
Ġper formed
Ġcustom er
ĠChar acter
ĠLO G
i co
con nections
Aut ogenerated
ermin al
T ERS
12 0
ĠOpen API
G ate
ĵ į
un used
Ġfollow ed
perm ute
fi b
Trip let
V er
ĠL et
Ġse gments
ta ched
ĠImage File
] ].
ĠF ROM
S ide
Ġc book
est yle
Ġcan onical
Ġsu itable
Ġopen ing
ĠCont ribut
Ġcustom ises
Ġregard less
de mo
ĠM ain
crypt ed
Ġjoin ed
Ġde nsity
print ing
Ar t
ãģ Ĥ
çĽ ´
postgres ql
U ST
ane ous
C ategory
velo per
) >
M T
N egative
Ġparent s
ĠBase Cache
ĠFI LE
n at
Ã ³
Ġext end
Ġconvert s
N V
o v
} _
Ġm icro
ĠA sp
ĠL ayer
Ġwh y
Ġstart ed
Ġmo ment
Ġover head
Ġtrans lation
Ġeval uation
Ed itor
Diffe rence
b ine
w atch
mat mul
Ġopen ed
ĠPro duct
Date Time
Ġatt n
] ',
co very
ĠD P
Ġv i
ĠG eometry
pi red
Ġman age
ĠÑģ ÑĤ
E GL
ĠF IX
ĠM ac
List s
format ted
Base Cache
ĠNew Type
ĠPytest Tester
/ "<
Ġ Ñĥ
ge o
Ġint erest
AT W
RE MENT
Ġfull name
soft max
Ġhighlight ing
Ali gn
æĹ¶ éĹ´
~~~~~~~~~~~~~~ ~<
__ ),
con version
do es
>> >
Element Tree
ç «
in c
Ġsub mission
ST Y
Ġheap ify
Ġest imator
Ġquot ed
H ost
ĠN ormal
ff ered
Con cat
çĶ Ł
Ġbl ank
Ġsc en
ĠS ha
11 1
mit ives
multi ply
kind s
Retrie ver
+ ',
> ",
y olo
Ġin finite
Ġtyp ed
Ġren dered
Ġinteg ration
+- ]
m ith
Ġa ffect
ĠT HE
ad b
: ',
Ġin crease
") ),<
AN GE
Lib rary
Ġhyp othesis
æ¯ı ä¸ª
ĠPO INTER
IN F
St d
s as
Ġa ux
al so
ĠS aj
Ġde coder
ĠIn finityType
Ġne arest
vis ual
Ġlength s
Ġìł ķ
ĠVin ay
ul ates
co ord
pro cesses
ĠU S
ĠTransform er
ĠSaj ip
9 01
c x
con straint
In st
Un parsedVersion
ĠHe ader
rem ote
epoch s
widget s
: {
H as
Dis play
\. \
Ġbin ascii
Ġ- <
Ġj inja
ĠTest C
sche mas
^^ ^^
CLI ENT
å ŀ
Ġos name
Ġshould n
Ð½ Ñı
Ġfont s
b ranch
init ions
Ġ{ {
whe els
Ġtri gger
Ġcontribut or
Ġoverrid den
) ("
* .<
Ġexec uted
lyp hs
HO ST
predi ction
Ġlik ely
c reso
i req
j o
Ġare n
Ġes c
ill s
kw ds
Ġpri or
()) ;
ĠProtocol Error
omin ator
ar ith
Ġde e
Ġ` __
ml ink
ST ART
Ð² Ð°
e lf
y ou
Ġun supported
Multi Index
SER VER
S p
m ust
ot o
Ġh o
exec utor
(?: \
pe ak
Ar row
Col ors
ìĿ Ģ
vo cab
} '.
Ġin clusive
Ġto k
om ic
Ġpre cedence
ne ver
ans ion
Ġconnect ing
Ġexpect s
Ġin line
Ġ' ('
Ġde mo
sy mmetric
âĢ Ŀ
Over flow
z ure
Ġl m
ĠSe curity
ON LY
Ġcomp ose
Ġ9 7
ãģ «
Ġå ľ
Ġassu med
integ rate
c ertifi
dot s
Box Layout
Ġpy openssl
Ġì Ĺ
Ġnon local
e cho
item size
colors rc
B o
T X
un ame
ĠS pan
Ġpage s
dum mies
` ).<
a ir
() '
ub ic
Ġro om
Ġconfig ure
ann ing
vector stores
íķ ´
Ġna ive
ä¿ Ŀ
i us
Ġco pies
sub array
rit ten
Cre ates
N eed
g ray
as freq
ĠU SE
Re porter
File Error
Ġtoken ize
ateg ies
h ard
Ġp hi
Ġin her
read only
He re
concat enate
orphis m
M Q
W E
Ġc aching
Pass word
8 1
Ġt ell
Ġ# ##
Ġh ouse
Ġr m
ĠâĶ Ĥ
Ġìŀ ħ
ÐµÐ½Ð¸ Ðµ
ĠT ags
ug gest
Ð¾Ð ¹
Ġn c
---- --<
ĠCom mon
Ġconcat en
G e
P ublic
t qdm
y ield
ci fic
rel ation
im izer
rop ic
åľ °
t ile
w xyz
ect s
(' %
ĠĠĠĠĠĠĠĠĠĠĠĠĠĠĠĠĠĠĠĠĠĠĠĠĠĠĠĠĠĠĠĠ ĠĠĠĠĠ
ĠHe re
Ġstudent s
SCHE MES
OPEN SSL
at map
Ġh ad
ĠM ost
ĠG it
SS ION
Ġstream lit
) }")<
B LOCK
M ain
ĠS upport
Ġv ars
Lo cator
åĩ ½æķ°
ent ities
tri ct
riter ia
ĠPool Manager
G H
Ġc df
Ġm arg
Ġcon current
AT ORS
] '<
ĠN ULL
LE FT
æ¯ Ķ
D R
í Ĭ¸
Ġg l
Ġcomp ressed
su bject
CO OK
æĺ¯ åĲ¦
ĀĀĀĀĀĀĀĀ ĀĀĀĀĀĀĀĀ
' }
F OR
ĠZ ip
Ġtri o
ç§ »
o i
v stack
ri ends
qu at
Ġopt imal
Ġunpack ed
MOD ULE
ĠStop Iteration
å» º
/ ><
6 2
N ested
Ġ[ ('
co urses
ĠF uture
assert In
rc Params
c sc
d rive
Ġcl uster
Ġå °
åĬ Ľ
s putils
Ī ëĭ¤
ĠEx tract
St andar
ĠSt orage
GL OB
f b
qu x
ĠC OR
pro mpts
S cope
th an
Ġopen ai
Ġmsg pack
ĠSSL Context
Split ter
GLOB AL
V EL
an chor
url patterns
Ġpath name
00 7
Ġsub plot
Ġ~~~~~~~~~~~~~~~~ ~~~<
green let
ĠNegative InfinityType
ĠFIX ME
Ġun quote
j udge
de tection
mark down
j ug
is om
ĠC SS
Ġsub stitution
Ut ility
("" ,
mach ine
g radient
Ħ ì
ĠB U
ha z
>================ ========
Ġb roadcast
ax s
Path Like
202 2
alind rom
ORD ER
ĠFun ctions
Ġfor med
R ound
f stat
In line
ĠG ET
]) ))<
Ã ¤
Ġ` _
Ġac c
Ġhold s
U npack
ar c
ser vers
Ġst and
ãģ Ļ
Ġ^ =
p ull
ĠO b
ub ble
are r
Ġsh apes
Ġbyte array
SEC RET
R IGHT
k lass
serv ices
Ġ========= =<
satis fied
u cli
pro jection
ĠRe served
Ġnew Node
Ġtra itlets
ĠÐ¾Ð± ÑĬ
Ġsec ure
a len
Ġd c
act s
Ġserial ization
IF Y
Fail ure
arb age
3 10
g zip
s ites
ĠM agic
ne th
202 1
s ampling
å ±
Ġ ï¼Į
Ġ: :<
tra iling
Mark up
ab ilities
è¯ ķ
åį ³
Ġlin eno
O bj
W arned
Ġb and
Ġ@ _
ĠEx cel
St dout
Ġparser s
ĠDist libException
Ð¾Ð³ Ð¾
r upt
Ġ roman
is digit
Ġth ink
=[" _
ĠURL s
fl ask
å® Į
Ġê ³
loy ees
ĠSh ort
s ur
Ġimport ant
di vide
ĠL ayout
Ġun directed
token ize
MET ADATA
lo s
ĠP SF
con straints
vi al
crypt ography
Ġgu ide
F SIZE
g ing
} ',
Ġdiv mod
code c
ĠPro gramming
Ġident ical
ĠSym Py
c map
Ġdi ctionaries
ID D
({ })
" %
ime ter
ĠS ample
BU FF
annot ation
.* ?
separ ator
ĠExtension Array
Ġo mega
Ġu v
oc ab
K ernel
å Ļ
Ġ onto
st acle
Ġm anag
Ġof ficial
length s
å½ Ĵ
å¾ Ħ
haz mat
Ġre vision
ĠG PU
Ar r
Ġpri mes
Ġå ¦Ĥ
Ġauto attribute
[[ ],
Per mission
æľĢ å°ı
ĠFeat ure
r ins
Ġj udge
form data
Ġsub tract
uto ff
åı ĺ
effici ent
ê³ ł
P P
S quare
am ming
im show
Ġcomp li
RE Q
Ġcalcul ated
Ġel apsed
Ġspa wn
Ġc r
Pro file
Se q
åı Ĥ
Ġra ster
COM MENT
Ġdeg rees
c python
ĠS patial
FF T
KEY S
ĠDatetime Array
Widget s
Exec Error
Ġmac OS
äºĮåıī æłĳ
s b
Ġf h
Ġp df
Ġlo ops
Ġv s
Do uble
B ook
ĠS imilar
rect angle
char acters
Ġbound ing
. ",
C ESS
mat ched
Ġro ute
bu y
Valid ationError
ĠStream Wrapper
pix el
/ __
O ther
Ġs he
co eff
Ġen codings
order ing
c lic
de precate
Ġh uman
ĠSe ction
éĴ Ī
f ort
on nx
00 5
Ġang ular
" (?
ĠS ing
ĠA ut
Ġpy dev
Re place
ifi es
PI P
Ġequal s
SC REEN
iffi culty
Sub Array
Ġph one
æŃ £
od er
Ġco o
gg le
ĠRe quired
Sh ort
Ġpur pose
è®¡ ç®Ĺ
Ġåľ ¨
ase d
Ġby ref
Ġge ometry
Cour ses
åŀ ĭ
g c
loc ations
Ġthere fore
mm utable
Ass ign
ľ ëł¥
Ġma ster
ID TH
Ġfa irseq
Ġæ ı
POR ATION
ĠCOR PORATION
D IS
Ġd ates
Ġar mor
ss h
Ġdist ribute
24 4
ĠParse Results
Boolean Validator
Ġpie ce
Ġher me
- ]+
S pe
w arded
IO Base
ĠCh ange
avig ation
S pline
Ġc and
co v
Ġ: ]
EN ER
Request Handler
dat as
Del ta
B SD
li ck
fo ur
Ġmajor ity
Ġell ar
al lfiles
() ])<
E asy
f ol
ĠN UM
ke mon
St udent
Config uration
Ġcre dentials
Ð¼ Ð¸
Ġc api
cur ve
Ġnormal ization
Author ization
/ "
n ume
Ġ" )
str ategy
è¾ ¹
æł Ī
merge d
Ġf uel
Ġtest ed
ref s
PY OPENSSL
ĠFour ier
p es
ĠC Python
tri e
scal ing
WH ITE
x axis
Ġ---------------- ---------------<
================================================================ =<
> `<
it a
it ations
Ġe ye
Ġ3 3
De lete
Ġnorm ally
Ed it
) ._
Ġo t
== """<
>""" =================================================================<
Ġman ually
Cy cle
>================================================================ =="""<
J umlah
L ong
g an
x pr
ri cs
Ġ_ ("
Ġun ders
Ġvari abel
Console Options
Ġg rammar
------------ <
ĠModule Type
ç Ħ
Ġ. -.
ag onal
text font
" (\
Ġto ml
åŃĺ åľ¨
R out
q r
x lim
as i
fi rm
Ġex ceed
ener ate
éĩ Į
è® °
>>>> >>>>
éĢ ļ
sched ules
( ('
P lot
P ipe
Ġt en
ĠP adding
Ġl xml
ĠD own
ent ity
Ġcont iguous
pack ed
gu ide
vide os
ä» »
Ġlimit ed
adj ust
allen ge
k i
el li
Ġmark ed
serial ization
ĠIN T
Ġstrict ly
Ġprox ies
F in
Ġs quares
Ġg zip
col lect
Sub sequence
MA GE
Batch Norm
ul se
Ġse lector
Ġun expected
Ġtext s
ref count
dt ickrange
Ġlocal s
dar win
imat ed
ĠN D
Ġe igen
index ing
loc ity
Request Field
factor ial
Det ector
Wh at
w an
Ġp in
Ġn th
Con struct
reg ression
DI ST
Exec utor
ĠRight s
in ion
ed its
Ġh orizontal
Ġlist ener
Ġ% =
File Cache
Not Available
Ġens ures
H ow
S ent
Ġ( %
Ġco mes
Ġh ist
pro bs
mon os
Ġest imate
retri es
l v
ne um
ĠCol ors
h old
k n
os ite
Ġvis itor
UD A
ro b
he ss
Ġme nu
cri min
man aged
æĸ Ń
T orch
ĠW ill
Ġden se
Ĥ ¬
AL PH
Request s
sha ke
tot ypes
Ġc map
ĠA T
ĠF ore
Ġloc ated
Ġprodu ction
PAR EN
åĪĹ è¡¨
ĠCache Control
Ĥ ĺ
Ġt ot
model ing
gener al
b as
Ġ: =
Cur ve
Ġå¦Ĥ æŀľ
__ [
res net
Ġprevious ly
b ca
ps y
ĠIn sert
ĠV ert
men u
ĠDomain Matrix
abcdef ghi
)) ):<
normal izer
medi ately
æ¯ į
f utures
Ġint s
è¯ į
åĽ ł
Ġscal ars
R enderer
Ġs alt
Ġcan vas
Ġfloat s
Ġiter ations
ĠBu ffer
quot es
neum atic
e ction
`` ,<
ha ust
ĠEx t
Ġstruct ures
Ġref lect
[[ _
Ġattemp ted
BY TE
fi es
ab solute
Ġl it
em on
SE SSION
start Line
break s
BUFF ER
Ġp iles
ĠB FS
Ġcur ve
Ġcomp ared
her me
Str ategy
att Power
ìĹ ´
ĠEX T
è·¯ å¾Ħ
Cir cuit
Q T
Ġf requencies
Ġcl one
Ġauto matic
assert Not
ou ses
ne arest
Ġapp lications
Ġsh adow
MP LE
ĠĠĠĠĠĠĠĠĠĠĠĠĠĠĠĠĠĠĠĠĠĠĠĠĠĠĠĠĠĠĠĠ Ġ
dest roy
199 9
ĠPa ir
Ġreache d
åĻ ¨
h ar
mo use
ĠIO Wrapper
cum sum
ĠSetuptools DeprecationWarning
S te
z illa
Ġm t
Ġis subclass
len o
ĠD ynamic
ĠG ame
mis match
trust store
Ġan alysis
ad a
ĠW AR
qui et
Ġnew lines
sign als
ĠCON SOLE
è¿Ļ ä¸ª
æĸĩ ä»¶
th Largest
et c
Ġ{ },
vendor ed
TT INGS
33 7
Ġattemp ts
tod ay
S hape
İ ·
ĠT ake
ĠB ox
BACK END
ç»Ļå®ļ ä¸Ģä¸ª
code gen
kw arg
back bone
sole tes
Check er
ĠÐ½ Ðµ
Ġsen der
C or
path lib
ĠSe lect
( ("
c df
Ġ radi
Ġo cc
Ġ" ?
ĠA I
set ting
Ġdi visible
Re curs
Comp onent
train er
sk top
# -----------------------------------------------------------------------------<
ar ator
Ġid le
av as
Ġë §
æĢ Ŀ
COOK IE
ĠS ave
ow in
ä¸ İ
pri ority
Ġ~~~~~~~~~~~~~~~~~~~~~~ ~<
alindrom ic
Ġitem getter
Ġ ran
it owin
Ġd ropped
emp loyee
ans itowin
ĠQ uestion
' "
Ġco me
Ġprint ed
Ġæ ī
DO T
éĩį å¤į
ION AL
Ġframe work
= ("
G ame
di alog
con struction
ĠH idden
Ġ7 0
Ġreg ression
Ġsing ular
A nswer
integ r
æĥ ħ
v olume
Ġde ci
Ġun iform
** (
ĠSt at
rot ation
ç»ĵ æŀľ
Ġmus l
Ap ply
ĠPet erson
æµ ĭ
e le
list en
ĠH ashes
L IN
P ush
i ate
m n
Ġnumber Of
ĠSet ting
save fig
Ġhost name
Ġsuc ceed
ro oms
Ġ[ {
Ġe mit
element ary
Ġcho sen
å½ĵ åīį
A IL
M ac
h ints
Ġ uri
Ġin voke
Ġe mb
us pic
bu gger
Text Attribute
Ġpredi cate
. /
ë ¬¸
ĠL en
Ġth ough
IN D
ĠDistutils ExecError
tic le
S end
ĠC ho
Ġcon vent
ĠPar am
contain ers
An cestor
Ġdoc utils
izz a
: ')<
> ")<
f A
ĠI ssue
Ġde tection
Ġtime zones
ĠDict Cache
trans action
Ġconv olution
Ġlim its
uspic ious
] ')<
u ght
ĠS UP
Datetime Index
ìľ¼ ë¡ľ
I con
f ancy
Ġl inalg
ĠO F
æĿ Ĥ
Ġcir cle
Ġch anging
Ġurl s
åĪ ¶
upt itle
åŃĹ æ¯į
Ġproduct s
Ġprobab ility
e asy
split ext
Ġleft most
ĠV ari
ref resh
Config Parser
Pre proc
ivers al
lib c
Re ce
14 159
Gener ation
ĠIN ST
Bad Version
Gu ard
^ \
re cogn
ate ver
"], ["
custom er
Default Table
cheb int
èĢ ĥ
Fill ConsoleOutput
avas cript
F etch
S upported
ĠD NS
Ġro uter
ĠW HEEL
Ġinter act
use rid
Ġim mediately
åĨ Ļ
Platform Error
ĠPO ST
L P
de termin
Ġa io
un g
') ]
sql alchemy
ĠSign al
psy copg
Ġpro jection
iter items
ĠEx ec
he mat
all s
ĠRe pr
ĠW S
ms vc
PI PE
Ġopen pyxl
ear u
W OR
m u
ĭ ¤
Ġf resh
Ġin compatible
qu es
Ġgener ally
tt Lib
:`~ .
Ã ¶
sing leton
$ ",
as gi
ĠC PU
Ġpar a
Ð¾ Ð½
æĪ ĸ
medi a
WAR NING
ĠDATE TIME
é ļ
pe ating
In completeRead
we et
Ġjson ify
change s
Ġinsert ed
å¤į æĿĤ
E G
h orizontal
Ġ" `
ĠInteg ral
" ><
Ġnot ation
Ġme et
LE VEL
Ġac curacy
L at
bu ffers
Ġli ve
Ġ-- -
align ed
PLAT FORM
P ow
l ack
Ġst one
ĠR ational
Ġconfig ured
éĽ Ĩ
R ot
h uman
} ",<
ĠT arget
comp ressed
Ġent ity
pan el
ĠTemp orary
Sign ature
ynchron ous
gro uptitle
I dentity
N C
Ð Ł
ë ²
de ps
Ġfor mul
len d
ry ption
åħ ¨
ĠText Type
sens it
ä¹ Ł
dep loyment
O dd
st ock
lo ud
Ġh ouses
ĠW u
"] ])<
Ġcomb ine
Div ision
ĠF oo
ĠM ath
ĠB ody
Ġparent heses
ĠLook upError
Ġplat lib
e led
(" {
Ġpro cesses
Ġdis cord
ob ot
Gener al
(?: [
å½ ķ
Struct ure
C ap
U CT
ro ck
Ġsh lex
char det
ĠRes olution
ĠComp are
Ġmock Attr
man ual
Fore ignKey
Ġf fi
Con f
jug ate
P h
Ġas pect
ys ical
min i
SE S
ĵį ä½ľ
u ro
not her
Ġav g
top ic
ĠToken izer
ĠParser Element
ï¼ī <
Ġentryp oint
g ain
__ ":
ĠS hape
Ġ2 9
pro tected
Ġcontin uous
RC Command
ĠRot ation
8 00
d ark
ch oose
Ġx s
ca pt
initial ized
Ġmedi a
ĠRect angle
Ġ: :
': '
Ġplot ting
å° ĳ
PRO MPT
R el
j ump
in y
ch ive
ĠP o
Ġe tree
lib raries
Pl ace
METHOD S
student s
Ġeas ier
Ġsug gest
Co mpletion
factor s
mus ic
. ],<
> ''
Ġoption ally
æĪ ·
ĠBlock Manager
Ġ ult
Ġ1 20
pre p
AR IO
log its
wa v
width s
c lock
co in
so m
so up
ÂłÂłÂłÂł ÂłÂłÂłÂłÂłÂłÂł
ĠCurrent ly
F ONT
Ġ randint
OR Y
ĠDe que
ĠV AL
imens ion
Ġìŀħ ëł¥
- {
Ġd er
Ġde tail
com ments
Ġ7 2
og rad
AN UM
arm up
éĤ £
æĪĳ ä»¬
Mutable Mapping
ĠMODE LS
J K
Name s
}. {
Screen Buffer
G TH
b rowser
or phic
Ġd n
Ġco deforces
Ġsp atial
Ġrespon s
F Compiler
un defined
ch dir
Ġe le
Ġun iv
if ft
fe as
Ã£ o
P ip
Ġturn s
ĠWin Term
Distutils Error
Interpol ator
Ġi ps
ĠT T
Ġfor eground
app dirs
tr ued
im mutable
ĠCON FIG
Power Of
Ġsupp ressed
Ġtol erance
Ġclo sing
ĠSepar ate
trued iv
( %
g win
Ġc le
ser ves
ĠN AME
Ġj ac
Re quirements
pos itional
font size
` """<
Ġ é¢ĺçĽ®
ra ce
ĠP AT
Path Sum
18 0
d v
t imer
Ġl lama
Ġex pl
Pool Error
Ġtrack ing
ĠAli gn
ĠWu LC
R ank
y ellow
ck pt
ĠC ython
Ġex haust
Ġh ack
ĠR emote
ãģ Ĺ
âķ Ĳ
Ġan aly
row n
ĠAt tribute
e li
re vision
ĠK ernel
stru ment
gree ment
IM AL
åı¯ èĥ½
rp m
c ancel
Ġto day
fi leno
Ġe c
amb ig
Ġback off
sh uffle
ĠApp Config
ĠFloat ing
A E
S afe
l strip
x ff
") ],<
Int Enum
the n
Ġarg v
C ent
a de
s ampler
`` )<
peci es
ĠAr guments
Ġcolor ama
SC EN
render ables
Ġpkg util
ĠExit Stack
' ``.<
d get
h ind
base s
Se cond
Ġedit or
ĠInvalid Header
override s
E ven
Ġro aming
ĠRe verse
sha re
Ġ ys
ĠC y
ĠC or
Ġgo es
ĠC UR
Ġpl aced
201 8
web driver
Ġinstanti ate
bi partite
B T
m arg
In T
ĠColor Triplet
quant um
ĠAp ply
st age
Ġf ar
Ġn args
min us
ĠDe vice
Ġcache s
2013 0101
ANG O
map box
Un able
Ġimp lied
}: {
O US
W IDTH
Ġg over
ĠW ARR
EN CE
Ġhead ing
part ment
ĠInstall ation
ãĥ Ī
ĠWARR ANT
d as
ra ck
ak er
Code point
åĩº çİ°
Style Type
F ollow
` )
h ig
x b
} /{
th ough
list ener
Ġle ave
Ġ9 6
ĠMon th
Ġequ ation
Dig its
b io
s andbox
ĠT EXT
ĠR O
sp herical
ĠMin Stack
quad ratic
rece ive
itect ure
S ec
l on
Ġt aking
Py Test
lower bed
ENT RY
ral y
Retry Error
EXTR AS
å¤įæĿĤ åº¦
ScreenBuffer Info
ain less
Pro perties
ĠPro gress
deep copy
raly tics
C ross
C EPT
[ {
and b
be havior
Dis position
a ctor
n om
t ensors
Ġc riterion
ĠF ull
ÑĢ Ðµ
Ġë ³
desc ribe
J ohn
v it
è¿ ŀ
AND ARD
SC R
force list
ĠCorp oration
çĦ ¶
in a
Re quired
User Warning
Down load
C ES
Ġfor e
Ġl ab
ĠF ix
am il
ne eded
Ġvalid ators
Backend HookCaller
ĠâĶ Ķ
abcdefghi jk
s ay
Ġ0 1
ĠA greement
Ġdi ms
Ġapp dirs
Ġac cessing
db api
Token Type
tick er
ANG U
Ġre produ
ĠS afe
In formation
content types
ĠDis play
J ANGO
ì ĥ
re search
Ġb right
li hood
ä¸ Ķ
ĠJ ava
sy mpify
c art
Ġo ops
ho p
del ay
ĠUse ful
a ro
ass istant
ĠR el
Ð¸ Ð¼
adj ac
ĠWin Color
Ġpotent ial
U AL
Ġc rop
Ġg ray
Ġ/ <
thread s
ĠWh at
8 000
H H
m c
Ġs an
ub ly
ĠBase Database
CR IPT
Ġamb iguous
ĠS plit
Ġg ate
Ġë ¬¸
Ġchunk ed
c am
ma le
Ġpre f
Ġ"" ,<
ĠSt ainless
Ġinit ially
dimens ions
alph as
A nsi
ri er
Ġse g
format stop
ĠA b
Ġpy win
ĠG aussian
ac counts
DE LETE
eval uation
âĢ ĭ
TER MIN
ĠCONTRIBUT ING
ĠMo ve
ND Array
y our
Ġs cl
Ġmultip lication
Ġrel ation
Ġchunk size
Ġapply ing
SCEN ARIO
' \\
b at
Ġ Â
in herit
ur tle
][ ::-
Ġconstruct ed
ĠPol ynomial
clean up
ĠÑ į
BAS IC
b st
Ġp join
__ ``
cl assed
ĠA dapt
Ġun changed
ĠDe lete
Ġhead s
rst uv
bl as
REQUI REMENT
C ell
R outer
T k
s g
al one
ĠM erge
Ġcont roller
sub s
OUT PUT
' (
G S
æ ĵįä½ľ
__ ()
For ward
Ġremove Duplicates
PAT TERN
Ð°ÑĤ ÑĮ
coroutine function
ĠIncremental Decoder
remo ved
Ġn om
ch n
pl ugins
Ġlo s
Ġlook ing
ĠCheck s
E LE
n op
y lim
># #<
Ġal t
join path
has hed
some thing
Ġmime type
V i
Ġe mployee
app ings
Ġrot ated
Ġcoeffici ent
ĠHand le
ĠâĶľ âĶĢâĶĢ
? "<
G DAL
¨ æĦı
Ñ Ķ
Ġc lock
Ġs ampling
Ġse ns
im aru
ast ic
String Array
Ġwant s
ĠTimedelta Array
Wh itespace
Ġco eff
Ġj it
Ġcl ause
Ġ5 7
tri angle
L AB
p in
__ ("
ĠE mail
Ġì ĺ
ĠRequest Field
ĠNamed TemporaryFile
æŁ ¥
ĠCompat ibility
3 11
? [
] },<
b t
} (
Ġannot ation
Ġtri angulation
replace ment
Ġshow s
Ġknow s
Ġactiv ation
} `
Ġh ero
able Diffusion
Ġun defined
10 4
temp erature
å½ ¢
("- ",
Layout HierarchyType
Ġorigin ally
d ating
em ath
bb bb
Ġla unch
ĠAs sert
Sign al
macos x
| <
in voke
Ġa ch
Ġv ary
Ġcheck er
AL LED
short est
Ġconven ience
t an
or ange
ir ing
(( -
sp in
simp lify
" ;
B reak
Ġin cremental
web socket
_ ,<
t ip
x ls
ro gram
== "
ĠP M
ĠP R
Ġde sign
fp n
Ġident ifiers
æŃ ¤
q rstuv
s r
Ã Ń
re pository
Ġin finity
ĠT yp
is SameTree
class property
ĠL ast
Ġco mplement
mo ke
ĠDistutils Error
strict ly
Ð¿ Ð¸Ñģ
HER E
= \
C andidates
co ordinates
ĠF ixed
Ġres olver
Ġpro c
text Tools
ĠWSGI Environment
Ð¾Ð» ÑĮ
æı Ĳ
Ġtear Down
P ress
U V
] /
p ur
é Ķ
Ġ ä¸ª
Ġclass ification
Ġnet loc
S em
t ls
t utorial
re ach
ad s
end point
Ġco lour
35 3
ĠÐ¿ Ð¾
M ML
Comp at
ĠDo es
Ġinsert ion
" },
M M
ç ľ
Ġ quality
ĠC ertificate
file names
SE D
Ġdis crete
ĠX OR
NO WN
200 6
æĢ ģ
S upport
W HEEL
-------- <
ns rc
)) [
Ġ200 2
ĠOpen SCENARIO
An not
car pet
t ight
al ong
Ġd om
ach ine
abcdefghijk lm
* \
k b
re ar
ĠIn finity
ĠIO Error
uck y
! ')<
' d
f ollow
Ġh it
0000 7
FF FE
æł ·
Th ree
1111 1111
ĠProxy Scheme
n r
n v
Ġb roken
Ġ# ##<
ĠÐ °
state ment
aT e
ĠMethod s
G lobal
h f
s paces
Ŀ å§ĭ
on y
ĠA waitable
Ġde c
ail y
ĠWindows Coordinates
Ġph ase
I STR
b ul
al ty
ĠD river
ĠRe f
read lines
ãģ §
15 0
åĢ ĭ
Tok ens
D one
H EL
v m
Ġ .<
Ġc x
ĠU ses
]) -
sy copg
éĢĴ å½Ĵ
e very
Ġp asses
li ve
ĠS NI
Ġof ten
heap q
gra des
Ġrank s
SU B
WR ITE
( ...
IT ER
Ġhow ever
Ġdetect ed
need le
BACK OFF
éĹ® é¢ĺ
qrstuv wxyz
_ [
is ode
Ġper missions
ffi culty
igr ate
Ġimp l
88 59
æĸ¹ æ³ķ
B N
j peg
l hs
ĠR Lock
Ġme asure
mo us
ĠĠĠĠĠĠĠĠĠĠĠĠĠĠĠĠĠĠĠĠĠĠĠĠĠĠĠĠĠĠĠĠ ĠĠĠĠĠĠ
Pass ing
e hicle
test client
Ġ{ %
om an
Ġpl aces
Ġwidth s
s rs
Ġa range
Ġ'' ')<
# ]*
¢ «
Ġreg enerate
Tra versable
Ut il
Ġì¶ ľëł¥
R ule
st rength
Ġmax size
ict ures
MML ab
P ay
Ġ !
Į Ģ
ĠP e
Ġg f
Ġro le
Print er
Ġcard s
ĠEnt ry
ĠRed is
ĠRemoved In
åĮħ åĲ«
D ifficulty
F ree
Ġ ãĢĤ<
Ġ[ [-
Ġ[ {"
Ġon nx
sub classes
lc pr
Ġaut oreset
bbox es
æĮĩ éĴĪ
Ġintrodu ced
N ONE
w ind
Ġ ÑĢÐ°
ĠS to
ĠL inux
ĠQ iskit
Ch annel
tick labels
Ġ'/ '<
resolve lib
' },
A dapt
C V
F ace
F lag
K e
ame l
Ġse ssions
pr ite
sl ashes
Ġrender ing
lip se
Po inter
se gments
ĠB ot
(' '.
Ġread y
CL ASS
rik imaru
ë §
ust ers
ĠPy Py
ĠV ER
Ġshort er
æ² ¡
G IS
N ORM
P op
res ample
Ġextract ed
çİ ¯
L D
m g
Ġdef initions
Ġco vered
Ġ5 5
Ġplot s
Ġ"" :<
les ky
Ġman agement
U Int
i ff
Ġre name
Ġcomp uting
Ġprerequis ites
b fs
Ġ' "
Ġ' :
Ġ4 4
" >
+ (
M enu
Ġmin i
ach er
loc ator
ãĢ Į
LEN GTH
IMP ORT
M edian
P KG
y y
Ġcon verter
Comp are
Ġmeta class
Func Factory
mo ment
ns ample
SE TTINGS
ĠBase Exception
ĠReg ister
æ¡ Ī
Ġd dm
PE G
o ci
Ġp neumatic
ĠU UID
ĠContribut or
Ġn ice
ĠT ho
Ġg round
count ry
Ġap pa
ÑĢ Ñĥ
IP v
éĿ ŀ
f act
f usion
ĠD DM
ãĢ į
Ġ". ".
ĠDistutils PlatformError
Ġmemory view
Ġdescrib ing
NotImplemented Error
! \
D LL
G ood
Z a
c atch
k es
in o
Ġstr ong
Ġ5 6
Ġper mission
group ing
ĠSt atic
={ }<
ĠMark down
éĢ ī
amil ys
or ies
or row
Ġto do
ĠP anel
Ġro oms
play ers
Ġsing leton
full name
C enter
F ast
y outube
ë ŀ
st y
le ading
Ġs ites
res idual
ĠD AT
ĠG rid
gener ation
çĶ¨ æĪ·
DO UT
O ID
Ġres ize
ĠD el
Ġj araco
os ing
Al g
ĠCache Controller
p il
Ġ })<
Ġex ceeded
Wrap ped
A K
Ġx x
ho use
æĿ ¡
adapt ers
Ĳľ ç´¢
abcdefghijklm nop
A UTH
l ator
v ae
st k
Ġdat sp
Ġdid n
Ġnumer ical
y i
Ġe v
ip v
Num s
Ġdisplay ed
ĠÑ Ħ
ISTR Y
Ġappa uthor
Ġt reat
de veloper
Ġf t
Ġsol ved
Pri ce
é¡ º
Ġin c
Ġm ixin
ĠP andas
chain s
sv d
ĠDes ign
Ġsen ding
Ġparame triz
' })<
C ast
_ :
ĠT otal
') ))<
CO ORD
Ġmark down
ĠReg istry
C oder
j ava
ĠS ty
py openssl
file list
ĠU SER
Ġ/ )
d pi
d ropped
Ġt xt
Ġs ieve
ent ific
") ))<
Ġc amera
ĠS TR
ig raph
os x
Ġmat ter
ose conds
Open AI
Run ning
ä¹ ī
SYS CONFIG
I mpl
M ultiple
} }<
an imal
ra ight
ĠH ook
"] ],
Ġinter action
Ġdoc strings
Ġ~~~~~~~~~~~~~~~~~~~~ <
í ĺ
Ġname dtype
Ġget ting
Ġdialect s
ĠPip Session
he atmap
Ġpro per
Ġcount ry
Ġjson schema
ĠPro vides
Link s
á´ ĩ
ench mark
¤ æĸŃ
Ġf ood
Ġ' {}
Ġde corators
ĠE st
cre ation
Ġstat istics
Up load
T rie
an ch
Ġe i
Ġun set
]] ]
ĠCom bine
ten ded
Ġsuccess ful
COM MA
Ca usal
J upyter
ĠV ideo
Ġword Dict
ĠWAR NING
v ices
sub string
arg max
Input s
å¤ Ħ
make file
clar ative
èĢ ħ
abcdefghijklmnop qrstuvwxyz
A ML
Ġb rute
co o
ĠDefault Table
static files
] ][
Ġin structions
ve hicle
Ġsepar ators
" (
b ank
ig ma
ĠÐ ³
AL E
ĠBuild BackendHookCaller
/ ')<
m ml
le et
res olver
Ġ{ (
AC Y
extra ctor
Ġserial izers
á º
or acle
he v
Ġo bs
ab a
(" {}
Ġsup posed
Ġurl un
ear th
Pri vate
>================================ ================
A b
T z
y b
æ ¶
def er
def inition
pe m
Ġ' )
ve cs
ens hi
gn ore
ĠImport s
Ġ{} '.
Ġprodu ces
remain der
Ġrelations hip
aTe X
L ight
b and
append s
Ġbit wise
ĠRecurs ive
æĽ ´
ĠM ore
lex ible
TR AN
gra ms
UM ENT
sig moid
SO UR
Ġadjac ency
N Bit
Ġt rap
ab ling
ĠP DF
Ġ% }<
34 5
elli gent
e uler
ĠT A
Ġv cs
Ġv ocab
Ġ199 6
TX T
Ġult ralytics
Ġ ed
00 3
ĠF raction
Ġbe hind
Ġme t
ĠE l
any array
cent rality
>` _<
TZ Dtype
Est imator
S w
S im
ĠP age
Ġtrans port
lap ack
ĠSer vice
Child ren
Ġmarkup safe
çŃ Ķ
Ġequ ations
Ġ+--------+ ------+<
I AL
c lf
è ¢«
or al
---- ---<
ĠDe precated
ĠBase d
ĠBase Command
ĠFile Cache
Mo ve
Ordered Dict
. :
u c
() ._
pa ced
Ġ4 8
Re verse
LO AT
ĠAuto Tokenizer
ĠÐºÐ»Ð°ÑģÑģ Ð°
µ ¬
é «
de an
ĠC SR
rc nn
Array Validator
ãģ ĭ
="" ,
Vis ible
GetConsole ScreenBufferInfo
M D
x z
à ¹
Ġ orthogonal
as of
ĠN ested
ĠL ight
der iv
CON ST
PRO JECT
åĮ º
TERMIN AL
h r
se ll
ĠOptional Dependency
Ġup dates
Ġ'. '<
Ġretrie ve
BL ACK
Ġeng ines
ct ime
ĠS up
ĠI BM
Ġbase s
Ġsim ulation
h uggingface
s alt
__ "):<
Ġb lob
Ġ" ("
Ġg as
par agraph
Ġk de
if lags
Ġ`` `<
Ġ| |
ĠInter face
Ġyear s
ĠOptionalDependency NotAvailable
F low
å ł
ĠT ABLE
Con structor
ne cess
St ub
Ġtra vel
group ed
connection pool
Common Ancestor
E Y
x i
Ġp aper
ĠB ound
inter cept
Version TypeVar
Ġreason s
lazy classproperty
Codec Info
Ġliteral s
SEC URE
Cho ice
ëı Ħ
I Python
P atch
Ù Ħ
æ º
Ġu json
po logical
ĠĠĠĠĠĠĠĠĠĠĠĠĠĠĠĠ ĠĠĠĠĠĠĠĠĠĠĠĠĠĠĠĠĠĠĠ
Ġsub arrays
Ġoper and
ĠFor ward
ĠSSL Error
Ġquot es
Ġfore ign
$ ')<
P ASS
f uck
s quares
è °
ĠS ame
ĠF OR
ĠCO PY
Ġac cessed
Ġå ®
User s
ĠÐ¾Ð±ÑĬ ÐµÐºÑĤ
> .
R ational
Ġf ine
ĠS uper
(' {
Ġset ter
Match er
Mod ified
sem ble
] **
Ġc ha
Ġinput Name
ĠDe pendency
AS CA
PL ACE
Integer Field
Ġnull able
ASCA DE
H KEY
b alanced
ĠM edium
ord ers
ir c
DE V
reg ular
ific ant
de nsity
ĠS O
Ġnot na
Ġhas n
sub missions
use cols
ÑĤ ÑĮ
Ġalign ed
ìļ °
+-] ?\
P layer
S ing
Ġin coming
em y
ĠE very
ä¸ ī
Ġprefix es
ĠConsole Renderable
Ġsent inel
ĠLen gth
/ _
; ',<
A lice
yp ass
ĠData Loader
S ince
Ġd ll
yp er
Ġme sh
ĠW indow
Ġpyp lot
COD ES
ĠSpecifi c
F l
Â £
Ġin str
Ġl cm
ari adb
eta gs
ĠLo gger
çĶ ±
ÐµÑĤ Ð¾Ð´
Ġprop ag
é« ĺ
F UNCT
P ix
e quiv
i j
q s
Ġr values
max points
32 4
Lo gin
AR CH
Ġì Ħ
\\ .
ilt in
AG ES
erc ion
ucli dean
Ġf amily
th rough
ag ain
ant ics
ĠIncremental Encoder
. )
n ight
ê ²
Ġm mp
ĠT EST
(" [
per missions
Ġ>> =
Ġdescrib e
Ġbra cket
bench mark
M erge
å Ł
ra in
Ġb ul
ĠI mmutable
Ġu i
Con secutive
Ġmin im
åĲ į
ABC D
ĠJSON DecodeError
lin en
Vis itor
ĠConfiguration Error
week day
= (<
I MAGE
ci an
ĠDe termin
Data ArrayValidator
äº º
radi o
Ġmock Win
Ġre named
ext ended
ĠA void
Ġex poses
Ġso ft
Ġsupport ing
ìĿ ¸
Pa cific
Ġsimp lified
consu mption
IDD LE
SCR IPT
Ġc ancel
Ġd ark
is olated
ĠR TF
UR N
spe ech
' %
M B
u json
add itional
Ġso ck
simple filter
ä¹ Ī
c nn
es ian
Ġ' ))<
py f
Co mplex
Ġcall er
Gener ated
å· ²
Ġpredi ctions
" ``
$ ',
I ID
s af
è ¨
Ġt ries
ar ithmetic
Ġan chor
cl er
ĠS P
Ġg arbage
mb ly
Ġback port
Ġap pended
æľ º
fail ure
hemat ical
C lasses
qu it
iz ations
vert ical
ĠDe velopers
ĠÐ Ĵ
my py
Ġmo unt
Ġmod ern
fl ax
go ing
ĠABC Meta
CONT AIN
åİ Ł
ìł ľ
Longest Substring
' )):<
l ated
Ġg ap
ĠO K
head ing
ĠEn coding
Ġfin ish
Ġsli ces
STAT US
ĠRepresent s
E moji
al ter
ol ding
ĠL ive
Ġun signed
Ġtemp dir
Ġac celer
Reg ression
Aut hentication
234 5678
C B
Ġs r
Ġ' [
Ġe g
Ġh its
test utils
led ge
Ġest ab
ĠEnt er
J ar
ĠM ARK
Ġwh atever
") ]
typ ed
Ġtop ic
Ġrecord s
Ġjob s
Zero es
alph anum
] "
b an
c riterion
Ġf e
pro bab
IN DEX
use fixtures
Ġref resh
Ġabs path
suffix es
Ġpr incip
sensit ively
M ANY
ĠP earu
Ġde precate
De bug
TE GER
ĠMon day
Ġrout ine
ĠArgument Parser
Ġpredict ed
M AN
S hell
S OCKS
b ol
g id
Ġ qual
Ġf old
Ġre store
`` :<
cache s
Ġup on
Key word
æĺ İ
FT WARE
å°± æĺ¯
Ġ~~~~~~~~~~~~~~~~~~~~~~ <
å¼Ģ å§ĭ
x n
Ġ questions
ot es
est imator
EX CL
åı ĳ
Can dies
D T
V ENT
Ġ' ?
Array Like
vo ice
Ġtrust ed
ĠAc count
Ġenviron ments
ç ¡
Ġt up
ub y
sub type
Any Callable
An agram
)- (?
l n
n ltk
ë °
all ery
mo vie
Ġimp ossible
Ġweb encodings
REG EX
ĠPyPI RCCommand
' (?
A pi
B ig
L ines
T rees
Ñ Ħ
æ Ĳľç´¢
ine q
Ġpip env
Ġparsed ate
ëĭ Īëĭ¤
ĠElement Tree
Ġlit tle
µ ľ
ra se
ch i
Ġde creasing
ens ity
mask s
Ġprocess or
cip her
ĠRo ot
F requency
ir al
inter p
ĠOpen MMLab
rit ical
bs d
rm tree
Ġendi an
Ĩ Į
Ġt imer
Ġi tr
ing u
Ġch art
Ġcomp utation
la cian
Ġsp inner
Ġgre at
èĩ ª
244 353
c ffi
in clusive
Ġc b
__ ',
un supported
ĠĠĠĠĠĠĠĠ ĉ
ys hev
Ġj upyter
IN IT
ĠCo mplex
Con dition
ĠUn ique
ç» Ń
bl ank
P OL
Ð Ĵ
æ ·
ĠS pecial
(" __
ic ol
ĠB roken
ĠPre tty
ĠPre pared
F n
N aN
Ġp sycopg
as cending
Ġ6 5
Ar mor
ID NAError
Ġskip ped
{} ".
Parse Action
align ment
ĠConnection Error
Ġdebu gger
REG ISTRY
e i
r ink
t c
ur ations
Ġd q
ĠG re
AR B
Ġ201 0
ĠLe etCode
ĠAuto Model
ĠAd ded
b p
c and
Ġp rom
Ġal tered
Ġpro d
width Validator
Ġadapt ed
ĠOut Of
ew els
Ġtrans ition
WORD S
Ġ199 9
Ġìŀ Ī
en di
Ġst able
]) /
)) +
ãģ Ł
Key board
ĠMatrix Symbol
Mem ber
ĠAL PH
3 14
S ys
ot or
set ParseAction
Ġadd resses
MA IN
Context Manager
Ġexec uting
Exec ution
Vis ual
CUR R
assertIs Instance
Rect angle
ĠRemovedIn Django
in crement
__ ):<
Ġmax Area
Ġdo g
tri o
top ics
- ]*
c amera
s pl
y o
__ :
ĠO racle
Re gex
ĠZ IP
ED IT
App Config
IB LE
Vert ex
Ġn atural
is upper
script ors
PR ES
Dis patch
legend grouptitle
ĠST ANDARD
iline ar
exist ing
C lip
I SS
is in
ĠS F
Ġu f
Ġinteg r
No Value
Ġtrun cated
ĠOper ation
> ~~~~~~~~~~~~~~<
G TK
S imilar
sub dtype
") ):<
ĠÐ Ł
Ġ12 7
Ġtri angular
Min imum
short cuts
Ġ36 00
Bu zz
Ġsent ences
Ġear lier
re ferences
Ġ' |
Ġl d
Ġor m
sum ing
work s
pri mary
Ġpair wise
ĠEX TR
ĠPAT H
s ax
me t
ad v
ĠD uration
lic ing
("" )<
Ġf g
ĠB ool
Ġread line
Ġlog its
æķ ¸
200 7
XY Z
at ur
ĠS ET
Ġse em
DE D
ÑĢ Ð¾Ð²
Ð¾Ð ¶
DO WN
S ite
s caled
ar p
Ġs struct
([ ("
Ġun ix
Ġkey board
For Causal
Set s
IL LEGAL
final ized
ìŀ ¥
Ġsen se
ë ¶
ĠS trict
ax e
IC OL
internal s
ĠTest DataFrame
An agrams
aut ore
> '''
C rop
H R
p rom
s win
ħ ¸
ro unded
fig ures
mit ive
ai ro
language s
sen der
Ġassign ment
ãģĦ ãģĦ
Sha re
m igration
set Level
ta iled
Ġmax Sum
cur rency
eval uator
CON SOLE
HTTP Connection
Install ation
Ġspecific ally
Numpy Version
e of
ad am
vi a
Ġsub strings
Pro vide
Par allel
aa a
æĹ ł
ĠRequirement Set
Ġdot env
Ġinherit ance
ĠÂłĠÂł ĠÂł
urlencode d
+ '
S cale
] """<
y axis
æ £
í Ļ
Ġi req
Ġ1 80
Ġcon crete
cont act
') [
AB ASE
Ġcollect ed
Ġbbox es
CONT ENT
Ġdee per
) })<
H ub
d ry
i info
Ġs ampler
Ġpo ssibly
æĮ ī
D ense
M ATCH
å ±Ĥ
ut down
Ġe insum
compile d
Ġport ion
Ġdraw ing
ĠEd ge
M AC
l z
id le
od bc
Ġcon fidence
av or
GL X
cell aneous
4 02
ð Ŀ
Ġc ipher
Ġlo t
Ġhe uristic
Ġat tached
min ute
)) /
Ġexp ire
how to
ĠStream Reader
íķĺ ëĬĶ
ĠInst ead
ForCausal LM
D river
O O
s kew
í Ħ
######## ###<
ĠW HERE
ĠEx pr
Ġfreq s
insert ion
Le af
Ġpop ped
Run ner
Ġlat est
ìļ ©
B ool
i ris
} ]"<
de tach
as pect
lo de
ĠUn known
gn itude
Int rospection
ĠLo ader
feat s
byte code
é¡º åºı
M ust
c ise
Ġd ropout
ri a
un nel
Ġstr ftime
[" _
Ġsy mmetric
RO L
ru it
Ġhyp er
activ ation
Ġsli ding
ĠTestC DF
WOR K
* )
> .<
C alcul
D JANGO
h ref
Ġ/ *
]+ \
Ġweight ed
cc c
SetConsole TextAttribute
L imit
{ \
al lo
en neth
Ġs urface
stri ction
Ġì ľ
Ġconflict ing
Ġinher ited
A MO
Ġt an
Ġb c
ĠI dentity
ĠP layer
De claration
Res olution
He uristic
ĠMax RetryError
Binary Tree
ĠAp proach
caps ulates
Legacy Version
S li
S izes
f its
n py
ĠT akes
ĠM anager
ĠG lobal
Set upError
ãģ ¦
Ġ100 000
Me asurement
dispatch able
Ġassu mes
ĠStr ings
SER T
Ġê° Ĵ
Ġê² ½
Help Formatter
- ',
C ASCADE
W KT
t v
Ġ keyp
er ial
ĠN L
que t
ict ypes
ĠDe bug
Ġspecifi es
ĠPar sed
ffi c
åħ ³
Sum mary
ĠDo c
ĠPoly gon
Ġevict ed
i py
w g
Ġco erce
Ġbe g
im gs
ĠSparse Dtype
Ġoccur rence
Std Handle
- (
_ =
¸ ¸
Ġ vec
Ġif ft
Ġe tag
"< {
Ġle aves
ide os
è¯ ´
ople th
Range Index
quot ed
G re
j araco
m art
Ġc d
ch er
Ġ[ *
el ded
(" *
Ġh ide
im als
LI B
En v
Ġsp creator
æľĢ åĲİ
Ġtt k
bind ings
ìĬ¤ íĬ¸
% %
æ ģ
ł éĻ¤
Ġ* /<
pro cessed
Ġtarget Sum
Ġread able
ï¼Į <
ĠRes olver
solution s
Ġman ifest
POS IT
Ġsaf ely
d it
Ġh is
Ġ` {
") ).
Ġ\ \<
Ġtransform er
aly tics
d w
z ing
ch ool
Ġal g
Ðµ Ð»
Ġline width
Un i
Ġdat apath
>-------- <
8 01
P ick
at ol
Ġs pect
Ġd omin
(" \\
len e
po ssible
Ġdi ameter
comp ilers
Ġwhe never
ãģ ¯
ĠDist ance
Ġedit able
ĠCh ild
network x
NUM BER
Ġformul a
" +
j ake
Ġ= ================================================================
ing er
Ġg libc
pa int
FI L
Tree Walker
ĠCont ains
ãĤ ¹
redu ction
Ġattemp ting
) [::-
â Ĩ
Ġa way
Ġat least
max Depth
Co mplete
ĠJ oin
ãģ ª
Ġstruct ured
Ġperform ing
è´ ¥
ĠCacheControl Adapter
Ġb alanced
graph s
err upt
Ġclean ed
æĢ §
Ġt ensors
Ġ200 7
EL LOW
ĠTemplate DoesNotExist
Runtime Warning
Ġtim m
ĠSeparate Body
Ġ á´
Ar ithmetic
ãģ Į
Ġevent ually
On es
Ġtick s
Ca lendar
lik ely
. ,<
co verage
Ġl hs
Ġtest Init
file type
Ġì ĭľ
Ġì µľ
connect or
sw ig
chor opleth
ç»ĵ çĤ¹
ĠVer ify
k th
w inter
]) [
List ener
Ġpol ys
NetworkX Error
B in
F requent
Ġre cv
Ġ1 50
ĠP osition
read th
bs ite
VER IFY
ĠÑģ Ð»
Jupyter Mixin
R A
i os
=" %
ĠCo uld
font s
ĠHidden Text
ħ¸ ëĵľ
" ]).
J ump
Ġm ul
unt il
ĠK EY
no un
fft n
byte order
Ġsty ler
Ġrespons ible
D G
H our
S top
Ġf ive
ĠO p
De precated
Com bin
Ġpick ling
Ġob stacle
ili ary
Ġinterpre ted
Ori ginal
ĠTraversable Resources
x el
ĠPer mission
lis ion
B ob
S kip
u mptions
ĠF ixture
ĠD M
)) :
Ġ-- -<
åŃ ¦
={ <
onal d
ĠVis it
Ġmechanis m
Art ist
İ· åıĸ
ĠRepr Highlighter
ol ves
args pec
Ġdi alog
Ġhe llo
hentic ated
high lighter
Ġauthor ization
nume xpr
ĠMARK ER
2 14
per mutation
ir th
Ġdo w
EN AME
Ġ12 34
Ġkw ds
serial ized
("/ ")<
ĠAbstract Distribution
ÐµÐ½Ð¸ Ñı
mix ins
BIN ARY
r um
Ġt re
lo pe
Ġpy charm
ĠW rapper
EN G
ĠAn alysis
Ġ---------------------------------------------------------------- ----<
ĠDis patcher
o ct
s un
ro i
Ġco variance
Ġat trib
ĠW i
ÑĤ Ð°
Ġwant ed
ãģĨãģĨ ãģĨ
ĠâĶĶ âĶĢâĶĢ
g ap
h ack
Ġma ga
new doc
vector s
Ġredirect s
Be arer
Ġlin ux
som Note
D ir
S quares
f compiler
s ure
ĠName space
ä¸Ģ æ¬¡
multi index
II II
ESS AGE
ĠQt Gui
å¥ ½
IDDLE WARE
> ~~~~~~~~
a les
ª ¨
re load
at trib
Ġp ending
so ftware
Ġ[' /
foo bar
round trip
åı £
ĠHTTP HeaderDict
aut ograd
Event s
>[ ^\
prop ag
ĠGe o
\ '
d ash
Ġw all
Ġsome how
vers ing
Print s
Over ride
]_ .<
, (
S up
Ġp il
en queue
ĠT ools
ch art
ĠB o
Ġmax i
Ġoptim ized
Ġoccur rences
ĠSocket Error
: "
> ...
g ender
v in
â Ī
cl ause
ĠC at
ĠL aTeX
Ġcon figs
ĠW R
min imize
Ġformat ters
ng roup
Par ameters
åĪ «
ĠWe ight
44 8
ĠNegative Infinity
ĠQuant um
ĠINST ALL
' m
= [-
ap is
æķ Ī
Ġes sent
ä¿ ¡
Ġ~~~~~~~~~~~~~~~~~~~~ ~<
æĢĿ è·¯
mml ab
' ve
d under
s ans
un stack
co vered
Ġco mpleted
Ġ10 9
stra ined
Def ines
Ġperform s
S dist
é ĸ
Ġ Ø
ĠL RU
Config urable
Di rect
Oper ators
ĠOver ride
Recurs ive
Ġc ertifi
Ġs f
~~~~ ~<
und ay
text s
Ðµ Ð¹
wer kzeug
sh ip
Ġ"" ),<
æīĢ ä»¥
æĢ »
dire ctories
Ġê° Ģ
ĠSp inner
fort un
Ġmaga z
} |
¾ åĪ°
æ »
low est
Ġli s
NO TE
__} ({
Ġ(? :
M ath
in cluding
Ġb ank
Ġ3 9
Ġmax iter
CH UNK
ĠCon crete
err no
Ġmodify ing
D ump
lic ate
Ġ6 3
ĠTh us
oc us
V IDE
l ations
Ġis BadVersion
Ġto uch
co mpletions
Ġpy torch
ĠG u
01 2
Ġsign als
gt k
MAP P
de cor
Ġ2 34
ĠI mplements
Ġ3 02
ĠM et
ĠRe itz
ĠPy Torch
sub sets
Example s
err check
Ġmask s
Ġskip na
Ġsepar ately
æĶ ¹
Ġdecomp osition
ico graph
) ()<
Ġ" ."<
un ary
pa ste
sort ing
ĠInt ernal
Al tern
ĠCh ain
PO INTER
expand user
( .*
is olation
co bian
Ġinput Power
Ġdist ingu
Ð° Ð²
ä½ Ĩ
chunk ed
ĠExtra ctor
Ġc riteria
Ġin struction
is alpha
cl a
ĠA nother
ĠL i
Ġu id
ĠR ow
Ġlist en
Output Parser
find all
basic Config
named tuple
ur t
Ġat tach
Ġinput Armor
)) *
mon str
Array s
Ġoriginal s
Ġequal ity
Check s
ĠNum bers
ÑģÑĤ Ð²
clo sing
Cursor Position
me ans
Ġex perimental
init y
ind s
12 1
Ġstack ed
ĠJ an
ĠWh ile
Ġunt uk
ĠTe legram
åĨ µ
Ġspa cing
SCHE ME
Cookie Jar
, ))
i ation
he ns
Ġe m
ĠEx pected
check able
Ġq c
ĠWe ek
Ñĥ Ñİ
Ġaccess ible
Ġscale s
Ġunpack b
Ġweb socket
Ġus ual
åİ »
ĠCallback ManagerFor
t m
t lene
v d
Ã Ħ
ĠS cheme
ile Error
Ġde ng
Valid ation
mplet ely
ê° Ħ
æŃ ¥
Security Warning
4 56
I sl
i red
m ro
Ġb er
ig er
Ġst amp
Ġso und
cre dentials
({ <
MODE LS
C LO
F D
al tern
ĠS ent
port ion
inter active
ĠRequest Error
ĠEmbed dings
winter m
P M
}< /
Ġinput Health
AT IONS
ĠPre fix
rece ived
Timedelta Index
ĠTop ics
ĠMagic Mock
fol io
Cent ral
C alculate
py venv
file post
ĠV S
Ġne ck
exp licit
light s
Reg ressor
Ġpyp a
> `,
a vi
() }
ĠC he
Ġsingle Number
nx t
ĠPlatform Dirs
Ġbi partite
æĬ Ĭ
ĠT k
and o
ca ption
ir y
AS SES
Ġra ce
ĠFast IO
access or
éĺ Ł
Ġmanag ing
æ²¡ æľī
Ġdeng an
M ix
k ernels
ĠD WORD
Ġde tailed
sub module
Ġac cumulate
target s
ĠStream Writer
under line
unpack ed
isom orphic
D TYPES
Ġp added
un et
ĠB L
Ġcon struction
Ġpro vision
Ġconsu mption
s pline
Ġ --------------------------------
Ĥ ¨
ro d
__ `
ĠS cript
Ġex pose
ss pec
Ġpre process
ick s
su ite
Text For
Ġauthor ity
Ġmk dir
sel ves
Ġbel ongs
unic orn
æĥħ åĨµ
ç ¥
Ġf info
un safe
cl amp
ĠL ang
Ġh int
(' ')<
ĠU Int
no st
Set up
ĠAt tention
Qu arter
ĠConvert s
enum s
combin ations
ĠCUR SOR
F LOAT
t re
ct rl
ment ion
(' >>
01 2345678
ĠCo mplete
ĠV AR
Ġoper ate
Ġstream s
Ġ". "
DES CRIPT
C tx
M PY
} _{
Ġp pu
ĠT itle
te ch
ener gy
Ġpl ane
over write
Ġret val
å¼ ķ
Ġ`~ .
W orld
b idden
Ġs caled
li ca
con crete
([ \
Ġlist a
om l
Valid ate
cy an
sl ug
Ġsc ene
ĠST ART
ĠExtension Dtype
Ġsl ash
Ġcau ses
herm ite
Ġc id
Ġf requent
pt er
co ordinate
ĠD raw
ĠB utton
Par sing
hed ron
Ġâ ĨĴ
"^ \
Ġimpro ve
è° ĥ
ĠCOPY ING
å ĳ
il bert
is al
get s
ĠP ower
ĠF ake
Ġ9 5
ĠSet up
ular ity
man ent
>[ <
Ġgover ned
Ġp id
Ġth ro
Ġv owel
Ġun ified
Ġstring End
Ġstring Start
ick ness
RO P
US ERS
Ġoriginal TextFor
Ġassu mptions
Ġtr uth
lag uerre
çĽ¸ åĲĮ
Work er
Ġconvent ion
ro ff
Ġp q
qu o
Ġ4 40
Ġindex ed
ĠSet tings
FA IL
Ġstream reader
create Function
EL S
Ġge om
åŃĲ æłĳ
Ġperm ute
æī¾ åĪ°
ç¼ ĸ
h p
u fft
pe ek
ul ong
Ġex cluded
hand les
Ġfl ash
å¤ ´
ffici ency
ĠDatetime TZDtype
eriv ative
æ Ļ
ĠE poch
74 83
ĠOver flow
fil led
Z one
e quivalent
u funcs
v ol
de coding
al ways
is atty
Ġco urses
ĠIn it
ak y
IC S
Pro gress
pos inf
Ġ9 8
nan o
ome ga
Ġhttp x
title s
Ġcap ital
prox ies
i ri
s quared
Ġe cho
Ġv ideos
ĠĠĠĠĠĠĠĠĠĠĠĠĠĠĠĠ ĠĠĠĠĠĠĠĠĠĠĠĠĠĠĠĠĠĠĠĠĠĠĠ
Ġstream writer
ift s
cast ing
lev Parser
ĠAss ign
# :
M Y
U DE
n max
ĠP ort
et ag
do it
Ġpro to
ag in
Re set
ĠH igh
Ġ% .
No Return
aut henticate
ĠPeriod Array
ĠReg ion
Ġnecess arily
ĠAN Y
cip es
ĠLegacy Windows
Ġincrement alen
ĠBU FSIZE
Ġincremental decoder
Ġincrementalen coder
C ard
l as
y d
query set
ãĥ ³
199 37
activ ate
L A
_ %
v iz
Ġf lowerbed
Ġde not
TH ER
Ġsign ing
Ġshort cut
Ġplay ers
Ð½Ð° Ñĩ
Ġcum ulative
Ġreferen cing
Ġdistingu ish
/ '
1 32
> ')<
T UP
Ġm ouse
Ġde monstr
im ators
form ance
Ġmax Depth
:// ...
Ġne ighbour
ĠCon straint
level name
Ġallow ing
lik es
Inst alled
Ġæı Ĳ
WHITE LIST
Ġmagaz ine
('>> >:
S uper
W ITH
c one
k ing
or em
Ġd an
Ġ' (
sha ker
quant ile
ĠPerform ance
Ste ps
C Y
b ur
o sed
Ġb unch
di ent
Ġ. __
do f
Ġcon d
us hed
Re al
Ġcomp utes
ĠEx ceptions
IC ODE
ĠQ T
Un available
Ġcy cles
Per mutation
Label s
Ġcau sed
ĠExtractor Error
Ġcon ditional
De let
Ġsw aps
calc size
) ])
S heet
f type
() ``,
Ġh mac
ĠM ar
split s
Ġsign ificant
ĠAl ways
Ġlin estyle
combin ation
ĠGEOS Geometry
" ')<
] %
} ')
Ġ čĊ
Ľ å»º
(" .")<
Ġsy mpify
================================ ================
ç» ı
fft freq
App Name
track ing
As k
Ġden ominator
Ġstatic method
èĬĤçĤ¹ çļĦ
Ġfree ze
J ava
l tr
ur u
ĠF ollow
keep dims
ĠCON T
Ġrest ype
FR AME
b el
t les
es cap
ex perimental
th ird
out files
=[ ],
ify Method
Ġmod ulo
Ġhash able
UN C
Ġå ¯
Ġreport ing
ĠSocket Timeout
__ ())<
Ġm v
py datetime
Ġco mpletely
Ġ""" )<
Ġpre trained
Ð¸ Ð½
ĠHTML Parser
Ġcallback s
alloc ated
k m
Ġ' ..
Ex cept
RE MOVE
gener ators
EL F
Ġwrap ping
ĠReg ression
Qt Core
Ġtt Font
Ġvariant s
mak er
RGB A
crimin ator
Ġidle lib
Sec ure
L ite
d ct
o le
am s
ĠB oth
Ġapp lies
End point
ĠStruct ure
fortun ately
c dt
n pt
v an
Ġ ;
me nd
co x
ĠA udio
ure r
Ġr r
Ġz oom
Ġì Ī
So ftware
Parse Results
retrie ve
) }"<
g allery
z h
la unch
åĪ ¤æĸŃ
rank s
respon ses
ĠApp Engine
Group By
lap se
Ġobtain ed
mesh grid
ĠNumpy ExtensionArray
Ġpers ist
012345678 9
isal num
E l
h ide
w en
Ġl p
Ġ5 000
ac led
ĠÐ µ
Version Error
stream s
author ization
Ent ropy
acled b
in Alg
mp f
Ġc itations
ri st
ĠSt udio
Ġì Ĥ¬
Ġå ¤
ĠThere fore
mk dtemp
çŁ ©
TUP LE
M us
g ather
ĠD DL
Ġ: -
Ġar range
ans wers
Ġinstall s
ĠSo up
Head ers
Ġbad ly
Ġalph as
ĠProxyScheme Unsupported
C G
f iler
an o
Ġbe y
Ġ---------------------------------------------------------------- --------
Ð· Ð¾Ð²
ĠDirect ed
. ],
Ġs light
str y
get opt
Ġstream ing
Tra ined
cost s
Change d
Ġdecor ate
ĠUt ilities
DOT ALL
$ \
) [-
F lat
H ard
s rid
v t
§ è¡Į
un install
Ġ' >
od b
Ġdi vided
ĠRe v
size of
ĠDe pth
Ġsend s
Ġfront end
Ġmk path
Ġart ist
monos paced
@ @
D est
T yp
W SGI
m ariadb
Ġf riends
Ġd aily
int rospection
is subdtype
Ġprint er
COL ORS
ĠDi ffe
sk learn
Ġtrun cate
Met rics
Ġs d
add Edge
De termine
err state
ĠDistutils FileError
Constant s
ĠLocation ParseError
ICOL ON
Sdist Filename
= ('
A udio
F ix
N ECT
Â µ
fi ve
Ġco ef
ĠD og
Ġ3 7
UR ITY
="" ):<
Byte Char
Let ters
ĠDB API
Ġbey ond
C at
ĠF lat
(' \\
Ġinter mediate
As sert
ĠLe vel
ĠTextIO Wrapper
ĠCertificate Error
yb rid
7483 64
, [
= (),
G IT
g ge
o pacity
ĠN eed
Ġr f
ĠÐ ¡
Ġser ve
CURR ENT
tlene ck
l g
l ps
Ġre strict
qu bits
ĠÐ »
Ġurl split
UT IL
pri mitives
Ġê µ¬
Categorical Index
ĠNL TK
in en
Ġn bytes
******** ****
æŀ Ħ
ĠÐ² Ñĭ
neg inf
Ġtick et
gre ater
Ġescap ed
le arning
Ġs andbox
ĠC lose
Ġu a
par ray
ĠB lue
Ġcont act
np z
Def inition
ê° ľ
Ġrat ings
COMP AT
Ġmar sh
m igrate
un y
ÑĤ Ðµ
STR UCT
vo cation
pix els
Ġtrip let
ç©º éĹ´
Ġevalu ated
od im
Ġint ranges
di ameter
sc ribe
add Widget
lat ent
Any Validator
real path
writ ing
ĠRet rie
Ġ\\ [
ĠPool Error
Leg end
Ġcare ful
) |
E F
as ctime
Ġm ysql
Ġ" ,<
># ----------------------------------------------------------------
Ġh a
Ġun sorted
gg ers
Ġax s
vid ia
TO ML
ierarch y
Mult iline
e an
Ġl w
Ġg ender
Ġen er
Ġavoid s
Environment Name
Ġrece iver
rins ics
Ġi con
Ġa f
ab b
ic ies
ĠP ix
Ġal loc
ĠIn line
Cont est
fa iled
ire ction
Ġnote book
9999 9999
Aut henticate
earth shaker
C fg
Ġ æĺ¯
Ġf c
Ġp ress
an ion
Ġac counts
lower case
Ġsk image
Ġcalcul ation
Ġcap abilities
Ġconsu med
b ang
Ġ utc
par ty
Pro to
Ġannot ated
PRO CESS
chunk size
]== "
CL ASSES
> +
J ob
P Q
d ri
un ing
() ``<
Ġe at
`` """<
Ġpro tected
Ġch i
32 1
start ing
tra verse
(( (
Ġsp herical
Ġke pt
ĠEXTR A
C SS
Ġ ä¸Ń
ĠN a
In f
ll inux
date util
ME TR
Ġbuild s
imp lied
19 6
Enum er
Extra ct
ĠÐ¼ ÐµÑĤÐ¾Ð´
Su ccess
Ġorient ation
Rece ive
6 00
é ª
Ġp seudo
is Empty
ĠA F
Ġdi ffer
Ġhe nce
lock ed
names paces
Ġ201 4
An imation
Stream Handler
)/ (
C ha
e plit
Ġ= ================
Ġm ass
ul li
len s
Ġg aussian
ĠUn like
ib onacci
ĠCh unk
Ġalign ment
åħ¶ ä¸Ń
Ġmechanis ms
eplit z
h d
p m
t une
å ¢
ar able
ver bosity
plan e
API Wrapper
Ġwrit es
ĠNormal ize
UTIL S
> /<
I FF
ç Ĭ
re et
Ġa head
ĠT oo
ab ly
am mal
per mission
ci dent
ang cha
code d
out liers
base line
10 5
Open Key
Ġ'/ ',
Ġgot s
combin ator
Ġcompli ance
D ialect
H alf
N eg
å ĥ
Ġc abc
ex ports
Ġw ide
ĠR ename
em ulated
Ġhe ss
Ġdata frame
ĠĠĠĠĠĠĠĠĠĠĠĠĠĠĠĠĠĠĠĠĠĠĠĠĠĠĠĠĠĠĠĠ ĠĠĠĠĠĠĠĠ
Ġfin ished
Convert s
nb sp
æµĭ è¯ķ
H ome
p al
Ġ" &
qual name
PE ER
ãģ ¨
Default s
clean ed
ĠCir cle
BLACK LIST
S W
k df
Ġi x
Ġm map
ĠT AR
Ġcomp uter
write able
ĠAdd ress
imens ions
çŁ ¥
? )-(?
M ESSAGE
s f
re ed
Ġ" ..
ul ator
######## #<
cent ly
HTTP S
Ġside s
INE SE
ìĹĲ ìĦľ
VAR I
success ful
UNK NOWN
Access or
' ;
. '''<
í ĸ
for geeks
lic able
Ġmin ute
ĠSt ableDiffusion
platform s
Ġjoin path
Non TTY
ç®Ĺ æ³ķ
Prime Factor
G oogle
W ill
u z
Ã ¼
ol vers
vi ation
Ġpro mpts
Ġtermin ate
ĠRead TimeoutError
sen ce
èµ ·
ĠSim on
çĶŁ æĪĲ
s an
ing re
json schema
leg al
lips is
å®ŀ çİ°
INST ALLED
çĬ ¶
h an
v ary
re ction
an alysis
ut s
Ġb id
is land
Ġse ar
ĠIn formation
Ġsub mit
Ġsub routine
=' ',
item name
be cause
40 96
comm ut
lin a
Ġglob ally
Ġdraw n
Ġ*_ :
Ġdigest s
HEL P
l ar
=" /
Ġget pass
ĠSe cond
ron ym
Ġ\ "{
sh ard
ĠY ield
initial ise
[^ \
hyp er
K L
ĠN T
ĠB ACK
ĠE OF
Ġxml rpc
Prompt Template
F izz
a ug
f pack
r g
v Type
à ¤
å ĵ
Ġ è¿ĶåĽŀ
co d
Ġe ager
Ġst age
__( **
und ant
Ġpl ural
Ġinter change
Ġcontains Duplicate
Ġwrap pers
Ġmp f
Ġsimple json
å®Į æĪĲ
pe er
ĠA G
ĠC alcul
Ġst raight
pre serves
Ġpre fer
sc ra
Ġcount ing
sum m
ĠHTTP Connection
Ġerr check
ä¸į èĥ½
Layer Norm
ĠPos itive
) ]:<
R est
de sktop
Ġre load
ĠS quare
Ġres hape
ĠW ITH
Ġbase line
link er
Mark s
åĨ į
Ġturn ed
detect or
Ġcapt ured
ë³ ´
recogn ized
again st
M ul
W KB
__ _
Ġas s
Ġh ub
version control
Ġhead B
ph ase
Al t
è¿ °
mp math
ra ster
ap in
ĠP I
Ġma il
ow u
Ġman ual
Ġremain s
XX X
EE E
ĠCH INESE
fil tered
ä»£ çłģ
ĠCompatibility Files
ĠDetermin es
er ation
Ġst ub
path sep
Ġy y
sc en
sub directory
inter sect
Ġ8 8
CO LS
LI MIT
âĢ ¦
88 88
Mask edArray
: '
K Frequent
m ic
v l
ĥ Ŀ
de ck
ĠR ule
und ers
ou ght
ref lect
Ġkw arg
can dies
Ġå Ľ
Ġdir url
OS Error
íĦ °
M aint
P ort
p iles
u ity
at ar
ĠS phinx
Ġal gebra
Ġfail ure
comb ined
Ð½Ñĭ Ñħ
erc ise
CRE ATE
ltr alytics
8 11
al ing
co mpleted
list a
Ġans i
ĠCon cat
RE PLACE
use case
Ġzip import
ĠSQL ite
Des ign
Be fore
çĽ´ æİ¥
E nsure
L AP
ot ed
form er
Re ason
sent inel
Ġcolor ed
Ġli angcha
å¤ ĸ
ĠGEOS FuncFactory
geeks forgeeks
Ġliangcha owu
M LE
T ables
ç ķ
al ity
Ġc art
ab out
Ġlo st
sh ader
âĶ ¤
Bu iltin
roll back
æ³ ¨æĦı
ĠHTTPS ConnectionPool
Ġsem antics
SUFFIX ES
W raps
s am
al ig
Ġc pu
Ġl u
ĠD Type
Ġde clared
ĠM ul
ĠH DF
ĠNode s
go v
go al
Ġconstruct ing
OLD ER
V IR
h it
v able
· ¸
re hens
ĠO ur
ĠH O
ER Y
20 48
ĠPer mutation
Message s
ĠApp le
Ġembed ded
interpol ation
ĠMAX N
ĠInst ances
Ġin complete
ot er
ic ip
Ġu funcs
sub sequence
sub stitution
Ġinter faces
Int errupt
Set ting
Pa lette
ĠUnicode DecodeError
ĠTool kit
Ġut ili
orrow ed
j ack
or st
lic ity
AT TR
ES CA
Ġcom mit
Ġsee also
Ġtree builder
Ġ200 4
Ġrepl acing
ESCA PE
ra st
ĠC A
ĠF IR
Ġh ref
Ġg uid
Ġbu ckets
Ġbo otstrap
mod ify
Ġload ers
erge ometric
22 31
similar ity
pie ce
åĥ ı
ĠS apin
ab iflags
(" #
ari a
Ar chive
face book
SSL Error
Ġsw apped
Ġí ĺ
Ġspa cy
ĠRich Renderable
A VE
M achine
T ODO
d ns
o ice
ĠC alled
ĠD iv
Ġun used
ren d
Base Command
LO B
Ġtrans formed
exec ution
allow s
Ġlongest Common
Ġcorrespon d
Ġcontrol s
cheb val
olid ay
ĠSUP PORTED
feas ible
çŃĶ æ¡Ī
s rf
w ave
Ġs aving
ri eval
co pes
ĠM UST
scri ptions
ĠRaise d
Ġgra de
STY LES
ĠWARRANT Y
âĢĭ âĢĭ
? ?
[ ]<
] ;
s ider
t im
re served
ar ct
ĠA ffine
** :
ĠIn herit
Ġnext Line
äº Ľ
Pos itive
ĠâĢ ĺ
Ġë¬¸ ìŀĲ
) !=
F ront
J U
t ex
u an
Ġc mp
ĠS upported
Ġnum Courses
ĠD rop
ĠO ct
Sub missions
ched ule
Ġmon itor
Ġla wan
Ġeffect ive
weak ref
Ġear ly
. ),
t ml
al an
Ġp c
Ġn v
Ġis PowerOf
ĠS te
Ġe ver
Ġr t
im s
new axis
ĠOrdered Set
Ġnan oseconds
Ġbacktrack ing
Ġener gy
a iter
b log
Ġp x
ing Error
ex ponent
py p
ĠL E
to bytes
ator y
ĠB ASE
RE E
99 8
ĠInvalid SdistFilename
skip Unless
ç¬¬ ä¸Ģä¸ª
ĠCH AR
Ġwild card
ë² Ī
1 34
R T
Ð ¡
id i
ĠU ltralytics
Ġpa inter
Ġhead A
ĠFile Path
ud y
ĠAsync Iterator
c red
h its
l ora
ļ ¡
in sensitively
Ġt ck
ĠA SGI
ĠO N
10 9
start ed
]] ),
Ð¸ Ñĩ
ĠInvalid Codepoint
åĩ »
ASE TS
gi ref
ĠStart ing
ä¼ ĺ
Json Schema
CONTAIN ERS
Ġin clusion
ap pe
ĠC lasses
po ssibly
(' #
Ex ists
dis abled
datetime like
ä¸ª æķ°
Ġstri ps
rot li
ĠQu ick
Ġwidget s
Imp ossible
ĠJava Script
r atch
â Ĥ
me l
Ġo mitted
Ġm er
Ġ- (
ul abel
pre ferred
read able
AT ES
Ġsub modules
dist inct
12 52
EX EC
factor ize
ĠSub class
ĠPlatform DirsABC
ä¸į åĲĮ
Ġdebug py
CM D
MPT Y
Pay load
py c
et ing
Ġco okies
]) +
En codeError
Ġrot ations
77 7
VALID ATORS
bas is
ĠDependency Warning
T IC
d uplicated
me try
co ders
and oc
pre f
pre processor
Ġpy py
ĠW inter
poly val
INTER PRE
çº ¿
Ġslight ly
> ``.<
W INDOWS
X L
Ġw x
Ġsee k
ĠCol umns
Class ification
ĠInitial ise
tern ary
Agg regate
ĠPri vate
asse ng
ENG INE
an i
Ġb ro
]< =
et ime
ĠM ET
ĠB B
Ġj np
url split
print able
Ġ"" )
Ġcor r
TER M
Ġcorrespon ds
' #
B F
b us
f lo
Ã º
up cast
Ġv ol
Ġun safe
peci ally
Ġdb c
Spe ed
ĠNUM BER
æģ ¯
D ynamic
n bytes
ç ³
è ±
ë į
ì ĨĮ
Ġf lake
lo om
Ġor ange
Test ing
Ġdis p
dis crete
table name
Ġreverse List
Ob soletes
Maint ainer
) $
T UAL
z ag
pe fully
Ġis Anagram
ĠA ction
Ġst mt
Ġpre pend
Ġnode list
bu gs
att is
blue print
Ġë° ©
Ð¸ÑĤ Ðµ
alphanum s
A tom
Y Y
Y ear
g auss
s ince
ç ª
ur a
ra dd
Ġthe fuck
Ġ( ~
ent a
pro totypes
ance stry
bo otstrap
dist ances
lif etime
Ġë ¦¬
Ġtrain er
36 5
Dis patcher
Ġquot ient
predi ctions
Ŀå§ĭ åĮĸ
) !
] ``
a el
es sel
ĠI gnore
add Handler
cor der
ĠComp iler
IG H
Ġtensor flow
Ġí ģ
Ġmeta var
Ġpow ers
å¿ ħ
Ġcr ash
æ¶ Ī
z on
ĠS ans
Ġun parsed
Ġapp licable
post order
medi um
ĠDate Time
Ġdev ices
r ates
ame nt
Ġ( .
Ġis o
Ġde ps
ĠM em
Re port
ST D
LE X
ĠY ear
'] ))<
Ġ(' ',
Ġæ ĸ
custom ers
>-------- --<
DOC UMENT
ony mous
pyp irc
L ANGU
d ps
Ġp ts
ĠC a
ĠI mp
ĠP illow
ĠIn clude
Ġuse cols
Ġpo se
Ġreq s
clip board
Pl an
Ġreport ed
Sh ift
>================================ ========
Ġeas ily
Ġê²½ ìļ°
://... ``)<
s uggest
£ ¼
á µ
ĠP ress
Ġde notes
comp ose
tick formatstop
Ġ"% (
Ut ils
alg os
è®¾ ç½®
GROUP ING
" '.
G ENER
W ay
` -
x FF
Â »
Ġp b
for d
mo b
Ġsy mlink
datetime s
Ñĥ ÑĤ
lc m
ABC DEF
Pool Executor
ä¸į æĺ¯
Ġtrip le
p aper
è ī
le mb
ct s
ab orn
Ġint ent
ĠR est
ff ee
mo zilla
ĠW KT
AT TRIBUT
not ify
Ġcount ed
") ],
Ð° Ðº
Ġsk ill
è§ Ħ
HT MLE
Ġ------------------------------------------------ --------<
BAS ENAME
Ġaio http
s amp
re cv
Ġd uplicated
Ġ" )]<
tr s
Ġver bosity
ä¸ĭ æłĩ
Ġfib onacci
zer odim
ĠStat us
Division Error
REPLACE MENTS
or i
re train
li fe
ĠS uspicious
ĠL ongest
Ġv olume
ĠDe corator
çļĦ åħĥç´ł
Ġmo vie
20 6
My SQL
Hash able
ĠPa rent
Ġxy z
>############################################################################# ##<
çĦ¶ åĲİ
M ar
N T
Ġf riend
Ġf lexible
ass umptions
() ["
ĠO mega
ĠG PT
Ġ7 8
ribution s
call er
ĠCallable Operator
ĠAl tern
ĠID ENTIFIER
Ġmon key
åĬ ¡
tar ball
ĠRun nable
k attis
at ched
Ġt l
ĠN atural
Ġde cision
em ap
(' .')<
Ġfind s
Ġ... ]:<
transform ation
Ġë ²
real file
bose Logger
ĠIS O
sig ns
Ġsatis fies
Ġconsu me
C lean
m r
se ter
re ward
Ġa ware
Ġin sensitive
ame file
tri es
Ġ[' -
Ġbase string
new s
Ġremo ves
Ġâ İ
ÑĢÐ° Ð¼
baz file
Ġ~~~~~~~~~~~~~~~~~~~~~~~~ <
Ø§ Ø
ĠFunc Data
çľ ĭ
gge red
VIR TUAL
J I
J ust
L V
b roken
Ġp ractice
ĠN B
De legate
Cont our
ĠFor ce
Ġreason able
ĠCO ORD
Protocol Error
Ð¾Ð» Ð¶
Close st
spin ners
Ġf inite
Ġb az
ĠS trip
Ġcon versation
Ġ7 6
Ġexec utor
ENS ION
Ġwarn s
>-------- -<
Ġmach inery
Ġinterpre t
NE W
Ġclimb Stairs
W ays
Ġex ponent
rid x
Ġdis cu
ong double
Ġmap per
IL ITY
ĠCode Type
cos ine
åĿ Ĺ
ĠLOG GER
çļĦ æķ°
cy gwin
From File
Ġden om
Ġalph anum
Wait For
) ``.<
W ritten
p unctuation
re ply
er red
Ġan n
el come
ĠC C
ag ename
ĠAr t
ä½ ĵ
DF S
jk stra
æĶ ¾
Ð¸ÑĤ ÑĮ
Except Self
b et
c id
Ġi e
ur ser
li ant
di mage
ĠD raft
ca lendar
Ġ4 27
item ap
rc all
ĠTest ing
Ġfind Min
ph an
over lapping
ĠCont est
annot ated
Ġsafe Eval
Ġweb driver
ĠHe ap
HO ME
Auto Field
bg color
Ġstand alone
D imensions
I mg
Ġs lots
cl usters
ĠP ascal
Ð¸ Ðº
Ġ[[ [
Ġtri vial
Info Extractor
Ġdomain s
Ġcos ine
delet ed
INTERPRE TER
B ind
Ġw ish
Ġos crypto
Ġdist s
pack agename
Ġfind Max
TH E
Image Plugin
Ġpoly gon
ĠâĢ ľ
æı ı
ĠNull Handler
åł Ĩ
t iny
de ad
ĠP OS
ĠB atch
Ġr l
Ġal most
com ma
[: ])<
fa iss
Ġremo val
Ġca ption
æī §è¡Į
Size Validator
Ġ"/ "
lit tle
ĠAccept ed
Ġrecur se
alig nsrc
urser y
] ",<
re me
de clared
ro aming
Ġd ns
ĠM iddleware
Ġy es
ac cumulate
tri angulation
"] ]
Ġtrim med
udo ku
ĠSize Validator
Ġå° Ĩ
S patial
d ue
i able
w x
re structured
ĠS w
ĠL imit
(" +
comp uted
Base LayoutHierarchyType
ĠTest Series
Ġout files
FI LES
ESS ION
Sh adow
ĠPY THON
èĢ Į
" ',
* ',
""" ,<
Ġ( ))<
ht ext
ss ql
Ġen force
Ġcomp ilers
mit ian
Ġtri angles
trans ition
ĠVersion Control
Ġob servation
Ġrm tree
M icrosoft
Ġ( *
ĠF in
Ġtime step
Ġì ¤
An imal
ĠNum eric
Ġsubstitution s
restructured text
G aussian
P seudo
_ ):<
g as
ļ Ģ
st mt
le ave
Ġre ward
Ġs al
Ġde t
Ġ3 8
In v
index ers
ER O
ER IC
For warded
Ġent ities
HTMLE lements
B ra
on ed
Ġn est
Ġis coroutinefunction
Ġth row
ĠB box
Ġcon form
Lo c
ins ide
åħ ±
Ġkeep dim
ĠOri gin
necess ary
. ]])<
7 29
T imer
e E
k top
} ")
se ctions
ĠD ay
bu ckets
min Heap
100 000
hash able
ĠDistutils SetupError
Callback Handler
ĠHand ler
ĠSH A
ĠlengthOf LongestSubstring
' (\
F ixture
Ġmax imal
iter ation
Ġvari ance
ĠText File
Ġë ħ¸ëĵľ
Th an
Tool bar
ä¾ĭ å¦Ĥ
gre SQL
çĽ® æłĩ
Sing leton
. '
P open
_ *
st one
Ġc py
Ġn il
Ġw atch
is a
ch mod
ĠS ieve
Ġh ar
ac er
Ġ6 1
Ġ6 6
Ġwin ner
ĠĠĠĠĠĠĠĠĠĠĠĠ čĊ
ìĿ Į
Ġ"{ {
ĠWSGI Application
bind ing
IGN ORE
Ġmis match
#]* ))?
g le
w kt
Ġ" ^
ĠP ush
ĠR T
Ġoper ating
ĠJ inja
åĪ łéĻ¤
Sub arrays
Ġreport s
Ġ'* '
ĠJson Schema
Quant ity
ĠPack er
Ġach ieve
+ [
b on
m apped
ri f
um bn
co w
Ġl n
Ð¼ Ð°
Ġcap able
sk ill
Ġgu ard
je ctions
="" <
çī ¹
in formation
Ġt ile
str g
ĠC UDA
Ġtime steps
dis card
Ġtri ck
Color Tuple
JSON DecodeError
Ġquot ation
ĠÑĩ Ð¸Ñģ
G PT
k o
Ã ł
at tach
Ġn gettext
Ġs rs
up ied
Ġde ad
Ġbe ha
IO Error
ĠAuto matically
itu ations
combin ing
Ġf lo
int elligent
ĠT urn
class ifier
() ],
ĠD emo
ver ses
data structures
Ġsub module
]] ):<
open gl
ĠĠĠĠĠĠĠĠĠĠĠĠĠĠĠĠĠĠĠĠĠĠĠĠĠĠĠĠĠĠĠĠ ĠĠĠĠ
çĶ¨ äºİ
Ġsc roll
AP PS
Ġbyte code
Cir cular
ĠConnect TimeoutError
Vari ant
PASS WORD
H appy
O ES
s mooth
Ġs at
Ġd ri
(" >
cond itional
pk gs
Ġë³ Ģ
m ass
in str
Ġb ubble
ser ving
ĠF ancy
Ġ` (
back ed
Ġser vers
25 0
rag ged
Gener ates
Ġfall s
Ġretrie ved
b rand
n ist
un signed
ĠA ST
am i
`` )
ĠB O
Ġsub type
De que
vent ory
Ġfind K
TT X
Ġjust ify
Ġview er
PAR ENT
ĠTemplate SyntaxError
xls x
> ".
h h
n logn
st ac
Ġg enshi
gu ard
Py PI
Ġcustom ers
Ġæ ¯
Ġdep loy
Lock ed
Ð½Ñĭ Ðµ
Ġpr d
LEG ACY
ĠLRU Cache
] `
Ġ ~~~~~~~~
ĠS can
Ġnot es
Ġde ck
ss rcValidator
ĠString Builder
Ġë ķĮ
ĠAt tempt
Ġcustom ize
att le
Whe ther
Ġconcat enate
Pe ak
ĠVert ical
ĠRev Options
C oin
G reen
H ex
{ <
ĠM ult
Ġpro g
Ġno cover
çļĦ æľĢå¤§
gram mar
ock s
ĠABC Series
ĠParse Float
aps ule
Ġsl ug
ìł ķ
Ã§ Ã£o
M a
Ġf ac
ĠC OL
ĠF FT
Ġlo cs
ac curacy
################ ############
Ġsome one
ĠPath Like
trans fer
è¯ Ń
íķ ł
ĠCre ates
Mis match
analy se
. ',
G en
M IDDLEWARE
S cal
k ill
s ieve
de e
ĠS I
Ġe mitted
po kemon
code point
ĠK enneth
PI D
File System
ĠPro file
To One
ĠDefault Dict
Ġlongest Palindrome
Ġpartic ip
ĠFIR ST
) },
D en
pe st
ĠI F
][ :
Ġcomp aring
cket fft
ĠAn imal
Bu ffered
ĠRange s
Cre dentials
Ġdetermin ing
CLI P
Met ric
å¤Ħ çĲĨ
" ``.<
E mployee
n vidia
Â º
de cl
Ġst ick
Ġ4 3
UT O
Ġcent rality
ivers ity
HASH ES
è± ¡
S ave
ig zag
Ġr ational
file system
Ġj s
sing ular
Ġdf lt
") ["
Ġexp ansion
Ġper fect
down loads
ĠBy te
Def ect
ĠFormat Control
mock ATW
On ce
ê³ ¼
o cc
Ġas suming
is able
di visor
end ers
Ġg ym
data classes
HTTP Response
("- ")<
ĠWheel Distribution
Ġ~~~~~~~~~~~~~~~~~~~~~~~~ ~<
WW W
Overflow Error
S to
e ig
â ģ
Ġ ä½¿çĶ¨
Ġdef ects
ĠL I
Ġclass name
Dist libException
post s
OK S
conf li
tern al
ByteChar Set
J oin
T A
U ATION
j n
lo bj
con jugate
pre fer
ho les
ĠIn str
ĠIn secure
ak ed
Py Py
\\ \
IG IN
åģ ļ
ë³ µ
" (?:
F our
u ent
æ °
an as
Ġd ro
ĠL lama
ĠG er
St andard
Index er
Ġend points
Ġsh ip
view er
ru its
Ñĥ Ð½
è¯ ģ
Ġlex icograph
Ġmulti index
Process Error
Ġprincip le
ĠBlue print
É ´
Ġin i
ĠP op
app author
Ġ4 9
Ð¾ ÑģÑĤ
]] ]:<
]+ ',
HE IGHT
Ġ'- '
ĠExp licit
I dent
L ab
s nake
Ġc ffi
ĠS mall
py tz
Ġz f
Ġ6 2
"] ),
Res ize
Ġdis joint
ĠDo uble
Item s
ĠLook up
Named Type
TTX Converter
ext int
ft p
=" \
ĠType Guard
Ġcontext s
ong o
Sub process
ĠÐ´ Ð¾Ð»Ð¶
Ġmk dtemp
GH I
) [:
F req
h mac
ur bo
ho u
Ġ5 03
cs in
ï¼ Ł
process ors
Ġë ¹
Inter preter
QU ENCE
DS A
mac ros
éģ ĵ
capital ize
EDIT ABLE
Ġb z
Ġis sparse
Ġro unded
Ġ% %<
print er
Ġsub command
pop ulation
åı į
freq s
ĠDi ff
contest s
fin ish
ĠðŁ ļĢ
DAT ABASE
! ",
+ \
c is
p ager
ì Ļ
Ġs phinx
ĠP ep
Ġk ernels
Ġcont raction
ĠU pd
col lector
ĠH o
Ġ5 4
vert s
Ġqu ite
åħ ¸
Ġkeep ing
specifi ed
CT RL
Ġspe ll
ĠSSL Transport
ident ical
pair wise
? ",
G G
P ACE
m otion
z ier
è Ĥ
str ategies
ĠC lear
min Stack
ĠSet Console
En abled
Num Py
aps ack
Ġemp loyees
Indi ces
C N
F lags
W IN
± °
ì ¤
__ .<
ch op
ĠS CHE
ĠF ORM
ĠU rl
Ġpre par
Ġat omic
Ð¸ Ð¹
Tra cer
Request Error
Ġtrans actions
ĠComp ileError
Ġcs graph
ĠPackage Index
Ġeffect s
('/ ')<
Ġentire ly
Concat enate
] ":<
c utoff
g ol
r ature
¹ ĺ
() "<
ta ken
Ġì §
bit wise
Ġinteg rate
ĠSy ntax
COM M
indent ation
Ġsm art
H i
v x
Ġy b
ĠG tk
da mage
tri angular
AS Y
ÐµÐ½ ÑĤ
ount ain
Ġactiv ate
asse mbly
M id
z ily
Ġ quiet
Ġa ctor
Ġl t
ĠM enu
ast e
Ġinter cept
Al ter
Rout e
T AG
_ ()<
m os
un link
un named
Ġ# ################################
ic les
ĠM or
In dent
append left
mb ing
ĠY AML
CO S
Version Control
Get StdHandle
Image FromFile
ĠRE QU
BR ACK
} >"<
ì ĭ
Ġs bi
Ġm im
get Min
ĠF IL
ĠH over
fun nel
ĠDe cor
Ġyield s
Ġtri ed
Ġpie ces
Pip Error
. ]+
D ropout
N th
a ur
"" .
Ġco ord
ĠG UI
Ġ5 9
Ġstart Line
Ġdis allow
UL ES
ĠWe ak
ee f
Num eric
MO JI
ĠDis content
From Page
1234 56
Ġ"{ %
C P
T ABLE
c ot
c us
¹ éħį
ar ity
Ġn r
Ġin degree
ul p
pre pared
~~~~ <
Ġ7 7
sp ider
Serial ized
Ġbrowser s
$ "):<
P UNCT
j un
u di
ol ving
ĠP open
ĠIn verse
stant iate
Ġcor ners
Ġsp here
Ġsc atter
ĠPeriod Dtype
ĠBinary Tree
Ġang les
è½ ½
éĺ µ
Integ ral
Parsing Error
' ")<
1 12
N ET
S olved
e os
n atural
o y
Ġs z
Ġ' ',<
00 02
time step
ĠPy OpenSSL
Co ord
Ġsome where
ref lection
Ġmultip lier
Hand les
tick font
ĠNum Array
Qt Widgets
trip let
ĠOpt imize
Ġmajority Element
) (\
S OC
Ġis om
ĠR ound
Ġk n
Ġmax x
bu dget
cur rence
Ġexp ress
work ing
ĠIN TEGER
pick led
effect s
Ġcombination Sum
) "),<
æ ®
** -
ĠH uman
vis ors
Ġover lapping
ĠInt Enum
Ġsearch ing
ĠLo op
bl it
ĠConfig ure
Des ktop
annot ate
Tool Run
ê° Ĵ
ĠAbstract Provider
Ġast ype
ĠContext Manager
Ġclip board
x ticks
Ġd ilation
Ġw ins
() (
Ġu gly
Ġar c
if acts
comp any
ST DOUT
ĠBase Tool
ĠQt Core
Ġroll ing
inite Set
note book
nth ropic
Ġweek day
Ke ys
Y O
Ã Ĺ
é »
Ġf ancy
Ġw alker
ĠS end
ĠL at
ĠP atch
Ġl and
Ġch allenge
IC ATION
Ġrun py
TO P
radi ents
Ġpost gres
Ġ<< =
Ġ---------------- -----<
assign ed
ane li
constructor s
Ġsilent ly
Fin ish
LIN ES
ĠFloating Array
h aystack
ë ¯
mp eg
ri cks
ĠT aneli
ul ating
Ġas giref
Ġar m
ĠR ad
fo x
ĠH ukk
back ports
Ġauto class
Ġæ Ĺ
Two Lists
ĠBoolean Array
Ġsucceed s
ĠDirected Graph
ĠHukk inen
> -------<
D on
\ )
Ġ ht
Ġc func
int erest
per mutations
Ġun like
ĠDe ean
Ð° ÑĢ
}, {
Ġdirect ives
Param Spec
éĢļ è¿ĩ
çŁ© éĺµ
r ational
Ġ= ==
Ġf type
ot t
ĠN X
Ġinter p
doc strings
Al low
poly gon
ĠMy Queue
åĽ ´
rel ations
Ġsa id
ume xp
Pri v
dest ination
ĠMask edArray
O W
d mp
h orse
p ct
co pies
ĠF F
Ġobject ive
ST ATE
EX CEPT
Ġmod ification
decode d
ĠLe etcode
ãģĻ ãĤĭ
ëŀ ĺ
FIL TER
m ir
n am
w ild
Ġ" )))<
am main
In voke
ĠG radient
ern et
we ather
move To
ĠPro gram
Ġpost fix
ĠUnsupported Operation
<< <<
DEC IMAL
èī ²
1 33
st a
Ġs mooth
Ġas ynchronous
ĠS pecify
ĠP ick
Ġcon cept
info s
Ġtemp d
Sub plot
Ġ'. '.
EL L
ĠID s
Ġaccess or
gl gets
MARK ERS
åįķ è¯į
Lat in
] ")
pl ate
Ġx i
ĠB ra
ĠB rowser
comp utation
AL S
Ġ\ (
arg min
Ġspace Characters
ĠDE LETE
Link ed
fail s
sk i
Iterable View
ĠRandom ized
/ *
C nt
C Python
n rows
lf w
Ġs ituations
ĠA gg
Ġma ze
Ġmin Cost
Ġ---- <
trust ed
Connect TimeoutError
Ġ========= ==<
è¶ ³
Ġë¦¬ ìĬ¤íĬ¸
g ens
p ending
r dt
ì ĭľ
Ġd ct
Ġse ats
im Array
OR IGIN
ĠDe codeError
stack overflow
has GL
Ġaut henticate
Opt im
delet ion
G ot
b tn
ç ħ
Ġf avor
ci b
]) ),<
UN ICODE
Ð» Ñİ
ĠAl ready
ĠTra versal
Ġ---------------------------------------------------------------- ----------------
ç»Ļ ä½ł
>############################################################################# ###<
ĠSu bject
Ġgl Init
hasGL Extension
T AGS
] ')
ri val
ĠT R
ad or
ern ion
da ily
Ġdiff ers
circ ular
numer ictypes
ĠProgress Bar
N ormalized
V ision
n ans
w right
Ġ2 50
Ġst ale
ip ment
pro vides
te ar
Re pr
Ġpa int
ĠBase Loader
Ġë į
velo pe
erm ite
Ġshift ed
ĠÐ¾ ÑĤ
ae iou
abstract property
percent ile
Ŀ ¼
lf low
Ġs g
ĠT imer
Ġh amming
vi es
Ġk i
Le etcode
ivariate Spline
Ġdelay ed
ç¡ ®
stac les
s he
Ġm l
un register
Ġ[ _
ist ency
Ġg lyphs
ĠR ET
Ġget Min
Ġ5 2
10 2
Ġcolle ctor
ml p
"] })<
Ġsome times
ĠKey board
replace ments
ĠUser s
ìŀ ¬
CONT ROL
Ġbind ings
GetConsole Mode
Ġomega conf
Ansi ToWin
inAlg Error
de bugger
co mpleter
Ġ0 2
am bert
ĠO PT
ĠR out
set flags
Ġpre ference
prefix es
Ġtri ggered
ru ck
embed s
ĠÐ¸ Ð·
ĠProxy Error
Ġrecent ly
numer ator
STY LE
ĠEXT ENSION
( (<
/ )<
C apsule
Ġs nake
ĠL INE
Ġmax SubArray
ĠW KB
Ġne ar
mis matched
Tra iner
Mark down
SUP PORT
å¸ ¸
Ġbel ong
Ġmoment um
Overflow Method
A ng
Į ĥ
Ġn u
Ġn w
ex ponential
ĠS pe
con secutive
Ġcont ributed
ern o
iter keys
AR G
reg entry
ĠUnion Find
close st
29 4
Ġsuffix es
Ġus able
COMP R
Ġlat ent
ALI Z
"[ {
,)) *.
Ġre search
as sets
ĠC our
Ġstr ategies
Ġl dm
pl ays
Ġpy rogram
Ġå Ĭ
ĠData Source
æŀ Ĳ
ĠAuth Info
Predi ctor
rece iver
] ``.<
ê ¹
al bum
Ġget regentry
Ġab ort
Ġë ĭ¤
Ġeng lish
capt ure
or arily
an other
ĠD ense
Ġkey ring
Ġsub tra
Ġmin us
Ġsh im
lp ha
EP S
fft shift
sql parse
View Middleware
FO UND
36 0
++ ++
Ġindic ated
á´ Ľ
Ġtrun c
Render Result
Ġrecogn ized
3 75
: ]))<
c it
j p
u zz
É ª
Ġ è¿Ļ
py Datetime
ĠF eed
cont ract
ĠE uler
run Tests
Field Info
Ġrepl aces
free ze
Ġunders cores
ĠToo Many
pyDatetime Unit
B eta
L ive
f all
ab ets
Ġlist ing
fix es
Se par
Console Error
Ġast ero
å¹ ³
ĠOR M
ĀĀĀĀĀĀĀĀĀĀĀĀĀĀĀĀ ĀĀĀĀĀĀĀĀĀĀĀĀĀĀĀĀ
åĽł ä¸º
3 01
C LS
F eed
k p
ë Ĥĺ
re peated
ro gate
Ġn ic
Ġs ink
def late
ĠS N
co uld
Ġ5 1
Ġnew Interval
Ġ6 00
") }<
To BST
LI ED
oid s
Iter ate
{} '.
ĠIN PUT
ä¿ ®
ĠPerformance Warning
> .+
ĠC atch
Ġ4 05
ĠÐ ŀ
Ġtemp eratures
dis p
To Fixed
fn match
Ġob serv
255 19
ĠWin Style
ĠðŁļĢ ,
X t
h am
an imation
Ġ[ (-
ĠM a
Ġ4 04
min s
Ġno se
cre ts
PE D
Ġ/ ,
Ġ200 3
face color
be red
200 3
Ġop inion
Ġdat at
PRE F
amily Validator
Ġarch itecture
assertIs None
Ġjump s
ĠBackend Unavailable
Ġ`- '
umbn ail
E ffect
s z
Ġs q
ĠT w
Ġal ter
comp uter
ne ighbour
open id
Text IO
Ð» Ð¾
Ġlike lihood
Ġ10000 00007
Callback ManagerFor
________________________________ ________________________________
ol a
um ask
ĠM akes
win reg
PR ESS
HTTP HeaderDict
Ġ~~~~~~~~~~~~~~~~ ~~<
Ġman ner
Ġ"- ",
á´ ı
+) ?
ĠFound Candidates
alph abet
Connect ed
Eval uator
Ġran somNote
irection al
æıı è¿°
x a
Ã Ĭ
at io
ĠU I
cs graph
Ġne ither
Ð¸ Ð²
Se ction
Ġreg istration
Ġte chn
ä½ ķ
Ġloc ally
NI X
SU CCESS
Ġeps ilon
Package Finder
ĠKe ys
Ġcomm un
CRE AT
what wg
C losed
re order
un iv
Ġ' ['
ĠS E
ĠA verage
Ġ4 6
16 0
pri mes
Ġsp iral
font Tools
Ġ", "<
é¡ ¶
Ġdelet ing
Part ition
B rowser
V T
Y ELLOW
o ch
Ġt i
OR ITE
port Element
sub dir
pos als
last ic
Out T
Act iv
cod able
çħ §
M ay
n f
Ġi python
""" \<
ĠT erminal
Ġde velop
In ference
print options
cur rences
Ġsub trees
ĠV CS
Ðµ ÑĢÐ°
Ġcontext vars
ĠPro vide
é¢ Ŀ
S mall
b ic
j avascript
de num
Ġre write
ĠN ext
ĠC ap
ST EM
################ ####
Ġexp anded
çļĦ æľĢ
anag ers
Ġì ²
mor phic
/ \
W GL
a io
r values
ist ers
ap ed
ve al
ĠO f
Ġadd r
cor pus
loaded File
hot o
Ġmmp retrain
denum erate
S n
h w
j y
Ġ è§£éĩĬ
Ġw i
(' &
In clude
us able
Ġdo cl
Ġ5 8
Ġback slash
no python
Ġrow Index
Ġwin error
Ġpick led
HTTP Warning
ĠSorted List
Accept ed
:]) (
H over
L AY
c ff
e ma
} ;
Ð ŀ
Ġb all
ĠM ultiple
ho ut
ĠV ehicle
ME DI
Ġreverse Words
sql types
ĠOpt im
ç´¢ å¼ķ
Ġeli min
Ġins pired
éĤ£ ä¹Ī
Receive Stream
lemb ic
/ ~
P ossible
} ),<
Ġn aming
lo ut
Ġm illi
class ification
ine se
Ġ4 1
ĠE ither
iter dir
Ġq t
Ġlog uru
Ġwas n
Ġå į
ìĿ ¼
aut y
á´ Ģ
Ġtrip lets
ĠSEC URITY
ĠSto ck
Entropy Loss
C lick
h stack
n m
n ms
Ġd rive
ĠN pyDatetimeUnit
ĠRe lease
split ter
la va
Ġinter rupt
Ð¸ ÑģÑĤ
stack level
Ġ(" .
bl k
ĠIO Base
ĠUnsupported Extension
Ġtick ets
çİ ĩ
ç® Ģ
ç¥ ¨
A INT
M arch
f en
Ġe os
Ġx max
Ġ3 01
AD DR
Sub mission
ä½ł åı¯ä»¥
Last Word
Ġpydev d
OpenKey Ex
( %(
C srf
is patch
ĠL im
ens hot
][ ^
log ic
ĠQ Application
PRO TO
Ġ'/ '
Ġindent ation
)? "<
Ġurlun parse
Ġdiscu ssion
ĠA zure
Ġnp er
ag ics
Ġ% <
max Heap
=' '):<
ĠDe ep
String Match
Ġ199 5
ĠVis ible
Ġgit db
ìļ Ķ
ëĵ ¤
Ori gin
coeff s
ĠND Array
tended RegexLexer
O ct
ç µ
on line
Ġc ame
ĠT AGS
Ġis lice
ĠS ER
() ``.<
() ;<
for ge
Ġst ops
ĠR ank
ĠU Net
11 4
tree builders
LI S
Ġmock er
Ġcustom ized
man ifest
pipe lines
NUM ERIC
Ð½Ñĭ Ð¹
åį³ åı¯
R obot
T erminal
Ġt ax
Ġf ptr
it ers
rom a
es h
Ġb ars
ul us
De ep
Ġ", ".
ĠÑģ Ð¿Ð¸Ñģ
ÑĨ Ñĸ
éĵ¾ æİ¥
Based Compare
BasedCompare Mixin
B LE
C lear
re store
Ġf ly
Ġp orted
Ġb om
is Palindrome
ĠS em
Ġk ita
ir ation
Re ferences
format Validator
Ġhash Map
Ġmain ly
Ġact s
host s
vious ly
ĠValid ate
ĠBad Command
combinator ics
Ġnper seg
L AT
_ ",
_ ][
l xml
Ġp ager
Ġo auth
Ġb d
ĠA rea
iter ative
ac cent
eps ilon
filter name
ier re
Class Var
Ġmost ly
Ġregex es
æķ°ç»Ħ ä¸Ń
SetConsole Title
cas cade
Ġps util
ĠBar ry
JK LM
rack fortran
linen os
ĠÂłĠÂłĠÂł Ġ
L im
O ff
O VER
W XYZ
Ġc red
Ġf f
Ġb an
Ġb undle
ĠS EL
(" @
Ġex posed
set ex
=" #
ca ff
Ġ@ @
line To
Ġup dating
stri des
prec ations
ph oto
åħ ¬
200 2
Det ection
SetConsole CursorPosition
Ġë° °
swig faiss
Trained Model
D ark
L ONG
Ġre ject
ch ored
val ued
ĠC art
([ [-
pre release
dent ial
we ets
mon keypatch
Ġparent hesis
json l
Ġdis card
ä» ĸ
ãĤ Į
Add itional
Ġbit map
Ġround ing
small er
ĠPost GIS
Ġplan et
Ġyi elded
B alanced
pro gramming
"] ],<
Ġapp name
ug hout
Sub class
ĠĠĠĠĠĠĠĠĠĠĠĠĠĠĠĠĠĠĠĠĠĠĠĠĠĠĠĠĠĠĠĠ ĠĠĠĠĠĠĠĠĠĠĠĠ
Ġtop k
convert ers
ĠIN FO
quant ize
hex lify
ĠÐ´ Ð°Ð½
Ġmi rror
ĠDet ection
REQUI RED
è¶ ħ
Ġlab eled
åĮº éĹ´
ĠFORM AT
i pt
o es
v owels
co ol
ap ers
Ġse aborn
Ġdi f
ST OR
return ing
]] ),<
sol ved
OD Y
å® ¹
limit ers
Ġrece ives
Ġwait ing
Ġbook s
åĲĪ å¹¶
Cour ier
Month Begin
Sem antic
ĠEntry Point
nost ic
Enumer ated
çĬ¶ æĢģ
n od
Ġi NaT
Ġs quared
ĠS ite
Ġg kde
app able
Ex cel
ber g
ow ski
bo b
op h
CH INE
ĠBase Environment
Ġq r
reg ation
Ġsh allow
Ġover all
ven ue
Ġdocument ed
indi cator
Ġsimilar ity
Ġflat buffers
LOG GER
GRO UND
IZ ER
ĠWR ITE
Dump er
F OLDER
R ad
} ]<
or ge
Ġc utoff
ĠS un
ĠF ibonacci
ci a
ac quire
Ġiter ating
sp f
Col umns
Ġtransform ations
insert ions
ALL Y
cum ulative
Load ImageFromFile
Ġê° ľ
Ġscan ner
say a
a max
k d
w ar
Ġ mention
Ġan agrams
ĠC ross
py lab
Ġco variant
Ġ5 3
ÑĤ Ð¾
Ġtop KFrequent
Object s
Up per
Ġpool ing
Det ect
âĸ ł
ĠRed ist
Ġapprox imate
Nested Sequence
Ġcand y
æĿ¡ ä»¶
sans io
Ġbeha ves
. ]<
K et
ĠS an
(" `
pro ber
ep isode
25 4
TR ACK
au li
ç» ´
PRO P
QU E
Windows Coordinates
Ġlat ex
SetConsole CursorInfo
GetConsole CursorInfo
charset prober
ĠSingle ByteCharSet
Ġfo ot
Character W
MAG IC
sb charsetprober
FillConsoleOutput Attribute
FillConsoleOutput CharacterW
ĠSingleByteCharSet Model
b om
ĠM S
ĠM IN
Ġv im
ĠÐ ļ
Par sed
ensor ed
Ġremove Element
è¾ ĥ
Ġæ Ī
ĠMy Hash
Ġdesc ending
ĠError s
Lock File
ĠCur sor
Ġaltern ate
FL AGS
ĠELF File
ALPH ANUM
p ictures
ë Ŀ¼
Ġn m
Ġb lend
ĠI dent
Ġde cay
ĠO WN
Ġal lfiles
Py charm
mod ern
hand shake
ob ile
show Info
66 6
As ia
AG ENT
Form er
sho p
AIL ABLE
ABCDEF GHI
2 15
N G
ar ff
Ġan cestor
Ġint Expr
Ġde serialize
ĠU sually
ari os
AN K
74 9
mi um
Ġcomparison s
dep ends
Ġquad ratic
Ġtok list
sty ler
Ġseem s
Ġthro ughout
å¢ ŀ
H P
ë ĮĢ
Ġo o
is Valid
ĠI dentifier
con j
Ġv an
Co mpleter
Ġ8 9
ĠText Validator
Text Validator
Ġë ª¨
Get opt
Vis it
Ġdelet ion
èµ °
Dig it
ĠUnpack Exception
ĠTT Font
SOUR CE
æº Ĳ
+ ",
. "),<
D ot
U Func
g let
Ġo pacity
ĠS D
ĠS HO
(' __
num Rows
next Line
("/ ",
health Max
Ġcs rf
Ġhex agonal
Mo ves
Ġattack Power
Ø§ ÙĦ
Ġåľ¨ æīĢæľī
è´¥ äºĨ
ĠæıĲ äº¤
) ]]<
, ),<
w indll
} ):
in struction
Ġre construct
ent ryp
TO O
cum count
SEC ON
Ġ+--------+ ----------------
ĠTemporary Directory
âķĲ âķĲ
ĠQuantum Circuit
G o
L a
i h
p otent
Ġm transforms
pre processing
op inion
Ġ& =
MA CHINE
ï¼ļ [
direct ive
å° ¾
ä¸Ń åĩ»
________________ ________
ĠRemo ves
ç§ °
ĠRandom State
Cour se
åĿ Ģ
Ġcontour py
Ġtear down
hig hest
ë§ Į
è¯´ æĺİ
ĠæıĲäº¤ ä¸Ńåĩ»
ĠæıĲäº¤ä¸Ńåĩ» è´¥äºĨ
) ].
+ ,
C ipher
L ower
L PAREN
h l
un directed
ĠS cale
qu er
00 8
Ġg unicorn
ĠD agger
ĠM aps
Ġ`` `
cur ate
Ġsu fficient
11 8
Ġms vc
ÑĢ ÐµÐ´
Ġgroup Anagrams
Key words
Ġodd s
INDO W
Ġìł Ģ
Ġmus ic
DOC TYPE
ĠParam Spec
NBit Base
ĠCour se
JKLM NO
M edia
Ġa ugment
al abel
pt p
parse String
Ġcomp any
Base Loader
wo lf
Ġ8 00
Ġcor outine
TH OUS
Tra in
Ġmock Converter
Ġmock Stdout
Ġzero es
Ġpop ulated
MS cheduler
Option Parser
legend re
ret ch
ĠLibrary Loader
tab ular
front end
Opt imizer
Ġreferen ced
THOUS AND
' """<
* |
k in
Ð ļ
ĠIn completeRead
Ðµ Ð³
ĠÐ¿ ÐµÑĢ
ĠSh ift
Chunk Length
tod o
Ã³ n
Subprocess Error
C md
F lip
i rror
r n
} -
Ġt ran
Ġf ire
ĠT yped
Ġg auss
Ġx n
Ġ3 60
Ġy md
pre ds
Ð° Ð¹
Ġvari ation
Ġë Ĥĺ
39 86
ä»¥ ä¸ĭ
Ġdetect or
è¦ģ æ±Ĥ
ĠçļĦ çĶ¨æĪ·
SA FE
Bot tles
æıĲ ç¤º
éĺŁ åĪĹ
PQ RST
s prite
Ġt urtle
Ġas anyarray
is subclass
ĠS creen
Ġg b
ĠM ouse
ir no
os p
back off
Ġcode point
Ġup gra
Ġ9 2
stream ing
Ġ"- "
Ġve locity
invert Tree
ç§» åĬ¨
çª Ĺ
' +
2 31
L BRACKET
c rt
n as
è Įĥ
de velopment
Ġre lies
str ate
name list
Ġg id
Ġst ation
ĠB OM
DE T
Ġpd b
Ġpick ed
ĠAdd ition
Ġsc ra
ĠAss ume
Ġconcaten ation
Ġsubplot s
ĠInstallation SubprocessError
Ġparametriz ed
ĠOutOf Bounds
D C
N AB
S ync
b ing
v q
al ice
Ġp ull
Ġd ash
ve y
par quet
25 3
55 55
åŃĹ åħ¸
STR AINT
ĠEn code
Ġdetermin es
ĠÐ· Ð½Ð°Ñĩ
Ġve hicle
ĠDet ect
ìķ Ħ
' ]]<
ar di
co variance
ĠC mp
test er
set locale
mat vec
pen ses
ĠRe set
:// ",
Ġ9 1
Ġsplit s
Ġman aged
sup p
Ret rieval
mult igraph
orp us
Ġprevent s
Ġfi gs
UV WXYZ
Ġprepar ation
E VENT
F ragment
j uli
Ġp ushed
Ġfor k
Ġis file
ĠB ob
Ġj oint
cor ners
Ġbo b
>` ,<
Ġnetwork s
Ġ\\ (
ĠAli as
Ġsn apshot
ĠExp ression
sli ces
yolo v
ä¿Ŀ åŃĺ
Ġmarg in
è®° å½ķ
ĠSCHE ME
ĠìłĢ ìŀ¥
' -
B ODY
D rop
K D
S IG
re rs
de sign
he rence
Ġb anned
ĠN avigation
00 9
Ġg iving
ĠM AN
IN ET
Ġtime d
Ġhas Cycle
vis itor
Not es
mode s
Ġdiag ram
ç§ ¯
Proxy Type
Wh ite
ĠImplement ation
Traceback Lexer
Ġunders core
ìĥ ī
ĠAG PL
PUNCT UATION
Enumerated Validator
: (
Ġf li
ĠL oose
ĠP ATCH
01 0
son g
max i
') ),<
ÑĢ Ð¾Ðº
Ġthem selves
Supports Array
* =
5 000
` ),
w ide
Ġd g
Ġm utable
ĠI EEE
Ġe fficiency
Ġg row
Ġ4 7
Ðµ Ñģ
Ġac cident
Ġpri mitives
Inter active
OL UT
rat ings
Ġretri eval
Ġlookup s
ĠTree Walker
CONT EXT
æİĴ åĪĹ
è½¬ æį¢
Ġexhaust ed
m ssql
p ulse
è £
ĉ ĠĠĠ
Ġm iss
Ġ[ ''
get state
und ancy
ĠE scape
Ġ10 3
Ġup stream
ash ion
bar rier
Ġë ¶
rypt o
âĢ ľ
Ġinstanti ation
ĠContent Type
Ġsem antic
åıĤ èĢĥ
Stub ImageFile
O V
V owels
g colorValidator
k an
Ġn cols
Ġre li
Ġre ply
ĠA lice
Ġg radio
Ġk ids
ĠH ost
dist ribute
new line
Ġinstall ations
Ġdb api
Ġmanip ulate
æ» ¡
C I
F ortran
P ON
m map
o U
Â ²
Ã Ĳ
Ã ĵ
é ł
Ġt y
le ms
Ġp an
Ġan agram
ch ing
ĠA nswer
Ġth readed
Ġex planation
SE M
pi ce
win error
ĠComp arator
ĠBu y
Ġla zily
Qt Gui
Ġfs decode
>'' ')<
noun ce
uz zy
PQRST UVWXYZ
? ://
Ð Ķ
ro mes
rom ise
Ġ_ ):<
Ġde crease
Ġ[" -
ĠQ Widget
ĠPar allel
ç» Ł
78 9
Ġredu ced
Ġâ ķ
agg regate
GR AM
ĠLe ft
ĠInteger Array
éĥ¨ åĪĨ
Pipe Error
çªĹ åı£
` ."<
u ated
an imals
Ġre peating
fi re
ĠL D
ĠRe quirements
ĠSt d
Ġlib algos
ĠConfig Parser
Qu eries
sched ul
: #
g te
n denumerate
me ss
Ġf x
ĠR enderer
ĠM ultip
mat lab
time zones
Ġ`` -
Ġgener ators
------------ ---
poly der
lin estyle
Ġdot s
ç½ ĳ
Ġsatis fied
Ġke eps
amilys rcValidator
ĠBroken PipeError
C he
C ity
¡ °
Ġd um
ĠA LL
ĠP S
Ġ: ])<
ci ble
Ġle ad
with in
RE AM
sy mlink
([[ [
mag enta
Ġpyp i
Ġë° ĺ
Basic Auth
contin uous
ĠBit Generator
ĠLayer Norm
Ġanaly ze
B usiness
G RE
R emote
b eat
m fa
z a
Ù ħ
Ľ Ĳ
de queue
Ġf rac
ri ding
ĠS IGN
get attribute
Ġde structor
kw s
Ġpar so
10 6
Ġcurrent module
Ġdis pose
16 8
env s
scal ars
View er
Stat ic
################################################################ ################################
Ġconflict s
ĠOri ginal
msvc compiler
Fl ask
B C
B box
K w
M ost
S IGN
\ "
_ )
e verse
f ish
l amb
p ot
Ġc k
ĠS li
Ġor g
ĠU np
line width
cor ner
the alth
now ledge
ĠTra cker
Ñĭ Ð¹
è® º
SO FTWARE
ĠPRO PS
Ġinterpol ate
ĠWork ing
ĠNaN s
ĠAdapt ed
ABCDEFGHI JKLMNO
R R
Ġ gs
def ects
un ay
ĠP ierre
Ġe mul
00 6
ĠF BT
Ġg ues
ĠR ate
ind x
ĠE lements
Base Tool
Pro gram
cu sed
ĠJ ohn
ob servation
TR Y
IS O
å¤ ±
è¾ ¾
Ġmm seg
85 3
Ġask ed
é¡ »
plain ed
OPEN AI
everse en
Z MQ
\ ]
x c
nt he
ĠC ategory
ĠB en
ta x
Ġcomp rehens
sum er
Ġ8 5
implement ing
sm art
âĶĢâĶ Ĳ
strument ation
Ġìĺ Ī
ĠALPH ANUM
ĠOmega Conf
? |
f h
h u
m v
r mul
t anh
z oom
ĳ Ĳ
me ters
Ġs b
ĠC ast
for bid
Ġco uple
Ġ3 000
ac celer
Ġsp ider
xx xx
ĠMeta Data
åĮ ¹éħį
Ġsymbol ic
adjac ency
Ġessent ially
CLO SE
yd ra
Q ue
ro tt
di b
ĠR obot
con versation
Ġ` \
** *<
ĠE PS
Lo gging
çļĦ æķ°åŃĹ
stack ed
exp lode
TH READ
Ġte le
Request History
ĠCont act
null s
norm case
alind romes
æ¬¡ æķ°
ìĦ ±
ĠUt ility
ë¶ Ģ
ç³ »
d ual
Ġh om
par s
to bool
ĠB ig
ff ill
Re lease
text wrap
dist s
du ce
dis k
exp m
FA I
Ġdir ty
Ð¼ Ðµ
)} ")
Ġdivide nd
Ġintro spection
Ġprox ied
Ġscen ario
B etween
R AY
g il
o ser
ç ķĮ
Ġi ou
Ġc ategorical
ĠC lean
Ġtest cases
ho le
Ġmin Operations
ict ure
ĠCon structor
"] }<
pos al
Ġsorted containers
sp am
Field s
Case s
ĠCol lect
Ñĥ Ñĩ
Ġge o
Ð°Ð½Ð¸ Ðµ
({}) '.
D eg
M IS
h ull
x e
in h
ad ic
ver ified
Ġv env
Ġal location
pre t
ĠUn re
=[ ["
AS H
Serial ize
Ġthree Sum
Ġspe ech
Ġtt Lib
Two Numbers
æı Ĵ
ĠArrow StringArray
ĠFa ctor
uny code
ABCDEFGHIJKLMNO PQRSTUVWXYZ
B lue
S a
{ :
Ġ ]:<
st ages
pe z
ass oci
ĠC andidates
ĠI II
Ġstr tobool
ir p
ĠH ard
ĠW ritten
red is
sub mit
sub tree
nd ers
Ġcopy ing
Ġinteg ral
08 01
Ġlock ed
gl ut
bra cket
Ġconcaten ated
" #
d on
m anagers
s pecies
co ffset
Ġar ticle
do min
ĠB est
Ġz ge
ich r
åĪ ©
TR ACE
è¿ Ĳ
Ġtrans lated
ĠComp ose
íķ ©
Ġ~~~~~~~~~~~~~~~~ <
Up loadedFile
è® ¤
ĠModule NotFoundError
Ġ10000 00
âĶĢâĶ ĺ
sizes rc
hen es
aint ext
3 86
> [[
B lob
w armup
} ."<
Ġre use
Ġs ynchron
ĠC loud
Ġ3 45
Ġv a
join ed
Ġiter dir
ĠK thLargest
çļĦ åĢ¼
Ġ8 6
of a
ĠGener ation
Ġpol ar
ĠConfig OptionParser
Enum Key
ĠÑģ Ð¾Ð·
Ġart ists
sd k
ĠMET ADATA
C orpus
E poch
S ING
t end
ì ¶
in ches
Ġf sspec
ĠT F
ĠS unday
pre serve
ĠH at
ĠPy Side
Con version
sub tract
çļĦ éķ¿åº¦
return code
ĠMulti part
Ġpoly val
Stack Error
è§ Ĵ
76 8
IST S
Month End
æĭ ©
retrie vers
ĠIMP LIED
NORM AL
f an
» åĬł
Ĥ °
ĠC l
all ing
00 4
Ġh appy
ĠB essel
file obj
ĠW idth
sc roll
Ġdis count
Ġ... ],
ous ands
ĠĠĠĠĠĠĠĠĠĠĠĠĠĠĠĠĠĠĠĠĠĠĠĠĠĠĠĠĠĠĠĠ ĠĠĠĠĠĠĠĠĠĠĠ
HTTP ConnectionPool
UM N
Map per
Ġplan es
ĠJust ifyMethod
ĠRaw ConfigParser
ĠYOLO v
ĠSty ler
ÑĥÐ½ Ðº
[ ...
a ugment
Ġ ],
Ġ è¯·
lo ve
Ġ" ).
li e
ve locity
ĠM edian
]) ])<
AR M
Ġmake file
å¤§ å°ı
ĠìĿ ¸
æĭ ¬
Ġ": "
ê¹ Į
Ù Ĩ
Ġ" !
Ġ" @
il led
Ġ' $
Ġis atty
Ġ_ (
for k
]] ],
Ġref ers
Ġcho osing
Custom er
ĠChar acters
ĠAxis Int
sci math
çŃī äºİ
' [\
a decimal
b eg
e igen
t ts
in correct
Ġ1 16
Ġh uggingface
Ġmat hematical
Ġì °
var fmt
Parser Element
ĠTra ining
Ġsql types
æĮ ģ
Ġens uring
éĢī æĭ©
ĠGer ard
March ant
ĠSEL ECT
' *
C ython
L inux
R M
R ich
S LOW
x fe
in omial
an th
ul ations
is lower
Ġ2 31
Ġh atch
ĠM ode
ï¼ Ľ
To Int
Sub strings
Ġmode s
ĠCON DIT
sa les
ĠHash Mismatch
Red is
AF TER
- ]
D ep
E very
T ake
o lf
Ġ ENV
le gs
ĠP ango
for eground
Ġh over
ĠD ialect
Ġst rength
ta kes
dd m
Ġno python
Ġqu at
Time Error
ribut ors
30 6
Ġconnect s
Ġdown loaded
Ġproduct ExceptSelf
ĠApp end
floor div
Conflict ed
ĠPh ysical
consistent Candidate
uro pe
FAI LED
; ').
C apt
M ountain
S trip
p added
w ant
Ġd ge
Ġb enchmark
ĠL ines
ĠD LL
pl aces
con strain
ĠB E
Inter section
null able
ĠÐº Ð¾Ð¼
mi rror
è· Ŀ
Ġnumer ator
erno ulli
5 15
R oman
w all
Ġan ame
Ġ' **
ĠA lex
Ġl ucky
res ume
', ),
Ġset recursionlimit
Ġz z
Ġend Word
ject ory
Ġmessage box
ost henes
Ġmultip les
contain ed
å¤ ©
ĠAdd s
PL AY
è· ³
52 80
hyp ergeometric
ĠEnd Of
Ver ify
los ses
Gre ater
Ġ\"{ }\
) ^
Ġ ~~~~~~~~~~~~~~~<
de limiter
Ġb date
Ġw andb
Ġst icker
ss rc
ff inity
row count
Ġ6 7
exp ansion
side s
Ġattr getter
Pre tty
------------ -
DO MAIN
Ġ---------------- <
proto c
Ad am
ĠAd min
ssib ilities
Ġcomm unic
Ġ\"{}\ "'.
T up
T ION
s ch
â ĨĴ
al ready
Ġre nders
Ġm appings
Ġ1 11
qu aux
ĠI DE
et ition
et ensors
ĠB uff
model ine
SE QUENCE
Ġobj ek
round ing
AB I
Com m
Image Formatter
Ġtrans fer
åº ĵ
ĠTra iner
Point Pen
ĠDatabase Error
ĠYO UR
micro seconds
Ġìķ Ħ
åıĤ æķ°
ĠSpecific ally
endi an
] >=
f re
ç Ī
Ġi ll
de termine
"" ""<
Ġs yn
ra cker
is abs
th row
() *
Ġ. /
ca ching
Ġun ary
Ġcurrent Node
ĠBase Estimator
ĠBase SSLError
Ġser vices
UL D
åĢ Ļ
Exec ute
SY STEM
ĠPl ace
overlap s
Ġcle andoc
èĤ ¡
SOC KET
g mpy
j ohn
à ´
Ġ æľĢ
lo v
ri l
un patched
pa st
Ġcl a
ĠIn di
ĠRe ader
Ġwe ather
Ġ6 9
ache s
AL T
sp matrix
aut ouse
Pool ing
Ġidentify ing
attack Power
adjac ent
ĠCandidates FromPage
C UDA
S qrt
S wap
Ġ ÑĢÐµ
in structions
de serialize
Ġd ados
Ġb ash
di fficulty
Ġse at
ig lob
ca ke
ĠU ns
Ġcur Sum
dd l
AL LE
({ })<
ĠRequest Exception
KEY WORD
Ġfilter false
two Sum
09 6
ĠGE OM
Cre ation
Ġ'(' :<
åľ° åĿĢ
Ġlos ses
ĠAppEngine Manager
Dest ination
THE ME
Ġfigs ize
t rap
Text Model
rit on
post process
Cache Control
ÑģÑĤ ÑĮ
ĠSort ing
Alter Field
E MPTY
G T
Ġ ><
Ġt ill
Ġp al
Ġs ns
Ġo de
ĠS Y
get refcount
ĠC S
In vert
Ġwe bsite
cor ing
ĠTra ck
ãĥ ĥ
ĠEmbed ding
ĠðŁ Ł
determin istic
âĪ Ĵ
Ġhub er
998 244353
p wn
} ]
al go
Ġ" ;
int ranges
Ġh im
key ring
den o
ĠBase Reporter
>- >
ĠLo ss
Ġfilter ing
Represent ation
Web Socket
ĠSign ature
ĠlongestCommon Prefix
idi Error
NAB idiError
( ...,
- _
M atches
Z eros
` :<
l or
st ub
Ġh al
pre view
][ +-]?\
ĠV i
ÑĤ Ð¾ÑĢ
PY TER
Ġyour self
Ġpoint ing
Ġdesc end
Ġdownload ing
Av g
ĠHTTPS Connection
L N
w as
Ð Ŀ
Ø ±
de velop
Ġc type
Ġin cre
ĠA ccess
Ġpy wintypes
Ġup cast
App le
Ġdown loads
ĠDO M
ĠState Inline
ĠOpt imal
Ġfraction al
ĠBound s
( """<
P unctuation
T AR
g old
de scriptors
ol ar
ĠS IG
Ġh olding
emp loyees
ä¸ »
Ġdatetime s
Ġfind Median
Ñģ Ð»
Ġplatform dirs
dev ices
ĠMy Stack
Schema Editor
é¢ ĳ
ç¬¬ äºĮ
Ġcookie lib
AV AILABLE
Ġpub lish
ĠAnd roid
R ate
Ġre lat
Ġs licing
Ġd ont
id o
mat erial
(' [
cont raction
Ġclass ifier
ĠĠĠĠĠĠĠĠĠĠĠĠĠĠĠĠĠĠĠĠĠĠĠĠĠĠĠĠĠĠĠĠ ĠĠĠĠĠĠĠĠĠ
ĠLe af
(". ",
ĠUnicode EncodeError
ĠPa lette
visual ization
b unch
p ractice
Â ´
Ġ íķĺ
ĭ ¥
en crypt
Ġre ly
ĠT OK
ĠI L
Ġex po
Ġde compress
do ctype
ĠPy S
=' :
AR ED
Ġword List
Ġq s
local time
Char s
Link Source
Ġnull context
ĠFound Links
SET UP
Internal Error
ĠSha red
Ġdenot ing
) ["
W A
s ilent
at able
it ize
Ġb rand
ot ing
Ġ( ('
is scalar
ĠS igma
ĠD IFF
list like
time gm
000 8
\\ )<
\\ ],
Tra ck
Invalid Version
Ġê ·¸
Ġdest roy
Ad ded
nb r
Vector Store
Remo ved
ITER AL
ĠStrict Version
B order
s urname
st ation
al let
un ravel
Ġas dict
Ġ: ],
do k
Ġsh all
Ġover written
Ġap parent
Ġsche mas
vector ize
serial izable
ĠMapping ProxyType
Dis crete
+) _(
ĠPost greSQL
Ġë§ Į
Quarter Begin
" '<
M I
c ritical
p print
{ {
(" (
Ġdi fficulty
ord inal
ĠE qual
St age
Ñģ Ð¿
lex ed
Ġ". ":<
13 5
cmd line
CT X
Win DLL
é¡ ¹
ĠChar set
Cir cle
ĠBackend Invalid
Ġbro ught
R S
p le
Ã ĸ
get tz
Ġde no
ME X
check ing
anag ram
Ġconfig urations
Ġdis connect
Ġnon zero
ie ce
ĠAPI Router
Ġimp ly
Qu ad
ĠNum ba
ÂłÂłÂłÂł ÂłÂłÂłÂłÂłÂłÂłÂłÂłÂłÂł
Ġpop ulate
Ġrece iving
Ġph ysical
multip rocessing
ÐµÑĤ ÑģÑı
10000 00
Ġlowest CommonAncestor
Send Stream
ìĻ Ģ
èĮĥ åĽ´
) (*
M ASK
W rit
n ables
w Attributes
Ê Ģ
in coming
st ers
de cess
Ġs urname
int ro
di ents
im read
Ġun available
################ <
sp ines
ĠĠĠĠĠĠĠĠĠĠĠĠĠĠĠĠĠĠĠĠĠĠĠĠĠĠĠĠĠĠĠĠ ĠĠĠĠĠĠĠĠĠĠ
Scheme Unknown
Ġsv d
íĻ ĺ
pez oid
2 12
> ])<
h anced
Ġ åĪĨ
st ors
Ġ' ':<
co ur
", ",
Ġr x
000 4
ome tries
Ġali g
Object Identifier
Ġunique Paths
ä¾ Ŀ
Ñĸ Ð´
ĠBack ground
ĠMo vie
Pack Inputs
Installation Candidate
Ġupgra ding
2 0000
R edu
U ALLY
X OR
Ġm il
() )]<
ic ular
Ġnot ification
art hest
ĠTest Get
Ð¾ Ñĩ
Tra ining
colors rcValidator
hentic ator
ograph ic
RUN TIME
RES ULT
assertNot Equal
reach able
ĠPrepared Request
* '<
G REEN
T ail
h x
o ses
p ag
ĩ è®¾
Ġt unnel
Ġi ris
__ '
Ġ( ...
ĠL M
sub modules
Ġsuper class
AL TER
ĠCon strain
ĠJ PEG
ÑĤ Ð¸
]+ )\
ä¹ ł
>`` `<
åĨ ³
ìĬ µ
ugging Face
ä»£ è¡¨
ĠCompat JSONDecodeError
^^^^ ^^^^
ĠDown load
Supported Error
âķĲ âķ
ĠRetrie ve
F ake
M agic
P tr
i ans
or er
def ining
Ġd v
class ifiers
Ġstr g
ĠE s
") ;<
ãģ ¾
Ġpoly add
Ġgre edy
ĠLine Splitter
Ġdat as
Ġind x
ëł ¬
ND imArray
Cho ices
eof s
Ġpolys ub
ĠIL LEGAL
' ."""<
* )?
C FF
L ess
W ater
é ¦
Ġto wards
ĠC SC
Ġh m
Ġcon versions
Ex ternal
art icle
und led
Ġsup ply
sc rib
Ð° Ð»Ð¸
raw ler
env Type
To WaitFor
stream lit
Ġtrans parent
Ġord ers
ä¾ Ĩ
ĠAR RAY
Socket Error
predi cate
Vert ical
ĠFuture Warning
ĠDiffe rent
Way ToWaitFor
Coin s
WayToWaitFor SocketError
_ ("
g f
un selected
ĠC RE
Ġl an
ĠM M
:// <
son ukk
lock s
wa ha
To Float
ush waha
Ġcor pus
Ñı Ð²
State ment
Back ground
alle ts
ĠDi rectory
Ġpe er
æĹ ¥
ĠCall ing
ĠCore Schema
Normal ize
ä¿¡ æģ¯
æĻ Ĥ
ĠMAN UALLY
lexed Path
sonukk ushwaha
G I
M ultip
or on
Ġw armup
ĠN eg
ĠC lick
(" :
ĠD ig
Ġde b
ĠO li
ĠG o
"] ):<
Ġ9 00
Ġac cum
ĠJ o
ram id
åĪ Ĵ
Any Str
Ġopt sep
è¿ ĺ
Ġæ Į
expr s
Ġderiv atives
æī¾ åĩº
Dependency Warning
Ġc ities
Ġw av
Ġ0 8
Ġl atter
ĠF low
Ġiter ative
Ġext reme
14 0
Sub set
Sub classed
block ing
hash lib
ĠSub plot
lap lacian
}" })<
Chat Message
ĠRequests DependencyWarning
Over lap
('. ')
å¯¹ åºĶ
éĺ ¶
Tok yo
ĠVari ables
Compat ible
ĠSeparateBody BaseCache
DESCRIPT OR
unders core
ĠTOK EN
' >)<
: ]):<
C li
R ating
U OUS
V IS
] }"<
d ont
u f
y ang
Ġi g
me chan
ĠT ok
class name
pro ba
Ġfile no
Ġpy qt
Ġen crypt
ĠE MOJI
Ðµ Ð²
dis count
GE OM
Command Error
ox el
åĲİ çļĦ
Match ing
Ġpub lished
Act ive
fib onacci
ALE TT
# "<
M IME
p asses
de le
Ġa zure
Ġc ube
Ġs x
ĠC how
ĠR enderable
ĠM edia
Ġal go
Ġen emy
ĠH ANDLE
ĠQ U
Ġ... )
AN CE
win ner
ĠVersion Predicate
Ġnamespace HTMLElements
Trace Type
(". /
Bound ary
ĠOption Error
ĠVector Store
æ¨¡ åŀĭ
Ġfresh ness
ĠAlign Method
deriv ative
s ors
è Ļ
Ħ ìŀ¬
Ġi py
Ġa a
Ġo m
is y
el apsed
py tables
res olvers
Ġh ints
ĠB rute
sc ratch
Ġhas her
tri gger
reg istered
stat istic
ĠAt Coder
dat apath
86 0
74 98
QU ERY
ĠGenerator Type
Ġsegment ation
æ¨¡ å¼ı
Ġconven ient
Ph one
748364 7
èĤ¡ ç¥¨
! --
W INDOW
k ib
s lot
¼ Ģ
Ġp alindromic
Ġre da
id ge
ĠN ORM
Ġelse where
back slashes
tri angles
mon itor
Ġå ½
OP S
ĠÐ¿ Ð¾Ð»
Ġdecimal s
Ġest imated
Ġpast e
ç« Ļ
PRES SED
_ '
Ã ¥
Ġa ffine
ĠC annot
], [-
pa used
ĠIn spect
Ġno gil
Ġcomp osite
De leg
Ġapp ending
\\ (
ĠImage Palette
ĠCh art
Ġsol ving
ĠPre di
Ġcy cler
Ed itable
+) "')<
mar ily
Ġconsider ing
REC ORD
Public Key
ĠAut hentication
Ġacceler ate
Exists Error
Ġmim ic
E MA
Ġi mag
ĠT ASK
up s
ĠA D
ĠC ORS
ma int
Ġnum bered
able Exception
Ġget Jumlah
ac cum
ĠUn parsedVersion
sem antic
ĠPrompt Template
ĠVER BOSE
* -
A ns
B old
G it
S urface
g ible
t di
u FE
Ġa val
ĠS imp
The n
Ġent ropy
bit map
ĠFile List
complex floating
Ġob served
ĠRo ss
Ñħ Ð¾Ð´
ĠWork er
Let ter
= (-
Z IP
i ro
± åº¦
Ġb ag
Ġ[ ""
ĠL R
Ġx min
`` ."""<
ss lobj
Ġcon ver
ĠG ra
ĠRe ce
Re Sub
Re StringMatch
cre ating
Ġ6 8
IT S
ãģ ķ
Sub Method
Info Distribution
Console Features
ĠWindows ConsoleFeatures
az ure
Ġred undant
ĠCre ating
Ġdeal ing
Ext ensions
ELE MENT
ĠHook Missing
oron oi
Ġreda ct
ReSub Callable
C l
T oml
h m
ë Ĳ
Ġ Ä
se to
Ġn rows
as semble
Ġb r
Ġw orst
ch rome
ab it
ĠC ard
Ġstr Str
Ġ{ _
Ġiter items
sent ences
stack s
Un ix
ĠGener ates
connect ivity
ĠPol ars
Ġbig ger
Ġbutton s
marg inal
ĠìĤ¬ ìļ©
B GR
T ON
k l
â ļ¡
st re
Ġt ro
me son
ing ency
Ġ" ~
is posinf
Ex port
os ine
Ġend Line
") .<
open mmlab
av ily
bytes wap
Ġ{} )
IG UOUS
Ġmp atches
conf test
ĠDis crete
________________________________ ________
Ġbeg ins
" [^
$ %
. -
2 16
; =
] ").
ĳ ľ
st ata
Ġi info
Ġb f
Ġst e
ĠM LP
Base Heuristic
ero us
env Id
Ġ12 1
Ġreplace ments
Ġsplit ext
ĠControl Type
ickle ableException
Ġnic er
PREF ER
M arg
V u
k c
q kv
s al
´ Ī
Î ±
Ġp ile
ran ches
ĠM any
(' ',
Ġpro totypes
qui ver
dis position
ENT ITY
HTTP Message
long opt
æĹ¶ åĢĻ
Mask ed
è´ Ł
tot ype
Figure Canvas
æĥ ³
ÑĨÐ¸ Ñı
ĠUS ING
Ġalloc ate
\ (
Â ½
Ġb ypass
Ġto ggle
ran lib
Ġex cel
Ġex ponential
ent ed
pl ant
work space
Ġali ce
æľī æķĪ
../ ../
################################################################ ############
CONT IGUOUS
ĠHel p
ĠOpt imizer
Ġclo ser
FL AG
pens ive
REF COUNT
Clip board
ĠLang Chain
ALETT E
C ancel
Â ¹
ro utes
ri r
Ġ( )))<
Ġint ention
Ġbe have
ub ah
Ex change
Ġ% }
Ar guments
fore ver
200 4
Pre Post
åŃĲ ä¸²
5678 12345678
Ġadmin istr
R ules
b ak
c ers
v da
Ġre qu
Ġ' )))<
set state
pop item
Ġunder line
Ġread ers
AN C
Time s
14 9
ç» Ī
IS K
ĠOn ce
Ġtool kit
ĠParser SyntaxError
ĠStart s
sim ulation
swap axes
mix ing
ĠSystem Exit
æķ´æķ° æķ°ç»Ħ
æł¹ æį®
Negative Infinity
ĠPadding Dimensions
Ġeager ly
> **
M en
R ANGE
S ci
] !
g cc
n dimage
t or
} ":
Ġre order
Ġre cip
Ġb alls
Ġb readth
ĠT E
Ġ[ ['
co mplement
Ġe lect
im i
form ula
ac vda
Ġ| -
Ð° Ð»
Ðµ ÑģÑĤÐ²
Ġë ı
light ning
Console Lexer
flow s
Ġhelp ful
Ġmissing Number
Ġconnect or
ĠGet Console
inst ead
Ġxml ns
pk l
Ġmac ros
RES PON
OFF SET
rins ic
ĠHDF Store
L ow
U ns
[ ("
ç ¦
Ġ ENABLE
Ġf la
Ġ" :<
ĠS ync
up dates
ĠC apt
Ġ< ------------------------------------------------
ĠL ab
ma gnitude
Ġh p
Ġg ui
ĠM ON
app ers
ĠIn Memory
Ġsub dirs
ĠTest Config
win inst
Ġ~~~~~~~~~~~~~~~~ ~<
Des c
Lib Error
å· ®
ĠTimeout Error
Ġexecutable s
Ass istant
Sc roll
simp lified
Lazy Module
APP ENGINE
Ġsens itive
/ -
mp otent
Ġp et
el lipsis
Ġen crypted
=' \
Ġ[" _
)) }<
cu d
Ġsum Of
ĠBase Pen
An alysis
ãĤ ī
ÐµÐ½ Ð½Ñı
Ġglyph Set
Ġrecom mend
Ġvisual ization
Ġenc ryption
æĹ¶éĹ´ å¤įæĿĤåº¦
E mp
M YPY
re veal
__ _<
Ġ1 10
00 20
ĠO ffset
Ġiter values
ĠName s
17 9
22 8
ĠComp arison
Ġfix es
å®ļ ä¹ī
RET URN
percent age
Ġmanip ulation
Ġtoml lib
Ġë°° ìĹ´
> %
C ASE
H ES
Ġ ç»Ļå®ļä¸Ģä¸ª
Ġb ill
ĠA dib
ĠL G
ĠF ed
Ġde clarative
Ġ`` --
Ġmax Product
Ġbu ffered
ĠSe c
ffi cult
trans actions
Ġmultip ath
Ġmultip licity
Ġdown stream
termin ate
(\ .\
Ġplace holder
IR ES
ĠState ment
Ġspl in
ĠSha kib
ĠMost ofa
¸¸ ìĿ´
PROCESS ING
EXEC UT
ĠPyS ocks
MEX PR
8 75
A MP
re build
ur m
py func
ĠL ambda
ĠP UT
ĠP ipeline
Ġy ang
Ġpre ds
Ġen queue
ny a
IL T
Pri ority
åºı éģįåİĨ
Ġlocale s
Ġfix tures
Ġsci entific
Ġbind ing
Factor s
ĠUnpack er
Bo ard
Ġexpl ore
FUNCT ION
ĠRename d
+ "
D TYPE
F it
P ose
e ither
m il
p assed
v ised
Ġp wd
ĠM P
Ġj ewels
ĠG ENER
ance ll
Ġcol lision
Re served
not na
:` /
Ġcheck ers
12 2
with Pycharm
cy cles
pol l
ĠJ ython
ib l
Ġ... ],<
install ation
Ġim gs
Ġmock Stream
ĠRequest Methods
ĠSo ft
mock Stdout
ĠStream NonTTY
Ġpad y
sq r
ĠThread PoolExecutor
ffff ffff
Ġcau ght
Ġpat ched
ĠMay be
ĠVert ex
aro quaux
GDAL Exception
autore sets
A mount
F riend
k r
m io
å ķ
Ġm otion
ĠC s
ĠP RE
Ġl ack
Ġg i
Ġg m
ĠD IS
Ġk v
IN SERT
Ġtext ure
temp eratures
ĠPro to
Ġå ī
State Error
extern ally
ĠMon o
ä¼ ł
ĠFont Properties
Cross EntropyLoss
æĲľç´¢ æłĳ
Ð»Ñİ Ñĩ
W M
h ib
st emp
Ġre cons
ĠS mallest
ig gle
`` '
mat lib
out going
check points
ql ite
find iter
Ð² Ð¸
rat osthenes
(?: \.
åŃĲ æķ°ç»Ħ
ĠEX ISTS
executable s
IF IC
ì§ Ħ
Ġsim ulate
Period Index
Ne ighbors
Ġapprox imation
******************************** ********************************
dum b
JU PYTER
Ġaccident ally
Ġexpo sing
) ]))<
N ear
a get
b ird
Ġt ight
Ġc am
Ġo ct
Ġ3 08
Ġr ho
eg a
ĠRe cord
Ġrepresent ative
IS REG
Pa int
ERR IDE
ĠEn capsulates
ja Vu
Pos ix
ĠRead Buffer
ĠFl ax
separ ate
AM D
orizont ally
ĠDatabase Features
å¯¹ è±¡
ĠConv Module
Ġshe bang
è¿ŀ ç»Ń
Ġgreat est
LANGU AGE
ĠDIFF USERS
G ender
H ashes
N ON
S l
T ASK
] }")<
c g
Ġs it
ic a
ĠP oints
res so
ĠF initeSet
Ġh ierarchy
Ġbe autiful
Ġget ter
fo v
sub graph
ak u
ĠCon sider
Ġ9 99
ĠIter ative
install er
æī £
(\ .
199 0
fetch all
ĠCOM Exception
Language Model
Ġcoeff s
FUNCT IONS
ĠJsonSchema Value
Ġæ¯ ı
Scal er
COMM AND
HES IS
G O
f lake
Ã ª
Ġs pecies
el ah
Ġ2 14
-------- ---<
Ġg ran
to wer
ĠE lastic
)) ])<
Ġab i
mon omial
De jaVu
Un recognized
ĠField Info
ĠInterval Array
sn apshot
document ation
}" '<
Ġpad x
uest ions
Ġcontest s
ĠVer boseLogger
ĠExcel Writer
ELE MENTS
Ġass istant
A nt
M orphism
u mes
ª ½
at al
Ġt x
de crypt
ar csin
lo m
lo ops
co lour
ĠA M
ĠP romise
ĠHTTP ConnectionPool
Ġå ·
ĠCheck ing
Pre TrainedModel
effici ents
year s
ident ifiers
ëĵ ł
dr ink
=", ",
ĠAS N
åŁ º
Ġkeyp oints
wild cards
Ġmention ed
æ»¡ è¶³
G radient
å Ĥ¨
Ġ Validator
Ġ ÑĨ
re z
Ġc ars
Ġn ursery
Ġw t
ĠS eg
ĠL IST
-------- --
ĠD imension
Ġde crypt
Ġ""" ,<
ĠG R
Ġmax imize
ĠW idget
ĠE ven
Ġcomp ilation
)) .<
Ġext ent
sys cfg
ĠFile s
ĠBy tes
ds a
Reg ular
Ġvar name
Ġdoctest s
fake file
OB JECT
Parent hesis
bid i
Coord Seq
ä¿® æĶ¹
* )\
H AND
j ax
m ble
de compress
il ver
qu arter
Ġh key
ĠD OC
Ġde claration
em it
ĠB ank
ĠG ood
Ġ8 7
Ġ... )<
ĠAl though
istr al
Ġag ents
scale s
Ñĸ Ð²
ĠConstant s
Ġpen alty
Ġplus One
ĠAutoModel ForCausalLM
L ITERAL
N B
r sub
Ġd ok
ĠS mart
od ata
Ġg rp
ĠR UN
ps olve
his per
fix er
64 0
ME M
Module Type
Ġtz name
Ġclient s
Ġstri pped
We ak
Ġ30 7
ç»Ħ æĪĲ
ĠSimple TestCase
ĠLinear Operator
300 2
>~~~~~~~~~~~~~~~~ ~~~<
äºĮåıī æĲľç´¢æłĳ
Ġmount ain
Ġë¬¸ìŀĲ ìĹ´
. ".
b m
h ance
y out
Ġs aves
Ġar ys
ĠB usiness
In verse
ense mble
ĠNot SupportedError
Output s
dis connect
Ð¾Ð ¿
Ġbytes join
ĠFile System
)* \
88 8
Ġpoly mulx
ĠEn able
PAT CH
xml rpc
Ġ"/ "<
ĠNew ConnectionError
cons istency
predi ctor
click ed
ĠFa ctory
mime type
ĠGDAL Exception
eng ines
alloc ate
Ġscen es
Ġsoft max
ĠLegacyWindows Error
Ġaval iable
* '
4 20
C MS
V BoxLayout
a cobian
d ados
Ã ¢
Ġb py
ul ary
ĠL ik
ĠD EP
Ġor gan
con cept
po cketfft
Ġso on
Ġversion ing
IC ES
stra ction
Ġfind The
Ġ... :
org an
Ġì £¼
Ð½ Ð¾Ð³Ð¾
poly mul
}) >".
User name
27 28
BO X
pet ition
Ġguar ded
ĠInst alled
4 000
Z ERO
ª çİ¯
Â ¬
st al
Ġp ys
ĠS wap
ma ze
Ġst em
ĠM ach
Ġr p
Ġiter keys
den ominator
') (
pri or
bar s
ph ant
Ġnon ce
]+ ")<
22 9
Ġsplit ter
pool manager
Ġappro aches
ĠLink Error
rat ios
Core Schema
Ġmem map
assertIs Not
ĠTop ic
ĠSH ORT
2 20
; ')<
B oth
F M
O c
f amilys
Ã Ĵ
Ġb ol
Ġcl oned
ĠPy Capsule
Ġqu it
Dist inct
project s
Ġreverse String
Sy mmetric
drop level
ĠReg ular
ĠSimple Reader
}' ")<
peri ence
logs pace
Su ite
Ġocc upied
ĠUnp ickleableException
ĠCRE ATE
familys rc
H EX
` "<
d lm
f get
l Version
} -{
Ġt ie
ol ate
fi r
id Validator
ang ka
raise d
Ġcomp osed
St udio
De code
ST EP
Ġaccept able
PL US
Ġlock file
hidden imports
ĠEd it
UnparsedVersion Var
Ġcluster ing
ĠParsed Requirement
Mus lVersion
PARENT HESIS
COMPR ESSION
Csrf ViewMiddleware
dlm f
" '{
+ ]
3 15
C mp
C AP
F older
f ault
ex change
Ġ( ),
() [:
ĠP ow
res olved
out ines
equal ity
sc m
dow nsample
Ð° Ð»ÑĮ
no op
prefix ed
rie f
rot ated
Count s
Ġassu mption
Ġrect angles
åŃĲ åºıåĪĹ
ĠAd am
ĠSum mary
Ġart ifacts
å¿ ĥ
Ġdeci de
ĠTho mas
G C
g ist
n est
r ity
x l
he m
Ġ" ["
Ġis olation
ise t
ĠB Z
Ġpy func
pa que
EN CODE
CH AT
IT LE
sh im
Ġlog arith
Ġsh ard
Ġ// ////////////////////////////////
the re
Ġë ĭ
Ġ$ {
Extension Tests
Ġpack ed
1234 5
íķĺ ê¸°
Div is
!! !<
team s
Ġsv g
Sha red
Assign ment
Flat Directory
Ġbid irectional
ĠKeyboard Interrupt
entryp oints
W arnings
b ill
h b
ç Ļ
Ġ è¡¨ç¤º
Ġc args
Ġl list
Ġde pendent
to s
ĠR ISK
emp t
mon ic
Pro jection
ĠComp utes
}) ")<
Ġretri ever
SQL Alchemy
rb f
Ġhighlight s
Ġhighlight ed
ĠSh adow
ì§ ¸
spa cing
% .
N F
d an
Ġ ä¸į
re strict
Ġto bytes
py i
ĠL ike
(" ("
ang erous
)) ))
DE P
Ġ"" ).
ĠOpen ID
ĠException Group
BU FSIZE
site packages
flat iter
ĠAsync Mock
Ġai ogram
Sorted Arrays
åĿ ĩ
Ð¾Ð³ ÑĢÐ°Ð¼
Ġzone info
Ġraster ized
Isl ands
cib ility
mechan ics
ibl ings
( ~
( ","
2 25
T ab
Ġ ä»İ
or acledb
Ġdi ce
so on
Ġun finished
col lapse
ry stal
]]) .
Ġsocket s
23 5
safe string
Method Type
SH ARED
upper case
Ġinv olves
ĠCOM MENT
Redirect s
Ġincorrect ly
incip al
>>>>>>>> >>>>>>>>
How ever
saf ety
ĠWi kipedia
Ġobserv ations
+ \.\
Ġin vocation
ct r
ad der
Ġco mple
num Courses
Ġcon vergence
com bo
Ġj umlah
AT ER
iter ima
Ġexp ressed
Ġper ms
Not Impl
Ġ". /
CON STRAINT
ĠRaise NotImpl
ASE T
Ġquant um
Abstract Distribution
ĠLog in
éĻ Ĳ
Ġcent ral
Ð¾ÑĤ Ð¾ÑĢ
INST ALL
Colors rcValidator
ĠColors rcValidator
j amin
} ={
re striction
en coders
Ġs pline
Ġ( /
con fidence
tr f
Ġget gr
Ġro i
ta ir
Ġmax Score
ĠDe v
File Attributes
db name
Ġvalid ated
FA V
UP DATE
Ġmon omial
Ġê ¸¸ìĿ´
æī ĵ
ĠIN F
ire vision
ĠEX PRESSED
enum erate
encoder KL
found ation
å¸ Į
decomp osition
DateTime Field
ĠStorage Options
ĠVAL ID
éĶ Ļ
Ang le
[ ()]
i at
ë ¦
Ġre used
um fpack
() ")<
Ġg old
mat htext
Ġy a
Ġpre pared
AT IVE
Ġcomp ut
De vType
Py dantic
Array ToBST
') ")
EX IST
hand ling
Ġte e
Ġsign atures
Ġauto complete
Ġrot vecs
Ġwrit able
ĠInitial izes
WAR D
represent ation
å¾Ĺ åĪ°
Ġwave lets
Ð°Ð½Ð¸ Ñı
ĠND Frame
adam w
æ£ Ģ
$\ {
å¿ħ é¡»
æ® µ
Ġdatat ype
ç®Ģ åįķ
nod ot
PrePost DevType
C ertificate
I ENT
S eg
Ġs am
ĠC Parser
ub les
Ġun structured
ant age
AT UR
32 0
ĠUn der
Ġinter actions
log ged
the y
normal ization
spect ral
cv t
Ġredu cing
ĠModel s
ĠDtype Obj
Ġadv anced
ĠlengthOf LastWord
adv anced
VIDE D
Ġê°ľ ìĪĺ
pwn am
PREFER RED
, ,
A MS
B A
a es
ro uting
Ġb st
ch ase
Ġis SameTree
ĠL ow
Ġstr m
able Body
ĠR edirect
Ġv t
po logy
Ġget pwnam
ĠU R
pen se
ns ures
Ġtorch tune
ne i
Ġab bre
Ġgraph ics
Ġfa ces
Do cuments
II I
90 4
Ġemail s
ĠSub classes
edi ff
Ġge ometric
ĠUnsupported VersionError
MET A
ĠGit Hub
ĠOb tain
wind ableBody
Ġmarsh al
facebook research
Ġíĺ Ħìŀ¬
ç»Ļä½ł ä¸Ģä¸ª
MIS MATCH
ĠUnre windableBody
Ġgetgr nam
ĠUnrewindableBody Error
3 12
L T
O GR
r x
ì ĺ
ol in
is neginf
el ines
co efficient
Ġ0 6
ĠA v
py cache
ĠF ire
Ġwith draw
per fect
Ġ""" `
IN ED
Ġup loaded
Ġ"" .<
Ġnon linear
Ġli dx
LI G
Ġindi rect
TR AIN
common s
ĠCh rist
fl ash
space Characters
Enum Value
From End
å¾ Ī
Ġph oto
å¤§ äºİ
ĠQt Widgets
condition s
Bot tom
Ġìłķ ìĪĺ
ĠìŀĪ ëĬĶ
rity Error
ç ¾
Ġ# #<
res sing
Ġex pensive
ci Ã³n
ang ent
form ers
base dir
Ġsub dir
St ation
cy clic
amp a
nn z
åı Į
Text Field
win api
imp licit
skip s
Cache Key
Start ing
pub lished
Conflict ing
attrib s
ÑĥÑİ Ñī
agin ator
éª Į
æ° ´
) ï¼Į
) ``,
2 10
2 64
S ay
Z ip
Ġ ).<
Ġp ing
un structured
Ġan imal
up grade
Ġx Max
######## ##<
iter values
Ġ| \
=[ (
ĠCom m
cli mb
freq str
ĠArray s
ĠDE F
ĠLink s
lm ir
REQU EST
aaaa aaaa
ç« ¯
ISS ING
D emo
U Offset
h y
m ises
æ ¸
Ġt ty
Ġd ask
ex a
Ġfor ever
che str
ĠR ED
ĠE quality
amb iguous
000 9
Ġsize of
AN N
Ġwhere as
ĠOpen Type
Ġoff ers
ĠImage Draw
ĠTra ce
sk ills
Ġdot ted
Ġìŀ Ĳ
ĠSkip To
Sparse Array
",".",". ","
peak s
ä»» æĦı
Ġhist or
Ġestab lished
Ġcertifi cates
ĠArt ist
caff old
ril lic
h ore
l list
t l
} ({
ĠP ID
Ġe time
Ġ. *
max Profit
Ġsub directories
node list
Py gments
work book
Ġneed les
Ġreg ions
now ait
æľ ª
44 4
JSON Error
ĠCO CO
Ġhighlight er
('. /
âĶĢâĶ ´
Parent heses
Ġìłķ ëł¬
Ġdow nsample
ĠRandomized Set
ç¦ »
W STR
d ag
f light
â ĭ
è İ·åıĸ
from keys
Ġfor warded
=" ^
out side
Con st
RE AL
ĠQ Color
Ġpri mitive
av y
axis artist
æľ Ł
ĠTra in
ĠIN DEX
Install ing
scatter gl
Pass Arg
ĠNe arest
çī ĩ
åĽ¾ åĥı
probab ility
lz ma
_ ]\
or land
Ġ" )"<
ri an
ht able
sh utdown
ĠSt ufft
Ġì ¢
Ġ-------- -<
)- >
Ġ16 0
ĠTra verse
ĠMod ula
Ġappropri ately
ĠStart Response
High light
Ġconsist ency
SCHE MA
ĠPri ority
Ġ'* ',
ĠOper ations
Ġescap ing
ĠFIL TERS
icular ly
" [-
+ )(
: **<
H tml
L lama
T AB
U gly
e se
at tempt
le e
ab ab
Ġint ensity
(" ;
ĠP ay
Ġar rows
pro vision
tr l
Ġle ts
Ġro ugh
ast ian
ind ptr
RE ADME
Ġcontain ers
Ġsh uff
Ġsh rink
open er
Ġlib c
has attr
åĢ ¤
ĠMod ify
ĠUp load
ç¬¬ ä¸Ģ
ĠMetadata Generation
ball s
mix er
Ġpercent age
Push Button
Tz Info
lowest CommonAncestor
Mix In
tre emap
ê¹Į ì§Ģ
ĠMetadataGeneration Failed
: /
D ays
G ra
k ur
r partition
s av
ì ª½
Ġre striction
Ġin file
Ġst air
Ġde queue
ĠM SV
Ġpy xel
]) .<
Ġ4 096
comp liant
iter ations
Ġ[" .
den om
length Of
Ġany where
del tas
Ġhash set
ä½ Ļ
ĠCh annel
è¯ Ŀ
Ġfig ures
cheb yshev
Ġshift s
Ġconstructor s
clo sure
Te legram
ĠPh one
Annot ation
Combin ations
Ġå¯ ¹
æıĴ åħ¥
FAV ORITE
) ``<
D uration
V ehicle
a ffine
d iterima
í ģ
cl ongdouble
Ġ[ ]:<
ĠC B
test ed
ĠB ert
eg gs
not ice
ĠUn iversity
Ġper imeter
work day
TT ER
Model Admin
ãģ ĵ
ie u
ĠFile ExistsError
Ġsearch Insert
>""" ,<
Or Bytes
sv m
tt f
Ġpost ing
Float Tensor
ĠDate Offset
calcul ator
å¤ļ å°ĳ
ĠPart ition
Ġregard ing
Scalar Type
Mis c
hig her
Ġsan ity
OrBytes Path
" `
L ang
S tri
_ :<
g ammain
Ù Ĭ
re cur
Ġin ferred
Ġs lot
Ġe ig
ĠD ATA
to uch
Ġdi serang
Ġy Max
ĠIn f
Ġkey val
ĠCon versation
Ġ... '<
run nables
av atar
Ġrandom ly
AD D
Ġcast ed
ãĤ Ĭ
ĠPass word
Sorted List
Ġum ath
Login View
bur st
anth ropic
! '<
) [:,
: "<
C loud
f w
i y
m ber
in ria
de claration
Ġs parray
Ġm ile
type codes
ĠD DP
** (-
Ġsub graph
abel le
ĠName Validator
Ġrect angular
ĠMarker List
Ġsn ip
ĠCLIP TextModel
ĠåĪ Ľå»º
Used Container
Ġadv ance
Ġtan pa
cently UsedContainer
ĠPOS IX
ĠFancy Getopt
= ()):<
> ~~~~~~~~~~~~~~~<
P ALETTE
s lope
de rers
ri p
get TreeBuilder
Ġex cess
time it
pen alty
lic ed
sc anned
comp anion
Ġsub list
ĠSe lector
ĠUn likely
pos ite
Ġexp m
ĠAr ithmetic
Ġ9 3
ĉĉ ĉĉĉ
ä» ·
hash map
template itemname
Token Formatter
Ġskip ping
AP H
éĩ ĳ
ĠAuthor ization
mult is
ĠGEOS Exception
EXTR A
ĠOptimize Result
ĠRout e
Ġå½ ĵ
ĠLik ely
S pecifi
V ec
g lyphs
is closed
di a
Ġe uler
Ġde sktop
ĠM E
ĠM atches
Ġdi e
01 1
Ġmax Ctx
sc at
base Pen
Ġtemp orarily
UT TON
Ġ9 98
arg o
0000 000
datetime index
JSON Tag
ìŀ ħ
SP ACE
Ġhex adecimal
OPT IONAL
tok dict
Ġ"| ".
ĠSource Distribution
certifi cates
MAPP ING
METR ICS
signs pace
ĠSER VER
/ '))<
? """<
U C
d od
n w
le aves
ĠS n
Ġres ume
Ġme th
eg atron
Ġ`` {
inter rupt
og ene
ĠQ Label
opt imal
To Many
now flake
diff users
ĠMulti ply
non an
ä¹ ĺ
Ġest imators
Ð± Ð¾ÑĤ
10000 00007
Ġprobab ilities
armor Standar
ii i
Simple TestCase
Ġisland s
Ġmanag ers
Spe ech
ĠGre edy
Execution Context
ĠSent ence
Ġprovision al
" *
f ac
p unycode
Ġc reso
yp ow
ĠE q
back fill
row id
parent heses
Ġdiff usion
chain ed
NO K
Ġå ĩ
æĪ ¿
Ġ'# '
FIX ME
expand ing
Cre ating
âĸ Ī
ĠTrans action
Ġhome page
Ġprerequis ite
Ġmarg inal
COMPAT IBLE
Cha pter
. ]*
P i
d ask
w ell
à ª
Ģ ë¡ľ
re write
st udio
at an
)< =
ro g
li ance
ĠC ell
ĠP r
=" __
Ġ`` **
bo ost
iter ables
Ġsub script
Ġinst allable
") ),
IC K
Ġì ĭ¤
dis covery
the se
Ġenum eration
cent ric
Message Content
ik o
desc r
CL UDE
================================================================ ========
ĠST AT
è§£ æ³ķ
Axis Error
Ġadjust ed
reat est
Ġri sk
Ġmembers hip
ĠVAL UES
Ġ1234 5678
cla imer
> $
P ure
P adding
W arn
[ @
[ ['
c func
d q
i ment
u j
} .")<
se ats
de construct
Ġm utation
ĠS core
ĠC I
ile ges
ĠO DE
pa let
ER ATORS
lat tr
ne ither
ĠSe lection
ak a
"] ].
Ġ8 192
ĠX t
Ġë ĮĢ
Ġ16 384
80 7
cho lesky
Ġsave point
ĠDi vide
Ġperson s
amer as
Ġbas ically
Ġparticular ly
Attr s
ä¹ĭ éĹ´
åĨħ åŃĺ
ALPH A
' ]]
D id
K V
p ascal
| |
__ ':
pe l
li de
ap lacian
-------- -
Ġse quential
Ġh f
ĠD uplicate
ĠR IGHT
ĠM ongo
]) ]
not ification
node Type
St uck
Ġ6 55
Ġpl aintext
atter y
Ġ"< {
doc format
Ġpol icies
cat alog
Ġlink ing
GE O
Pre trained
Ġfail ures
ĠSub array
Ġ'../ ../
ĠâĶ Į
åŃĺ åĤ¨
ĠTimeout s
æĸ¹ å¼ı
>======== =====<
STAT IC
ç±» åŀĭ
ĠåĪ Ŀå§ĭåĮĸ
attPower Standar
Compat ibility
Ġsear ched
' [^
a ix
Â ¿
à §
Ġf riendly
Ġf ashion
as px
un ify
py asn
ĠP CG
ĠF lags
01 8
St ones
temp ts
Ġlog ged
sp here
Ġfa ir
ĠDo ubly
Ġ{} ).
ĠID NA
}) ".
ãĤ ¤
oper and
Ġmove Zeroes
pay ment
Ġconf usion
ĠÐ± Ñĭ
ĠFore ignKey
ĠRemote NotFoundError
allo ons
ATTRIBUT ES
, \
A ffine
B ul
c ertificate
Ġis su
ĠS ch
ĠS pec
ĠL a
Ġh s
Ġres cale
Ġk ill
ĠE quivalent
ĠCo okie
fe ather
Lo ading
coding Error
=[ ]):<
Ġhand shake
ĠX Z
Ġlevel Order
ĠZ MQ
Ġ'. ':<
Ġlook ed
56 7
Ġteam s
Method Error
Function Type
ĠAR CH
cheb der
Ġbackground character
Ġìł ľ
00000000 00000000
CCompiler Error
sli der
Ġinject ed
AST ER
Ġpers istent
arc cos
ĠVAR I
ĠInline Keyboard
ĠPhysical Quantity
) ").
3 000
5 35
B eats
F OL
c double
d key
Ġre ar
Ġ0 3
ime s
Ġ% \\)<
Con crete
da emon
Ġz s
Ġextra Candies
Transform ation
Ġí ĥ
IR C
Ñī Ð°
pacity Validator
æ¨¡ åĿĹ
nom bre
Ġoauth lib
Ġlan gs
" /
? ([^
A W
A m
G D
G IN
P unct
r uler
Ġd rag
Ġw d
Ġw orth
Ġ[ ^
file types
us hes
Ġun a
PI mage
ÑĤ ÑĢÐ¸
Ġì ĥ
ĠHTTP Adapter
An aly
Char m
Read TimeoutError
"} :<
éĤ »
Ġkth Smallest
Ġè İ·åıĸ
Ð¾Ð· Ð²
monos pace
NEW LINE
ë¯ Ģë¡ľ
é¦ ĸ
C ENT
F MT
S Q
] ()<
k owski
| \.
Ġ ä¸º
Ġs ong
Ġs lower
Ġb n
ĠC la
ile nce
ic icle
to y
ĠM ed
key board
01 00
sole te
Ġapp le
Ġq k
Ġcurr Sum
RO WS
rt f
Ġcolor map
typ ically
ĠGet ting
ĠResponse Error
ĠBad ZipFile
tk inter
Ġreach able
Ġquick ly
ĠResource Reader
gebra ic
Ġê³ µ
ĠNa ive
" ``.
5 37
C airo
F UNC
H IGH
i maging
t pl
Ġ ridx
re cipes
un c
th readed
ĠC lip
Ġco mpletions
ĠO UT
con strained
my labels
Ġper mitted
ĠDataFrame s
reg istration
Ġcache able
âĶ Ĥ
Ġ202 5
ĠDistutils InternalError
ĠInter active
We ek
Ġpresent ed
é¢ĺ åı·
Ð°Ð½ Ð½Ñı
Ref Sys
Ġapprox imat
6666 66
ĠCLIP Tokenizer
Ġentryp oints
éħį ç½®
Ġder ive
aria DB
TOO LS
) ',<
c ern
t iger
Ġf id
Ġre dis
Ġg one
Ġde s
ĠO THER
Ġlo ve
Ex ceptions
Ġro ads
32 7
text Validator
ĠÐ Ķ
ĠBase HTTPError
Ġ8 4
Ġqu bits
Ġbet as
è¯ Ĩ
ç»Ħ åĲĪ
ĠDis patch
Ġendi f
Ġì¶ Ķ
æł¹ èĬĤçĤ¹
) `.<
K HR
O UR
P ickle
h appy
m fc
t cp
de legate
Ġis dir
th ickness
ĠF Compiler
Ġdi a
Ġdi visors
ĠG ot
OR IZ
Ġ6 60
pi ke
Sub tree
Ġå Ĩ
Stream ing
80 8
ĠAdd ing
è¯ »
ĠIO Loop
åį °
Ġph rase
Stat istics
Specifier Set
Ġ~ =
èĢ Ĺ
rec array
ĠTimeout StateError
Traceback Type
inger print
ĠMON TH
Near by
. ]
U BE
a head
Ġt riton
Ġp run
en ation
Ġis nan
Ġto pological
ĠS ampling
ĠN E
ĠA CT
Ġname prep
ĠRe cent
Ġcheck sum
Ġiter ated
ĠBase Module
lower key
Ġbinary Search
Al ready
33 3
bot s
Ġsample d
Ġcalcul ating
sn ap
lev ation
Det ail
Ġprotocol s
ĠCustom er
white list
Ġcent ers
Ġblue print
Ġdispatch er
éĥ½ æĺ¯
satis fies
Te am
ĠCF RequestHandler
Ġalphanum eric
ĠCatch ing
2 30
M AT
V ICE
s id
ext ent
ĠD ST
ĠList s
Ġpy doc
Ġle f
os pace
ĠH ome
bo unded
Ġid n
Ð° Ð¶
Ġobj s
idx s
Int o
ĠPro perty
ĠImage Font
Ġtag ged
Ġpop ulation
QU AL
Trans pose
Wheel Cache
ĠBack wards
bra ce
ĠState Block
Ġplay ing
ĠSing leton
éĽĨ åĲĪ
éĶ ®
Ġìľ Ħ
Den ied
ĠMor sel
aur ant
CONSTRAINT S
z ed
í ĥĿ
Ġd ust
Ġse mi
Ġl z
Ġ: ].
array like
red dit
Ġpath names
max x
Ġz order
ĠBase Message
Ġedge color
Ġbound aries
Ġnd arrays
Ġshow Info
ĠAB I
tool bar
Build System
trun c
Ġda mage
every thing
ĠCSR F
âĨ ĳ
icip ant
Ġidn adata
% )<
G PU
M agics
S lice
b anded
l ua
r ls
v ote
x r
st ale
st udy
at ivity
Ġin lt
Ġs rid
Ġb b
un quote
># ################
te ctions
Ġsub tle
raw l
For ce
(- (
åı Ĭ
Ġbot o
contain ing
Ġtar info
ĠRet ries
Log ic
iso format
DEF INED
mime types
Ġìķ Ĭ
Ġcompli ant
Vi T
ĠGu ide
ĠTracker Id
R FC
c itations
Û Į
ro bo
Ġas set
Ġma gnitude
Ġget opt
ĠW ait
tri cks
Value Validator
Ġtra versable
ib ling
Ġover riding
40 6
Ġå ¾
API View
DI GIT
Number Of
}) '<
Ġeval uator
Ð´ Ðµ
display hook
PAR ALLE
Ġinternal s
WAR N
Ġtimestamp s
ĠContext Var
Load s
Resource Error
logs umexp
UB LE
Ġinher its
ĠExt Type
MPLE X
Ġ"(" :<
è®º æĸĩ
Ġ////////////////////////////////// ////////////////////////////////
F allback
M ail
d g
v owel
Â ¼
as anyarray
th resh
Ġh h
ĠM O
Ġpro viders
ĠG CD
plot s
back port
Ġcom mut
xy xy
ĠCol on
EL U
Event Loop
ÑĢÐ° Ð²
Read y
SV G
ND Interpolator
Ġadapt ers
Ġstar lette
Ġæī Ģ
TIC KET
+ ")<
- *.
: |
N R
i ents
t ran
t alk
in crease
ot os
ĠS EM
ĠA ug
Ġth resh
Ġcomp act
Ġext ending
Ġsource code
abc abc
vis ibility
Ġbuild sys
ven ience
Ġthere of
ĠIN SERT
Group s
ÑĢÐ° Ð½
web p
ĠAuto levParser
COMP LE
Ġmaint ains
sq f
}} ",<
Lazy Object
Domain Matrix
ĠGeometry Field
MAPP INGS
BuildSystem Details
( #
A lpha
F N
S alary
W T
z lib
Â ¡
Ġp wn
an ies
def inite
Ġw ww
Ġ( [[
id ing
Ġco vers
Ġg ithub
`` ::<
path items
32 6
ĠK ind
du ction
AN SI
ĠSt ata
Not ification
state ments
]* $
En able
Data Parallel
åĩ ı
Ġident ified
Ġcalcul ates
Pl us
Encoding Error
ĠUnix CCompiler
Cls Head
ambig uity
marg in
åŃ¦ ä¹ł
ĠDiff usion
A UTO
J an
O racle
a ws
b irth
Ġ ~~~~~~~~~~~~~~<
on als
Ġp m
Ġre call
Ġs ctype
ĠS S
Ġl am
ĠF ood
Ġpro portion
Ġhe lps
im o
gg able
Ġout liers
Ġign oring
At tempt
Image Classifier
(? =\
Found ation
ĠResponse Not
integ ral
ĠSimple Namespace
trun cated
Ġho pe
Requests Warning
æĽ´ æĸ°
ãĥ³ ãĥ
Ġmer ging
ĠBO OL
Mid dle
Ġextreme ly
. .<
2 75
G UI
q sl
Ñ į
Ġ= []<
__ "<
is os
ĠS cope
ap on
Ġ* (
Ġex change
Ġal bum
data model
ĠG en
ber ta
Ġpre sence
Ġkey ed
CH ANGE
RE POSIT
Ġdis claimer
100 1
IS H
22 337
Ġproject s
No Color
ank s
Ġconstruct s
è§ Ĩ
Ġweb page
Entry Point
rp Type
ï¼Ł <
ĠDecor ate
REPOSIT ORY
b yshev
l able
Ġi v
Ġc url
ra ble
lo sing
ce stors
ĠP alindrome
Ġh or
Ġh map
ĠD ot
Ġ""" ``
file object
]) ),
:// ``
ry lov
ĠE moji
text srcValidator
load txt
ĠJ un
assertEqual s
ATE G
client s
Ġmerge TwoLists
Qu ot
ĠBe fore
sn r
HTML Parser
lv l
ingre dient
commut ative
Nth FromEnd
ĠTooMany Redirects
Ġ998 244353
" --
B FS
G n
b ag
in dependent
on mises
Ġre members
Ġin gre
ch y
Ġh orizontally
Ġ{ **
ĠB order
ĠB eta
Ġen ded
Ġat an
ĠCo ordinate
not hing
led ispatch
Ġne i
av id
lex sorted
Ġsort Array
tmp file
ECT ION
Ġprodu cing
Ġdat aloader
effect ive
Callback View
ĠOP EN
memo ize
Ġbg color
Integ ers
ĠCandidate Lookup
Ġcolour s
icol on
ĠEOF Error
ĠMiddleware Mixin
= .
C DATA
E ratosthenes
c rackfortran
p lease
| ^
Ġi glob
Ġs kew
__ ]
Ġ' ...
Ġto ks
co efficients
get current
Ġco ol
Ġres ample
Ġx term
ci pe
=" {
Ġun able
url parse
Re pository
Ġright most
)) //
Ġany way
token type
Ġbuild Tree
bin aries
Ġoff er
math bf
Ġna ma
Meta Data
Extra Data
IF EST
Ġbig gest
ĠFrozen List
è¯· ä½ł
Ġrc Params
Ġflatten ed
Ġ================================================================= ================================================
RA W
Ġ-------------------------------------------------------------------------------- ------<
âĭ ħ
: \\
= ([
P G
W rong
f riends
l w
l aku
ĠF lag
ĠD AG
Ġro utes
os h
lic er
)) ]
Ġ7 9
pi res
Ġdis cover
Ġsh aring
open api
Ch art
ĠDict Config
Ġgroup ing
FO O
Ġsubclass ing
pad y
ĠAbstract MethodError
ë¥ ¸
ĠCur ve
SOUR CES
Ġå® ļ
ipy nb
propag ate
Ġber laku
Ġlexicograph ically
A sp
B Box
C AC
I so
g al
x f
« ìŀĲ
Ù Ī
ur istics
from records
Ġb us
ĠS olve
-------- -<
che t
ĠG ithub
OR CH
ĠPy Array
Frame Options
Ġvis ibility
Ġ'' ),<
Ġsp ans
font face
Ġinitial izer
------------ --
bs r
Def ine
ĠPre vent
ĠCO MP
ä¹ °
å¾ Į
Ġexit ing
ĠLib Error
ĠHash Missing
Ġlowercase d
Ġquant ization
ĠAd just
Auto levParser
Ġnumer al
jk l
LLM Run
ĠQuant ity
çº §
Ġdro pping
B Z
B i
d raft
d rant
} !")<
de velopers
Ġ1 13
str on
Ġme ss
ĠG IMP
read ing
Ġclass method
ne aling
Ġbu dget
ĠPython s
ĠV ision
IC AL
Ġstart up
UN SAFE
ĠInvalid Marker
extra ction
ced ure
host ed
æī ĭ
Ġcap sys
regex p
Tool kit
Ġcontrol led
Default Dict
Ġí Ļ
lr d
armor Number
Ġmult id
Ġinvert Tree
Ġvisual ize
Ġexceed s
rg ba
jack ing
ĠFORMAT TERS
Ġrequ iring
' (?:
+ (\.\
> %(
R ATE
S trict
b is
p db
p ressed
} [
Ã ĥ
Ġi l
Ġn sp
Ġs ge
ĠN ative
ĠC FF
Ġlo ud
Ġr fft
SE ARCH
Ġper mit
ts v
og en
ĠIndex ed
ia Lite
Ġtri ggers
Ġsp ines
Al most
last rowid
Ġattr name
Ġmon ospace
pat iaLite
ĠBinary Search
ĠDis joint
Range Field
Stat s
çĽ® å½ķ
Ġhome assistant
ĠTLS v
Retrie ves
ambert w
ĠRedist ributions
schedul ers
$ "<
' "{
' ``.
; ")<
E fficient
R atio
a unay
c ion
p izza
ë Ĳľ
ri ck
ame d
Ġto m
ĠC ent
ĠI ts
Ġde scriptors
con firm
lib device
Ġcon firm
ĠW ords
Ġ% }{
cept ron
back up
Base Database
Co deforces
Ġ8 2
Ġ9 4
Se lection
EX A
bin omial
Sub classes
skip If
Ġê ¸°
ĠSub sequence
custom ize
Trans fer
MS Norm
ĠStr Path
Ġexpi red
ãĥ¼ ãĥ
Ġæı Ĵ
Ġreprodu cibility
MAN IFEST
Ma jor
FrameOptions Middleware
( ([
w andb
Ġ lf
Ġ Ã©
in et
ĠF T
ub es
ant ine
ns pkg
tri vial
sub arrays
mon o
PI LED
og r
Data Error
convert To
Ġcommon ly
Ġdatabase s
Trans action
Ġunpack ing
Binary IO
>~~~~~~~~~~~~~~~~ ~<
Http lib
ĠTyp ically
POL IC
Ġguid ance
Ãº m
ĠRET URN
CAC ERT
4 95
j is
Ã İ
æ ±
Ġ ?<
ĠL inAlgError
Ġse ctions
Ġh ot
Ġos c
:// {
ĠW arnings
Ġ[' _
Ġback space
ĠQ VBoxLayout
Name Validator
ĠInt o
Ġextra ction
au ses
cent ral
ĠLo gging
ĠDistutils Arg
PD F
Ġshow ing
Ġconnect ivity
Pa inter
Per formance
mk path
ĠCall s
Ġfour th
Ġsv n
ĠSupports Int
æŁ Ĳ
å·² ç»ı
}') >"<
Ġpress ure
chestr ator
ĠDistutilsArg Error
= ',<
> --
D erivative
L icensed
P anel
_ ")<
l ain
ĠT ypes
est er
== =
get file
ĠL EX
ĠL IS
ĠL XML
Ġe ta
ĠD MP
am ine
right arrow
Ġpro j
IN VALID
Ġmax len
ĠH u
02 5
Ġtext ual
Ġ7 1
mis cellaneous
sy ste
build Tree
Time Zone
Ġ[[ ]]<
åħ ·
Ġsp in
Ġeven ly
BU ILT
]- =
Ġindic ator
men coding
ä¸ĭ ä¸Ģä¸ª
Over view
Ġrob ust
'`` ).<
éĵ¾è¡¨ çļĦ
bright ness
Select ed
Ġì¤ ĳ
3 17
C e
I FT
L ayers
l df
s moke
v g
Ø ª
ļ Į
le tes
as set
__ ',<
__ }"<
---- -
ĠL F
ĠP lay
ĠF eb
Ġde init
ĠR ES
]) *
Ġbu ffers
mon of
Ġpart y
15 5
Python Lexer
AC CESS
Ġyour formatter
Ġleg al
ĠInteger Field
Platform Warning
ĠMutable Set
Ġide al
Ġcut s
gro ff
ìľ¼ ë©´
Ġpropag ate
æ· ±åº¦
autore load
verses cale
ĠAddition ally
ĠNavigation Toolbar
syste mencoding
monof ont
> --------------------------------
D up
R AT
S chedule
b ow
c ities
g ca
n z
} ):<
Ġt iles
Ġp unctuation
it on
ge lu
urn al
di x
ĠP TH
ter ator
ĠF e
Ġle arn
ĠE dition
ĠCo mpletion
Ġclass ifiers
format ting
with draw
Ġfind all
Ġpri marily
sol vers
su itable
ĠText Reader
Me an
health Standar
Ġrepeat s
oh lc
Ġfew er
Ġevalu ates
ĠìĹ Ĩ
ĠCho ice
ĠfindK thLargest
ĠTw itter
SEM ICOLON
ĠSEM ICOLON
? )<
? ")<
A rial
S ig
a ken
b ilinear
d in
i ser
k urt
q n
v onmises
Â ³
Ð ¢
Ġ ulti
Ġp ot
ĠS AS
ĠF it
`` -
pre train
Ġle ap
Ġle aving
ir on
ark ing
cept ual
St icker
ĠAr chive
ref ine
ĠKey Press
è¿ ĳ
An chor
non ce
Tests Mixin
Ġrelative delta
ä¾ ¿
Ġextract ing
PAR T
Ġnull s
Ġbegin Word
ĠBad Request
Ġdetermin istic
mus llinux
Ġexport ed
ĠFill Type
åºĶ è¯¥
Negative InfinityType
Ġmicro seconds
Student s
Sent ence
escap ed
ĠìĪ «ìŀĲ
seter rcall
>.+ ?)-(?
################################################################################################ #########<
ChatMessage History
> ["
U rls
Ġf arthest
Ġn lp
Ġre factor
Ġ( "",
Ġas n
Ġis Empty
() ()
ĠP G
ĠM AT
([ ]))<
ag nostic
:` \
stri ctions
ĠIter ation
Al so
typ ography
ĠWhe re
Ðº Ð¾
Inter vals
Ġtmp l
ĠCON NECT
network s
contest Id
ìŀ ĳ
ĠChat Completion
ï¼ī ãĢĤ<
Ġface color
ãĥ¼ ãĥĪ
ĠResolution Impossible
moment um
anch ored
! )<
B UTTON
c xx
Ġm or
il it
ĠT qdm
Ġan im
th ings
ĠP hi
Ġlo cate
Ġdi fficult
ho pping
Ġro les
ance stor
ĠIn crement
Ġcan Jump
error bar
12 4
De bugger
Ġchar ge
ĠAr ticle
ess ian
Ġopen ssl
AB ILITY
({ },
ĠInter pol
fs path
writ es
Memory B
################################################################ ################<
('. ',
è¿Ľ åĪ¶
Man ual
Ġsubsequent ly
ëı Ļ
Ġinterest ing
è°ĥ çĶ¨
Ġrelat ively
, "<
. ]),
a ar
b al
d idx
i add
p illow
v gg
in ventory
Ġt ruck
ing w
Ġse crets
Ġl ags
ĠD an
ĠR oman
ĠIn ference
ĠH er
base string
max es
Ġadd TwoNumbers
Ġtra versing
]] =
ãģ į
ĠURL Error
Ġsearch Word
poly div
Ġca using
Ġfail ing
Pool Manager
Ġ---------------- ---<
Ġknow ledge
9999 99
Out Of
Ġguarante e
secure transport
rout ines
3333 3333
ĠìĪ ľ
Ġë³Ģ ìĪĺ
ĠREQU I
STOR AGE
\\( \\[
4 13
6 75
D og
P B
X C
s yn
an ford
Ġm ind
ode n
id a
ĠC ryptography
Ġh ull
im od
Re peat
Re corder
ĠH AND
Base Specifier
ĠBase Specifier
ĠDef ines
Ġ// ////////////////
ID C
Invalid Marker
//////// /<
åĬ Ł
ĠDis able
_. ]+")<
Build Tag
Ġ} }<
expi re
Pack er
ĠMySQL db
ĠUndefined Comparison
ĠUndefined EnvironmentName
Undefined Comparison
Undefined EnvironmentName
Ġeli gible
ĠAct ive
ĠÑģÑĤ ÑĢÐ¾Ðº
ĠZip Info
æĪĸ èĢħ
Cap ital
Traversable Resources
PRES ENT
ðĿ ĳ
Skip ping
ĠÐºÐ¾Ð¼ Ð°Ð½
"[- _.]+")<
M ID
S udoku
W x
e uclidean
n unique
p color
s pr
s Count
} .<
ç ¿
Ġt weet
Ġo mit
co pied
ub it
ĠM arch
Ġcon jugate
Ġfile size
=" ,<
Ġun et
Ġfun cs
ard ar
Ġpl ant
16 6
dis cord
Tra verse
UP LOAD
Reg istered
buf size
Ð· Ñĥ
Build ing
Ġpredi ctor
Ġlag add
Ġmac ro
gy m
Ap proach
ĠFa irseq
åģ ĩè®¾
Vari ation
ĠPos itional
ĠTOML DecodeError
Ġagg regate
Replace ment
Ġurlun split
ĠSO FTWARE
Ġpypy jit
asseng ers
ĠSec ure
Ġ////////////////////////////////////////////////////////////////// /////////<
Ġ================================================================================================================= ======<
Ġlags ub
A ge
f used
z fill
Â ±
Ġ ]+
in cr
Ġs us
es on
Ġ( \
Ġ' ')
Ġh av
', )<
Ġoper ands
Ġline cache
AS N
Ġdifferent ly
ĠAt trs
press ure
SG IS
Ġselect ing
ĠÐº Ð¾Ð½
Ġbin omial
æĿ Ł
Range s
å¾ ªçİ¯
ĠÐ¾ Ð¿
mult iline
ĠMo ving
åıª æľī
ĠSup ply
ĠInsecure PlatformWarning
**************************************************************** ************
' "):<
> --------------<
A re
F ROM
P kg
m ile
m grid
v p
w ipe
Ġ è®¡ç®Ĺ
Ĳ æłĩ
Ġc ge
Ġf ocus
ĠS af
ĠI M
am d
Ġpar dir
Ġz dir
ĠK IND
bar polar
ĠĠĠĠĠĠĠĠĠĠĠĠĠĠĠĠĠĠĠĠĠĠĠĠĠĠĠĠĠĠĠĠ ĠĠĠĠĠĠĠĠĠĠĠĠĠĠ
Ġ{} ))<
App end
SC ALE
Ġevery where
Ġvert ically
Ġcap s
long long
Ro oms
("_ ",
Ġtrust store
ĠGroup er
hyp ot
Mock Function
Ġroll back
BL UE
PORT S
Su bject
Ġíķ ´
Mem bers
Vi olation
# ,
8 74
b ac
d dof
Ð ľ
Ġre build
ct l
as a
is finite
Ġ_ )
ĠD S
per imeter
In crement
if old
fo oter
Ġso cks
=' '<
ac cessed
ken neth
AN A
ĠCom bin
åĲ Ħ
From String
+) \
Ġ'* ':<
Post gres
Diffe rent
Ġrand range
äº¤ æį¢
ĠCir cular
ä»» ä½ķ
ĠCor rect
ldf lags
' ``,
( (),
S olver
d al
r split
u ss
Ġ ram
re itz
"" )<
Ġimport ance
ran ger
pre cedence
lic ated
max iter
mod s
ĠAl gorithms
Ġsearch Matrix
Ġ{} ),<
aut hentication
ĠAuto encoderKL
pc g
Ġconv ex
ĠÐ½ Ñĥ
Ġê° Ļ
Ne ural
åıª èĥ½
jac ency
Ġfo cused
ĠìĹ °
æ· »åĬł
VARI ABLE
Ġkn apsack
kenneth reitz
B P
D onald
E urope
F K
S uggest
V P
b ubble
c z
d onald
h ang
s x
Ġc ss
Ġp rng
li ms
ma cs
Ġex ercise
Ġco v
Ġtest Write
ĠM c
ĠB reak
Ġsub package
Ġup grade
work flow
Se cret
rit ic
Ġskip Unless
ĠMy TestCase
Ġpatch ing
Ġrelease s
Per fect
ĠEn coder
Ġip v
å¾ Ģ
Ð· Ð°
Temp lates
Ġdimension al
Ġìŀ ĳ
Does nt
frozen set
AA AA
got o
Align Method
ĠPix el
arct anh
Kw args
LN K
Ġulti mat
t utor
Ġp alindromes
ĠT erm
ran ce
Ġde bt
to x
pre ference
pre fs
Ġme mor
red undancy
OR TH
Ġstring ify
Base IE
mon go
____ <
____ ___<
Ġbo unded
(* ,
Ġbreak s
sl ardar
56 6
Ġmock ATW
fft pack
MAX N
quant ized
ĠStream TTY
å· ¥
retri ever
ĠIs Dict
Fore ign
Â· Â·
SHA KE
Ġho le
assertNot Wrapped
Place holder
Ġë² Ī
COS X
ĠMedian Finder
Doesnt Wrap
Ġultimat ely
) >=
A rc
S i
Ê Ł
Ø ¯
Ĵ Ģ
de codable
pe ts
un do
un less
00 22
Ġde clar
ĠO k
In struction
ho c
Ġ4 01
EC TED
ĠSe quential
ST REAM
Ġiter atively
ĠTest Solution
graph viz
ating Lexer
struct s
tz str
els ius
Key Dictionary
var name
Ġdel tas
Ġaut henticated
ja cobian
Ġcat s
fast er
Ġê° ģ
IE W
ìł Ĳ
ANT S
ĠWith out
lineno start
ĠTri angle
ĠCre dentials
Â£ Â¬
Ġë°© ë¬¸
Ġsymlink s
Ġhal ves
ogene ous
ÑĤÑĢÐ¸ Ð±
) (_
B er
r q
Â ¶
á Ī
Ġre start
Ġin consistent
__ =
Ġo op
ri age
Ġ[ "<
Ġ2 24
di f
di ce
ve led
do ption
pre ad
64 00
Ġbu ff
ding Window
float s
000 6
ĠBase LanguageModel
Ġconfig urable
pol ars
mal low
Ðº Ñĥ
has is
tick ets
Ġimp act
limit ations
Ġident ifies
Ġmulti array
39 5
ĠÑģ Ð¾
æķ°ç»Ħ çļĦ
Factory IterableView
ĠHttp Request
stit ute
Ġrep licate
Ġvoid Elements
âĶĢâĶ ¼
Ġmus llinux
ev t
çī Ī
Ġep isode
Ġíķ ľ
rust ed
âĨ ĵ
oct et
tech ies
dns name
YO LO
Parsed Version
TAR GET
RESPON SE
resso bj
palet tes
Ġpwn lib
isos urface
E ASTER
F ood
] ;<
b zip
c raft
n il
t ornado
Ń ä»£
er as
Ġc pl
Ġf used
Ġn bins
Ġs pos
as hed
Ġb w
ĠT orch
Ġ' )'
Ġis Subsequence
od o
ĠL ANGU
Ġex cluding
Ġde cl
con currency
ĠB LOCK
Ġmax split
ĠH ER
gu ild
no italic
20 8
FI ED
CON NECT
AP PL
Ġlongest Consecutive
Matrix Error
ĠÐº Ð¾ÑĤÐ¾ÑĢ
ëĭ ¨
Ġmonth s
Prompt Type
å·¦ åı³
ĠNe eded
Exit Stack
Ge om
dri vers
oph antine
cud nn
D A
n os
u dp
Ġ ÑĢ
re peating
st ufft
ot Base
Ġis Str
ĠL ower
ĠD ir
to ver
ĠG MPY
ĠG LOB
]) ",
01 4
ĠW ed
text file
Ġ.. ._
Ġ7 3
UL AR
Ġrepresent ations
tz res
]* \
Ġinstall er
è¿ Ńä»£
Ġtz res
Pre processor
commun ic
tick et
car ry
ĠDistribution Version
Ġdescrib es
ĠPart icularly
HOST S
Ġlm v
Ġsuggest ion
ban ana
uby te
Ġspect rum
ĠSeparateBody FileCache
ĠSpinner Interface
Ġ~~~~~~~~ <
Ġsubtra ction
C PP
H uman
I SD
P CF
S igma
f ds
z ation
st ft
st ood
de partment
Ġf v
Ġd sy
Ġw arm
Ġ( ["
est imators
ĠS patiaLite
end ara
and atory
ĠP allets
Ġe res
Ġde partment
Ġv ote
fo cus
url join
Ġinput hook
fix up
param ref
Lo cale
Ġab ility
Ġword Break
Ġser ves
Ġ"" """"<
Key ring
24 1
comm er
Ġæ ³
Ġcalcul ations
IM IT
DEPREC ATION
Memory Error
åĽŀ æĸĩ
Template Error
Byte Size
Ġretrie ving
Ġface fusion
?) |
è¿ŀ æİ¥
ĠÑĦ ÑĥÐ½Ðº
ç©ºéĹ´ å¤įæĿĤåº¦
Ġgues sed
endara an
' ><
A CH
N AN
b ypass
g uest
o ve
y ticks
å ĭ
at en
Ġt end
ri ct
Ġg ates
ĠR edu
ĠM er
Ġy Min
line aro
ĠSe ed
St one
St ores
ï¼ ģ
Ġne igh
ĠCon dition
ĠAr g
ĠBase LayoutHierarchyType
ĠY EAR
+= (
Tuple s
ĠURL Fetch
ĠFile Mode
Ġquery ing
ĠTra vis
36 85
Ġjoin ing
ĠValid ation
ĠTrans fer
Location ValueError
"(\ .
ãģĹ ãģ¦
Ġ------------------------------------------------------------------------ -<
ĠImp licit
OLUT ION
ĠRecent Counter
ĠisStr Space
commer cial
linearo perator
P hoto
R F
f requent
j d
x pt
Ð ĺ
Ķ Ħ
re ject
un roll
ĠR ay
In creasing
=" .
ĠE IGHT
Ġsub Root
=[ ])<
Ch rome
Ġneed ing
sche mes
Ġperiod ogram
30 7
}) ?
é¢ Ħ
scatter polar
è§£ åĨ³
nb ins
retri eval
Edge s
Ġmaintain ed
Ġcontour s
è®¾ è®¡
åĲ¦ åĪĻ
ĠAssert s
ĠRedis Cache
ĠåĽ ł
ĠæĹ ¶
E OF
_ ',
n in
o logy
Å Ł
Ġf ee
an nounce
Ġd u
Ġm lp
Ġ( (-
ap pro
ĠP en
ĠP KG
#### <
Ġcon cern
Ġr y
pa use
cont ra
Ð¾ Ðµ
inter change
Ġì ¡°
close Path
Ġcolor ize
Ġdt ickrange
ĠĠĠĠĠĠĠĠĠĠĠĠĠĠĠĠĠĠĠĠĠĠĠĠĠĠĠĠĠĠĠĠ ĠĠĠĠĠĠĠĠĠĠĠĠĠ
ĠRes ize
mor let
Ro om
37 0
Ġprecision Bits
keyp oints
72 34
ffff ff
pie ces
Glyph Metrics
Ġ"âĸ Ī
Ġefficient ly
íĺ ķ
Ġcart esian
relations hip
tear down
seto pt
âĨĳ âĨĳ
" -
8 76
I mpro
_ ]<
c book
e ous
k ml
r ho
mp s
Ġre petition
Ġd oll
Ġb ur
un ge
th ousands
ĠS A
ĠC al
ĠP ossible
00 10
Ġx b
ĠB in
(' +
te le
Con ditional
ĠEx pires
): :<
Base Provider
ĠK nown
ĠNot ice
Ġq cut
Ġargs ort
vers ible
oo st
TE MP
ĠComp uter
Ġunique ly
Ð¼ ÐµÑĢ
ua wei
Ġtick er
[^ /
gre y
Ġmedi um
ĠLegacy Specifier
Auto matically
å¿ «
ĠâĶĤ âĶĤ
éļ ı
Men lo
Ġtom li
F lips
H BoxLayout
Ñ Ĺ
ï ½
Ĳ ",
Ġm colors
ex pl
li pt
Ġ0 4
() }")<
ĠI T
Ġg pu
am t
), )<
Ġro ad
col late
log o
11 6
sp lom
Ġ& &
Data class
ĠComp onent
ierarch ical
full argspec
Ġ'- ',
Ġ25 3
Ġrecord ing
ìŀ ¡
hyp othesis
Ġparagraph s
Indi vidual
Assert Prints
Ġrestrict ed
phan Path
Ġastero ids
Effect ive
potent ial
' ")
2 32
Ġt ip
mp lot
Ġis Prime
get Jumlah
(" ~
ĠP an
Ġlo se
ĠE C
SE E
ĠDe c
Ġsho p
check ed
Ġtra cing
no me
AN S
\\ \\
Ġrender ables
Sy m
íķ ¨
Ġ~~~~~~~~~~~~~~~~ ~~~~~~~~~~~~~~~<
ĠNo Emoji
mor p
END POINT
\. (\
Control Type
Control Code
scatter geo
Ġtermin als
And Text
à¸ Ļ
super class
irt ual
æ¯ı æ¬¡
Opt imize
Ð½Ð¾ Ðµ
Ġ"âĸ Ĳ",
ĠâĶľ âĶĢâĶ¼
-]+ ?)-(?
ĠWARRANT IES
íĺ ¸
Uni q
ĠOverflow Method
ĠNT LM
ĠTerminal Theme
Retrieval Module
SING LE
cvt Color
ĠâĶľâĶĢâĶ¼ âĶ¤
A waitable
N X
m illi
r us
Ġ EN
Ġ Ñĸ
re com
Ġw a
Ġ( ("
ĠN PY
ĠC ity
Ġex e
pro vided
ĠM L
Ġun escape
ac lose
ters mith
av x
ãģ ı
Ġvis ion
18 8
Ġcho lesky
æľĢ å¤ļ
ĠColor System
utc now
åĪĨ åĪ«
ĠÐ¸ Ð½
æłĩ è®°
ĠLock File
Named TemporaryFile
Ġmeaning ful
DAT ASETS
ĠSpatial RefSys
Resolution Error
Ġspect ral
Ġë¹ Ħ
bic ubic
THREAD S
Ġpyqt Signal
- ",
B ivariateSpline
D a
S UN
i rectory
j ython
Ġf ish
Ġm varfmt
is ation
Ġ[ --
ĠS ta
ĠL argest
ĠO dd
ĠM T
In compatible
Ġun iversal
url conf
Ġpre processing
Lo aded
ST ORE
For bidden
åĪ Ľå»º
Config Type
13 9
man ip
aut henticated
Ġblock ing
regex es
Multi Graph
MULT I
ĠRO WS
Ġqual ified
Ġobstacle Grid
Typ ing
substitution s
S itemap
\ [
d k
n largest
{ %
Ġ æľī
Ġn l
__ '<
Ġb x
ĠC ha
ĠC losed
ĠD ays
ĠB i
Ex act
Ġmax points
). "<
dir ty
comp act
cache able
çļĦ ä½įç½®
Ġover writing
mod al
exp iry
Ġcolumn Number
Sy mbols
ĠUnicode Error
ĠST DOUT
wi den
LOC ATION
ĠWeb Driver
Ġdr ink
Could n
SM ALL
åĲį ç§°
Isl and
196 80
PROTO COLS
FOL LOW
Ġì¶Ķ ê°Ģ
Ġ"""`` --
) ][
b ined
b ell
b lend
p iler
x Min
Â ¸
Ġ à¦
al ist
Ġre view
Ġs ine
id ue
ĠD ES
list lib
per formance
([ ])
ĠU NIX
out file
ĠG RO
** *
ĠH ar
ĠH KEY
ich ael
Ð° Ð³
run s
Ġinit i
author ize
ĠID LE
ĠID NABidiError
Ġfactor ization
Ġdelete Node
ĠParser Error
bi ased
å¯ Ĩ
major ity
Cre ator
Ġinorder Traversal
ĠFigure Manager
intern et
Ġoverlap s
Mat plotlib
æŁ¥ æī¾
Ġparametriz ation
æĮī çħ§
sun burst
ĠInvalidCodepoint Context
confli ct
scat tersmith
ISD IR
19680 801
) }\
Q Widget
V L
W I
a led
b atches
c ors
j wt
z i
¼ åħ¥
Ġ ĉĉ
Ġ ulabel
Ġl on
Ġl lava
Ġnot ify
Ġst ay
Ġx r
Ġal abel
Ġme ng
ĠW erkzeug
ren dered
ĠDe leg
temp orary
Ġdis allowed
For Smallest
Ġvalid ating
ä¸Ģ å®ļ
fit ted
Of Eratosthenes
Ġmerge Sort
Ġ19 2
Zero DivisionError
ĠSome times
]| [
ĠNamed Morphism
ä¹ĭ åīį
orient ation
urname nt
å± ŀ
Ġsieve ForSmallest
ĠComplete Dirs
ĠOverflow Error
Delet ed
Ð¾Ð·Ð² ÑĢÐ°
Uniq Char
ĠsieveForSmallest PrimeFactor
. ::<
: [
: ``
P lay
W D
\ (\
d ft
r w
r one
ar se
Ġc ff
Ġn ans
ur lf
Ġd w
Ġ# ################
di vision
py dot
ĠP auli
Ġst re
Ġ: )<
ĠR ob
ĠW H
Ð° Ñģ
Ġunder stood
stat istics
Ġact ivity
Ġpol l
down loader
game s
oauth lib
çŃ ¾åĪ°
Ġrespect ive
Ġrepeated ly
(", ")]<
Ext Type
Ġinterest ed
Ġroman ToInt
Condition Model
Calcul ator
ATTR S
Ġ+--------+---------------- ------+<
Effective Level
> :<
? ',
G NU
[ __
w k
} ``
ç ı
ê ±°
se rif
at omic
ar pack
Ġn Ãºm
from string
Ġb la
um ing
ĠN V
qu xx
and re
Ġse l
Ġe ff
Ġde mand
(' ------
iter merged
tri ang
") ._
Ġtemp oral
Ġac quire
=[ ('
AS GI
Sub Class
ĠCh rome
ä¸º ç©º
loy d
ĠBu ilt
Trans lator
æŃ ¢
ĠLinear Ring
gon ometric
Local Type
water fall
åĬĽ æī£
Ġê³ Ħì
Ġeigen values
Ġlaunch er
ĠDAT ASETS
Ġìĭľ ê°Ħ
ĠChunk ed
Cli mbing
Oc currences
iron python
urlf etch
/ @
h arm
t el
u str
st reak
st icks
it r
__ !
ot ify
ap a
ĠL CA
ma zon
Ġde crement
par ity
`` ),
set Up
lib geos
if e
ĠW E
32 5
la de
Ġformat date
arg parse
Ġconvert ers
Com bine
real kind
Ġob solete
Per form
ĠQu arter
\. )?
Ġes pecially
alo gs
TC P
ĠRecurs ively
ĠBST Iterator
BLOCK SIZE
Ġhamming Weight
ĠLoose Version
$ '<
I ssue
T en
m appings
n Answer
v anced
é Ł
Ġ Ø§ÙĦ
"" ""
Ġs copes
Ġ" ...
Ġ' )',
ĠA mb
ĠA lembic
for ced
ĠB lob
Ġpro tection
ĠCo ord
pp ings
ĠK le
check out
çļĦ æĺ¯
bin op
number Of
ĠSet FileAttributes
ĠInt ern
Get s
Ġref lection
IP S
ĠSy mmetric
ĠFormat Error
ĠABC DataFrame
TF lags
Ġcompress or
ĠNull Highlighter
Ġtre ew
Defaults HelpFormatter
Ġtrick y
Ġëª¨ ëĵł
ĠProto buf
UOffset TFlags
B AR
C lock
D uck
F rozen
c up
x path
} %
as df
ex pert
is k
ic orn
Ġl sm
Ġh orse
per f
Ġpro grams
Ġpro totype
Ġpy right
ta k
col ab
Ġapp ends
Ġ8 3
write str
CO PE
Ġsplit ting
auto commit
Group er
scatter carpet
MON DAY
Ġsig ns
Ġstride s
å¯¹ äºİ
åĿ Ĳæłĩ
GEOS CoordSeq
repl aced
æľĢåĲİ ä¸Ģä¸ª
ì¤ Ģ
ĠOutOfBounds Datetime
A U
B ATCH
a us
st h
Ġf y
co g
ist ance
Ġv ers
AT est
De codingError
Pro gramming
RE AK
Ġtra il
20 3685
Ñģ Ð»Ð¸
find ers
ĠString DType
Ġli e
Sub rs
man age
Ġæ Ģ
Sy ntax
Ġcy clic
Ġ'< ..
ĠDi Graph
IM ulti
Ġbyte ord
scatter ternary
ìĹ ¬
same file
Package Set
CR IME
çŁ Ń
Ġradi ans
Ġfrequent ly
ĠAv ailable
ĠChrist ian
22337 203685
('------ ')<
22337203685 47
A ugment
m cs
in cremental
en ed
as ite
as ible
es c
Ġd ps
li que
ĠT en
ĠS izes
ĠC SI
Ġh uawei
Ġal though
Ġme as
ĠG ate
Ġcol late
ĠH ub
Ġz igzag
çļĦ æĹ¶åĢĻ
Ġ[[ ],
ann ess
FA ST
current ly
Comp onents
[...]
