{"<s>":0,"<pad>":1,"</s>":2,"<unk>":3,"<mask>":4,"!":5,"\"":6,"#":7,"$":8,"%":9,"&":10,"'":11,"(":12,")":13,"*":14,"+":15,",":16,"-":17,".":18,"/":19,"0":20,"1":21,"2":22,"3":23,"4":24,"5":25,"6":26,"7":27,"8":28,"9":29,":":30,";":31,"<":32,"=":33,">":34,"?":35,"@":36,"A":37,"B":38,"C":39,"D":40,"E":41,"F":42,"G":43,"H":44,"I":45,"J":46,"K":47,"L":48,"M":49,"N":50,"O":51,"P":52,"Q":53,"R":54,"S":55,"T":56,"U":57,"V":58,"W":59,"X":60,"Y":61,"Z":62,"[":63,"\\":64,"]":65,"^":66,"_":67,"`":68,"a":69,"b":70,"c":71,"d":72,"e":73,"f":74,"g":75,"h":76,"i":77,"j":78,"k":79,"l":80,"m":81,"n":82,"o":83,"p":84,"q":85,"r":86,"s":87,"t":88,"u":89,"v":90,"w":91,"x":92,"y":93,"z":94,"{":95,"|":96,"}":97,"~":98,"¡":99,"¢":100,"£":101,"¤":102,"¥":103,"¦":104,"§":105,"¨":106,"©":107,"ª":108,"«":109,"¬":110,"®":111,"¯":112,"°":113,"±":114,"²":115,"³":116,"´":117,"µ":118,"¶":119,"·":120,"¸":121,"¹":122,"º":123,"»":124,"¼":125,"½":126,"¾":127,"¿":128,"À":129,"Á":130,"Â":131,"Ã":132,"Ä":133,"Å":134,"Æ":135,"Ç":136,"È":137,"É":138,"Ê":139,"Ë":140,"Ì":141,"Í":142,"Î":143,"Ï":144,"Ð":145,"Ñ":146,"Ò":147,"Ó":148,"Ô":149,"Õ":150,"Ö":151,"×":152,"Ø":153,"Ù":154,"Ú":155,"Û":156,"Ü":157,"Ý":158,"Þ":159,"ß":160,"à":161,"á":162,"â":163,"ã":164,"ä":165,"å":166,"æ":167,"ç":168,"è":169,"é":170,"ê":171,"ë":172,"ì":173,"í":174,"î":175,"ï":176,"ð":177,"ñ":178,"ò":179,"ó":180,"ô":181,"õ":182,"ö":183,"÷":184,"ø":185,"ù":186,"ú":187,"û":188,"ü":189,"ý":190,"þ":191,"ÿ":192,"Ā":193,"ā":194,"Ă":195,"ă":196,"Ą":197,"ą":198,"Ć":199,"ć":200,"Ĉ":201,"ĉ":202,"Ċ":203,"ċ":204,"Č":205,"č":206,"Ď":207,"ď":208,"Đ":209,"đ":210,"Ē":211,"ē":212,"Ĕ":213,"ĕ":214,"Ė":215,"ė":216,"Ę":217,"ę":218,"Ě":219,"ě":220,"Ĝ":221,"ĝ":222,"Ğ":223,"ğ":224,"Ġ":225,"ġ":226,"Ģ":227,"ģ":228,"Ĥ":229,"ĥ":230,"Ħ":231,"ħ":232,"Ĩ":233,"ĩ":234,"Ī":235,"ī":236,"Ĭ":237,"ĭ":238,"Į":239,"į":240,"İ":241,"ı":242,"Ĳ":243,"ĳ":244,"Ĵ":245,"ĵ":246,"Ķ":247,"ķ":248,"ĸ":249,"Ĺ":250,"ĺ":251,"Ļ":252,"ļ":253,"Ľ":254,"ľ":255,"Ŀ":256,"ŀ":257,"Ł":258,"ł":259,"Ń":260,"ĠĠ":261,"ĠĠĠĠ":262,"ĠĠĠ":263,"in":264,"ĠĠĠĠĠĠĠ":265,"or":266,"se":267,"><":268,"re":269,"on":270,"er":271,"st":272,"at":273,"Ġt":274,"Ġ=":275,"Ġi":276,"de":277,")<":278,":<":279,"Ġa":280,"le":281,"čĊ":282,"mp":283,"al":284,"ro":285,"me":286,"he":287,"ort":288,"ar":289,"\"\"":290,"Ġc":291,"mport":292,"Ġf":293,"ion":294,"--":295,"ĠĠĠĠĠĠĠĠĠĠĠ":296,"lf":297,"self":298,"Ġp":299,"Ġn":300,"an":301,"en":302,"Ġre":303,"it":304,"Ġin":305,"ut":306,"ur":307,"ct":308,"Ġs":309,"):<":310,"as":311,"ing":312,"def":313,"rom":314,"ge":315,"__":316,"Ġimport":317,"es":318,"Ġo":319,"Ġd":320,"ra":321,"Ġthe":322,",<":323,"from":324,"ed":325,"lo":326,"Ġm":327,"nt":328,"Ġb":329,"ex":330,"ol":331,"\"\"\"":332,"pe":333,"Ġ\"":334,"urn":335,"Ġw":336,"turn":337,"Ġself":338,"li":339,".<":340,"ri":341,"Ġdef":342,"----":343,"ame":344,"Ġreturn":345,"um":346,"ce":347,"ot":348,"Ġ1":349,"ue":350,"int":351,"Ġ-":352,"il":353,"ĠT":354,"Ġfor":355,"un":356,"ass":357,"ode":358,"\"\"\"<":359,"import":360,"Ġ#":361,"Ġif":362,"Ġan":363,"ser":364,"ul":365,"ck":366,"Ġ(":367,"str":368,"Ġas":369,"ad":370,"is":371,"cl":372,"ch":373,"est":374,"val":375,"Ġ'":376,"ĠĠĠĠĠĠĠĠ":377,"Ġis":378,"]<":379,"Ġ[":380,">#":381,"pt":382,"==":383,"el":384,"Ġto":385,"th":386,"fi":387,"ĠS":388,"one":389,"ype":390,"ate":391,"co":392,"id":393,"ĠN":394,"ist":395,"class":396,"name":397,"ers":398,"Ġof":399,"ab":400,"up":401,"\",":402,"##":403,"ap":404,"Ġ0":405,"ht":406,"ext":407,"ult":408,"get":409,"Ġ2":410,"ation":411,"()":412,"Ġ+":413,"ran":414,"qu":415,"ĠĠĠĠĠĠĠĠĠĠĠĠĠĠĠ":416,"od":417,"ĠA":418,"sert":419,"ment":420,"Ġand":421,"ase":422,"ĠC":423,"._":424,"Ġint":425,"ath":426,"Ġ<":427,"()<":428,"di":429,"put":430,"ata":431,"Ġ\"\"\"<":432,"end":433,"py":434,"ĠL":435,"ma":436,"Ġ_":437,"--------":438,"ile":439,"(\"":440,"ror":441,"ont":442,"ĠI":443,"ith":444,"Ġth":445,"Ġstr":446,"ction":447,"ke":448,"ic":449,"and":450,"Ġ==":451,"Ġ__":452,"ĠP":453,"Ġse":454,"Ġ->":455,"Ġ*":456,"ption":457,"ime":458,"ĠNone":459,"Ġl":460,"ray":461,"res":462,"Ġex":463,"ve":464,"all":465,"ter":466,"type":467,"len":468,"ack":469,"gs":470,"Ġe":471,"ig":472,"iz":473,"for":474,"et":475,"Ġnot":476,"Ġco":477,"00":478,"ĠF":479,"yp":480,"Ġnum":481,"Ġh":482,"Ġg":483,"Ġres":484,"ĠD":485,"],":486,"Ġst":487,"',":488,"ver":489,"able":490,"))<":491,"dex":492,"~~":493,"ent":494,"__(":495,"====":496,"list":497,"ect":498,"rror":499,"rint":500,"Error":501,"Ġassert":502,"che":503,"am":504,"Ġu":505,"pl":506,"Ġ:":507,"Ġ.":508,"\")<":509,"Ġde":510,"par":511,"range":512,"mple":513,"test":514,"ĠO":515,"bj":516,"Ġval":517,"Ġbe":518,"Ġx":519,"Ġar":520,"``":521,"init":522,"Ġor":523,"age":524,"to":525,"ĠR":526,"Ġnp":527,"util":528,"Ġwith":529,"ly":530,"\"<":531,"ub":532,"ution":533,"Ġtest":534,"rue":535,"ip":536,"####":537,"Ġfrom":538,"ator":539,"per":540,"ys":541,"Ġlo":542,"ght":543,"con":544,"pro":545,"Ġma":546,"Ġ3":547,"ĠM":548,"do":549,"app":550,"Ġv":551,"args":552,"Ġ\"\"\"":553,"po":554,"),":555,"ise":556,"ces":557,"ine":558,"set":559,"])<":560,"der":561,"Ġdi":562,"ize":563,"mat":564,"unt":565,"Ġ{":566,"right":567,">>":568,"ft":569,"em":570,"path":571,"tr":572,"ersion":573,"Ġrange":574,"ci":575,"array":576,"//":577,"lib":578,"que":579,"ool":580,"ss":581,"Ġy":582,"olution":583,"ure":584,"alse":585,"ĠB":586,"ore":587,"else":588,"('":589,"num":590,"Ġcon":591,"Ġr":592,"qual":593,"Ġlen":594,"In":595,"utils":596,"ĠList":597,"Ex":598,"art":599,"rent":600,"ord":601,"bject":602,"Ġprint":603,"Ġfile":604,"vi":605,"([":606,"Ġal":607,"Ġname":608,"(<":609,"ang":610,"lot":611,"=\"":612,"key":613,"pre":614,"Ġme":615,"Ġpro":616,"Ġget":617,"Ġpy":618,"file":619,"Ġit":620,"\",<":621,"us":622,"Ġelse":623,"Ġtyp":624,"Ġhe":625,"ag":626,"ew":627,"ule":628,"pect":629,"ps":630,"Ġlist":631,"ff":632,"'<":633,"Ġthat":634,"pa":635,"mpy":636,"Ġon":637,"Ġresult":638,"ree":639,"com":640,"ho":641,"data":642,"ca":643,"odel":644,"Ġk":645,"rib":646,"raise":647,"----------------":648,"so":649,"Ġle":650,"eg":651,"Ġj":652,"sed":653,"thon":654,"Ġby":655,"im":656,"code":657,"rap":658,"Ġcont":659,"odule":660,"Ġro":661,"ĠThe":662,"Ġun":663,"fig":664,"Val":665,".__":666,"time":667,"ain":668,"if":669,"ĠSolution":670,"thod":671,"Ġ)<":672,"Ġ@":673,"ault":674,"')<":675,"form":676,"ĠU":677,"Ġwh":678,"Ġnums":679,"gg":680,"fo":681,"out":682,"ĠG":683,"Ġtyping":684,"pected":685,"Ġset":686,"ary":687,"~~~~":688,"Ġfun":689,"ments":690,"ay":691,"equal":692,"low":693,"),<":694,"ast":695,"ance":696,"Ġcol":697,"ĠĠĠĠĠĠĠĠĠĠĠĠĠĠĠĠ":698,"Ġare":699,"Ġcl":700,"rame":701,"pen":702,"assert":703,"ctor":704,"htt":705,"Ġ+=":706,"om":707,"IN":708,"umpy":709,"ind":710,"\":":711,"iv":712,"te":713,"ber":714,"ir":715,"index":716,"os":717,"Ġos":718,"append":719,"kw":720,"():<":721,"ens":722,"========":723,"mo":724,"Ġthis":725,"])":726,"ok":727,"None":728,"ty":729,"our":730,"lic":731,"Ġmat":732,"Ġsys":733,"ity":734,"input":735,"url":736,"quest":737,"arn":738,"ha":739,"Ġvalue":740,"Ġ``":741,"ta":742,"Ġ`":743,"ĠFalse":744,"Ġdata":745,"und":746,"ĠTrue":747,"ptional":748,"Ġ4":749,"ings":750,"loat":751,"01":752,"Ġch":753,"ive":754,"ated":755,"ues":756,"**":757,"col":758,"eld":759,"ĠIn":760,"ies":761,">\"\"\"<":762,"Ġmax":763,"Ġexpected":764,"ample":765,"Ġpar":766,"plot":767,"cont":768,"kwargs":769,"Ġ**":770,"]:<":771,"ĠRe":772,"Ġdo":773,").":774,"Ġpre":775,"Re":776,"://":777,"his":778,"########":779,"Ġen":780,"Ġat":781,"ill":782,"Ġcur":783,"}<":784,"ry":785,"ĠH":786,"Ġ>":787,"read":788,"ĠW":789,"ener":790,"ctions":791,"np":792,"dir":793,"ms":794,"uple":795,"Ġ%":796,"Ġnode":797,"ble":798,"red":799,"..":800,"ild":801,"ER":802,"OR":803,"Ġcan":804,"Ġ5":805,"Ġinput":806,"())<":807,"Ġsup":808,"ant":809,"ust":810,"valid":811,"sing":812,"plit":813,"ON":814,"sc":815,".\"\"\"<":816,"ther":817,"True":818,"print":819,"orch":820,"().":821,"[\"":822,"Ġraise":823,"fun":824,"ite":825,"value":826,"EN":827,"bu":828,"ations":829,"ptions":830,"andas":831,"ial":832,"Ġ(<":833,"qui":834,"Ġtime":835,"Ġnumpy":836,"version":837,"Ġwe":838,"Ġpip":839,"ow":840,"ern":841,"Ġ>>":842,"base":843,"ns":844,"port":845,"Ġtype":846,"',<":847,"AT":848,"utput":849,"ĠE":850,"][":851,"Ġarray":852,"error":853,"ark":854,"https":855,"Ġpath":856,"ĠCo":857,"ĠĠĠĠĠĠĠĠĠĠĠĠĠĠĠĠĠĠĠ":858,"mage":859,"size":860,"comp":861,"ard":862,"Ġ>>>":863,"Ġpandas":864,"ield":865,"ute":866,"stance":867,"bo":868,"cept":869,"ĠPy":870,"Type":871,"Ġwhe":872,"ypes":873,"fix":874,"Ġtm":875,"rans":876,"Ġ[]<":877,"cess":878,"heck":879,"ny":880,"ĠOptional":881,"pon":882,"split":883,"ax":884,"Ġindex":885,"not":886,"dict":887,"add":888,"min":889,"ded":890,"Ġclass":891,"ight":892,"10":893,"Ġhas":894,"dd":895,"ango":896,"emp":897,"Con":898,"Node":899,"result":900,"ĠThis":901,"Ġso":902,"Ġbool":903,"cur":904,"jango":905,"ses":906,"gth":907,"Ġdf":908,"Ġobject":909,"EC":910,"yn":911,"ask":912,">)<":913,"ll":914,"Ġkey":915,"count":916,"back":917,"64":918,"left":919,"da":920,"ace":921,"iter":922,"son":923,"max":924,"atetime":925,"peci":926,"ä¸":927,"nums":928,"Ġwhile":929,">@":930,"ou":931,"ren":932,"Ġsub":933,"map":934,"ix":935,"line":936,"core":937,"raph":938,"Ġdtype":939,"cs":940,"Ġroot":941,"Ġdist":942,"Ġpytest":943,"Ġright":944,"],<":945,"mand":946,"op":947,"Ġstring":948,"ader":949,"Ġmin":950,"Ġall":951,"32":952,"lat":953,"dtype":954,"act":955,"='":956,"arget":957,"item":958,"parse":959,"Ġdefault":960,"orm":961,"Ġtorch":962,"ink":963,"ac":964,"model":965,"fe":966,"Ġcode":967,"CH":968,"ne":969,"pp":970,"object":971,"text":972,"Ġother":973,"method":974,"Ġans":975,"next":976,"ign":977,"uld":978,"Ġno":979,"word":980,"Ġpass":981,"Ġ|":982,"ponse":983,"Ġ<=":984,"ING":985,"ress":986,"Ġ[\"":987,"ork":988,"info":989,"SE":990,"Ġcomp":991,"Ġ..":992,"oin":993,"attr":994,"roup":995,"vel":996,"ave":997,"cre":998,"ense":999,"ition":1000,"Ġuse":1001,"tri":1002,"main":1003,"string":1004,"uth":1005,"abel":1006,"PE":1007,"ception":1008,"ken":1009,"Valid":1010,"node":1011,"types":1012,"Ġmodule":1013,"False":1014,"Ġpa":1015,"Ġversion":1016,":`":1017,"))":1018,"Ġnew":1019,"rix":1020,"uct":1021,"Ġleft":1022,"Value":1023,"Ġnumber":1024,"vert":1025,"param":1026,"atch":1027,"Ġwill":1028,"are":1029,"iven":1030,"trib":1031,"pace":1032,"ict":1033,"Ġlogg":1034,"!=":1035,"ĠDe":1036,"Ġcount":1037,"ound":1038,"List":1039,"02":1040,"Ġarr":1041,"cal":1042,"ools":1043,"Ġcheck":1044,"Ġ/":1045,"pyright":1046,"ssage":1047,"ĠEx":1048,"instance":1049,">#<":1050,"ries":1051,"ates":1052,"pack":1053,"Ġz":1054,"Ġpo":1055,"Lo":1056,"dist":1057,"Ġbu":1058,"load":1059,"config":1060,"ange":1061,"row":1062,"ernal":1063,"ĠSe":1064,"12":1065,"hape":1066,"dent":1067,"St":1068,"dom":1069,"Ġfunction":1070,"sub":1071,"ding":1072,"[:":1073,"mb":1074,"ctory":1075,"ak":1076,"Ġdjango":1077,"Ġid":1078,"ĠAny":1079,"her":1080,"ES":1081,"format":1082,"cache":1083,"ters":1084,"join":1085,"YPE":1086,"):":1087,"mplement":1088,"Ġsho":1089,"Ġcolle":1090,"AR":1091,"Ġ10":1092,"Ġmethod":1093,"pr":1094,"root":1095,"we":1096,"Ġsy":1097,"Ġ!=":1098,"ĠĠĠĠĠ":1099,"dow":1100,"ï¼":1101,"random":1102,"ory":1103,"pecifi":1104,"ally":1105,"by":1106,"tes":1107,"':":1108,"ource":1109,"].":1110,"sum":1111,"Index":1112,"Ġ6":1113,"quen":1114,"Validator":1115,"module":1116,"ep":1117,"uture":1118,"ache":1119,"ml":1120,"start":1121,"ifi":1122,"ich":1123,"Ġhttps":1124,"float":1125,"Frame":1126,"arch":1127,"ĠPython":1128,"led":1129,"frame":1130,"~~~~~~~~":1131,"ream":1132,"sole":1133,"Ġhead":1134,"ail":1135,"rite":1136,"Ġab":1137,"eries":1138,"req":1139,"pop":1140,"Ġinst":1141,"ĠV":1142,"func":1143,"tra":1144,"Ġsuper":1145,"Ġtry":1146,"Ġne":1147,"lif":1148,"Ġend":1149,"--------------------------------":1150,"rc":1151,"ach":1152,"mark":1153,"Ġfloat":1154,"\")":1155,"Ġdire":1156,"ĠÐ":1157,"arr":1158,"ions":1159,"Base":1160,"\"]<":1161,"inal":1162,"date":1163,"ĠReturn":1164,"Ġmatch":1165,"ĠUn":1166,"IC":1167,"ari":1168,"cation":1169,"'s":1170,"Co":1171,"Ar":1172,"Ġused":1173,"with":1174,"The":1175,"================":1176,"mon":1177,"df":1178,"Ġtext":1179,"ECK":1180,"Ġuser":1181,"Ġisinstance":1182,"AL":1183,"ĠCon":1184,"gments":1185,"Ġdict":1186,"De":1187,"ical":1188,"CHECK":1189,"eger":1190,"Ġup":1191,"ick":1192,"ST":1193,"ors":1194,"Ġiter":1195,"-<":1196,"ators":1197,"ĠIf":1198,"ron":1199,"Âł":1200,"quire":1201,"stra":1202,"((":1203,"rid":1204,"Ġax":1205,"ataFrame":1206,"Ġstart":1207,"Ġurl":1208,"its":1209,"Ġlogging":1210,"wo":1211,"Ġadd":1212,"amb":1213,"Ġpl":1214,"arning":1215,")):<":1216,"internal":1217,"ME":1218,"Ġext":1219,"Pro":1220,"user":1221,"endor":1222,"Ġrequest":1223,"perty":1224,"head":1225,"Ġmodel":1226,"Ġcollections":1227,"ValueError":1228,"''":1229,"orted":1230,"lement":1231,"\"]":1232,"gu":1233,"Ġchar":1234,"Ġcurrent":1235,"Ġvalues":1236,"reate":1237,"nd":1238,"Ġtarget":1239,"ĠK":1240,"ints":1241,"inary":1242,"################":1243,"lock":1244,"ull":1245,"sent":1246,"PI":1247,"Ġword":1248,"pos":1249,"Ġ['":1250,"Test":1251,"['":1252,"vent":1253,"']<":1254,"plotly":1255,"future":1256,"Ġwhich":1257,"default":1258,"gor":1259,"values":1260,"Ġonly":1261,"cu":1262,"ambda":1263,"ĠTest":1264,"irst":1265,"la":1266,"Ġtemp":1267,"vendor":1268,"Ġexp":1269,"yle":1270,"ransform":1271,"Ġdatetime":1272,"Ġshould":1273,"DE":1274,"ved":1275,"raises":1276,"ines":1277,"CHECKING":1278,"RE":1279,"my":1280,"pytest":1281,"Ġexcept":1282,"Ġcom":1283,"Ġparent":1284,"Ġinter":1285,"gger":1286,"LE":1287,"den":1288,"Ġ[<":1289,"ĠĠĠĠĠĠ":1290,"check":1291,"log":1292,"Ġone":1293,"like":1294,"tring":1295,"Ġsum":1296,"Ġ\\":1297,"ans":1298,"case":1299,"Py":1300,"Ġbase":1301,"Ġper":1302,"Ġcontain":1303,"Ġelif":1304,"Ð¾":1305,"____":1306,"ero":1307,"Ġformat":1308,"\":<":1309,"Ġback":1310,"Ġpart":1311,"Ð°":1312,"Ġ7":1313,"ng":1314,"ĠCopyright":1315,"File":1316,"quence":1317,"imum":1318,"ey":1319,"[-":1320,"'t":1321,"Ġgener":1322,"adata":1323,"edit":1324,"ide":1325,"length":1326,"UT":1327,"Ġerror":1328,"series":1329,"ĠTYPE":1330,"Ġwhen":1331,"Ġfind":1332,"temp":1333,"indow":1334,"tribute":1335,"Ġhave":1336,"Ġany":1337,"use":1338,"lob":1339,"allable":1340,"Ġpos":1341,"late":1342,"Ġsee":1343,"ts":1344,"000":1345,"lient":1346,"Ġplot":1347,"place":1348,"Ðµ":1349,"inter":1350,"Ġsu":1351,"Ġfirst":1352,"ject":1353,"çļ":1354,"ols":1355,"scri":1356,"Ġoutput":1357,"Ġgiven":1358,"çļĦ":1359,"raw":1360,"ulti":1361,"api":1362,"Ġout":1363,"property":1364,"ION":1365,"arnings":1366,"Ġapp":1367,"Cont":1368,"Ġpd":1369,"cond":1370,"obj":1371,"Ġoper":1372,"ormal":1373,"Ġtra":1374,"ĠDataFrame":1375,"ible":1376,"11":1377,"anag":1378,"Ġitem":1379,"work":1380,"ĠAr":1381,"Ġyou":1382,"Ġusing":1383,"izer":1384,"ync":1385,"og":1386,"wer":1387,"Ġmo":1388,"ĠSeries":1389,"Ġobj":1390,"cor":1391,"ĠBase":1392,"Ġtree":1393,"http":1394,"ler":1395,"Ġ8":1396,"mis":1397,"ĠNot":1398,"TT":1399,"Ġq":1400,"otal":1401,"ual":1402,"ery":1403,"Ġconfig":1404,"(_":1405,"igh":1406,"Ġ9":1407,"arg":1408,"Ġline":1409,"ĉĉ":1410,"reg":1411,"Ġunder":1412,"parent":1413,"Ġ>=":1414,"gn":1415,"json":1416,"IT":1417,"ĠQ":1418,"Input":1419,"pi":1420,"Ġread":1421,"Ġac":1422,"clu":1423,"stat":1424,"rect":1425,">_":1426,"utf":1427,"sh":1428,"move":1429,"del":1430,"Ġms":1431,"anager":1432,"Array":1433,"ribution":1434,").<":1435,"idth":1436,"license":1437,"Res":1438,"names":1439,"ins":1440,"idx":1441,"ilter":1442,"asses":1443,"cy":1444,"coding":1445,"Ġdp":1446,"pol":1447,"Ġqu":1448,"amp":1449,"ĠType":1450,"color":1451,"ĠReturns":1452,"new":1453,"request":1454,"ash":1455,"Ġsupport":1456,"cket":1457,"Ġidx":1458,"try":1459,"Ġlog":1460,"group":1461,"Ġcontext":1462,"edge":1463,"Ġsize":1464,"python":1465,"Par":1466,"ug":1467,"viron":1468,"=[":1469,"Ġstack":1470,"lose":1471,"process":1472,"stall":1473,"write":1474,"Ġmust":1475,"cls":1476,"Ġsource":1477,"Ġlang":1478,"Ġrun":1479,"ec":1480,"Ġdis":1481,"return":1482,"Int":1483,"uto":1484,"label":1485,"stri":1486,"ĠJ":1487,"Ġresponse":1488,"16":1489,"copy":1490,"kip":1491,"nection":1492,"Exception":1493,"proble":1494,"mit":1495,"shape":1496,"du":1497,"ww":1498,"tadata":1499,"ĠY":1500,")]<":1501,"atter":1502,"Output":1503,"Ġser":1504,"ameters":1505,"ib":1506,"99":1507,"Ġ...":1508,"Ġcache":1509,"__(<":1510,"ures":1511,"ze":1512,"Ġspecifi":1513,"ĠFor":1514,"present":1515,"ackage":1516,"exer":1517,"gest":1518,"level":1519,"no":1520,"For":1521,"ĠTime":1522,"ĠTuple":1523,"plotlib":1524,"run":1525,"db":1526,"Ġannot":1527,"ffer":1528,"reeNode":1529,"Equal":1530,"ative":1531,"Ġsh":1532,"ĠIter":1533,"]]":1534,"Ġ-*":1535,"atase":1536,"msg":1537,"Ġ{<":1538,"tail":1539,"rence":1540,"ined":1541,"Ġpri":1542,"bers":1543,"Ġplotly":1544,"abc":1545,"Name":1546,"AN":1547,"vice":1548,"char":1549,"wa":1550,"org":1551,"Ġcall":1552,"Ġnext":1553,"Ġmessage":1554,"Ġtwo":1555,"open":1556,"itle":1557,"ram":1558,"vide":1559,"ï¼Į":1560,"ess":1561,"of":1562,"')":1563,"Ġdiff":1564,"\"),<":1565,"Ġvalid":1566,"Ġcase":1567,"vis":1568,"nan":1569,"sort":1570,"testing":1571,"lect":1572,"Ġ._":1573,"Ġopen":1574,"ĠDef":1575,"Ġbut":1576,"Ġ\"\"":1577,"token":1578,"io":1579,"Ġjson":1580,"Ġfiles":1581,"ctools":1582,"lease":1583,"ensor":1584,"ĠUnion":1585,"ized":1586,"options":1587,"ner":1588,"sol":1589,"su":1590,"ĠPar":1591,"Ġ{}<":1592,"tx":1593,"verse":1594,"let":1595,"context":1596,"Ð¸":1597,"****":1598,"av":1599,"Ġhand":1600,"Ġeach":1601,"IO":1602,"uthor":1603,"items":1604,"ENSE":1605,"Ġlength":1606,"Ġannotations":1607,"ÑĤ":1608,"iod":1609,"html":1610,"ICENSE":1611,"alled":1612,"Ch":1613,"Set":1614,"other":1615,"env":1616,"Ġrow":1617,"Ġ//":1618,"TTP":1619,"order":1620,"ĠSt":1621,">__":1622,"cale":1623,"ify":1624,"Ġnames":1625,"validators":1626,"stack":1627,"reak":1628,"Ġcreate":1629,"Ġwarnings":1630,"stem":1631,"Dict":1632,"cri":1633,"25":1634,"Ġbo":1635,"ong":1636,"SS":1637,"ĠX":1638,"Ġ200":1639,"ĠDict":1640,"delta":1641,"Ġover":1642,"latform":1643,"pri":1644,"mplex":1645,"assertEqual":1646,"(*":1647,"tools":1648,"keys":1649,"\"])<":1650,"ension":1651,"ends":1652,"Ġargs":1653,"'''<":1654,"rapper":1655,"message":1656,"Not":1657,"Ġì":1658,"output":1659,"GL":1660,"Ġyield":1661,"umn":1662,"ceptions":1663,"ĠLICENSE":1664,"]]<":1665,"Ġdoes":1666,"ID":1667,"201":1668,"ql":1669,"Ġinteger":1670,"dis":1671,"quirement":1672,"Ġsorted":1673,"old":1674,"Example":1675,"Ġdirectory":1676,"etcode":1677,"CO":1678,"Lexer":1679,"icense":1680,"loc":1681,"sy":1682,"Ġimage":1683,"Warning":1684,"stract":1685,"numpy":1686,"Ġ-=":1687,"(),":1688,"Ġfield":1689,"basevalidators":1690,"chain":1691,"ĠPro":1692,"apping":1693,"queue":1694,"Ð½":1695,"Un":1696,"bar":1697,"Ġmay":1698,"ous":1699,"SD":1700,"models":1701,"field":1702,"Ġmsg":1703,"prec":1704,"command":1705,"na":1706,"link":1707,"Ġfunctools":1708,"Ġmath":1709,"Ġneed":1710,"opt":1711,"icode":1712,"cipy":1713,"Se":1714,"/<":1715,"Ġsome":1716,"ref":1717,"ward":1718,"Ġav":1719,"Ġdistutils":1720,"tings":1721,"xy":1722,"::":1723,"Ġ{\"":1724,"Ġmid":1725,"Ġcopy":1726,"':<":1727,"Ġmap":1728,"build":1729,"ents":1730,"pec":1731,"utes":1732,"Ġtoken":1733,"Ġsame":1734,"Ġorig":1735,"\\\\":1736,"20":1737,"graph":1738,"Model":1739,"Ġmake":1740,"`<":1741,"Ġcls":1742,"box":1743,"0000":1744,"iteral":1745,"Ġtuple":1746,"image":1747,"Ġbuild":1748,"umber":1749,"ĠSee":1750,"sys":1751,"Ġfound":1752,"fa":1753,"ph":1754,"ailable":1755,"Ġpython":1756,"Ġimplement":1757,"state":1758,"umns":1759,"Ġmatrix":1760,"ating":1761,"Ġ--------":1762,"mail":1763,"Ñģ":1764,"md":1765,"FI":1766,"\",\"":1767,"UL":1768,"function":1769,"Time":1770,"Ġrepresent":1771,"lements":1772,".,":1773,"Ġpackage":1774,"\"):<":1775,"upport":1776,"(__":1777,"Ġparse":1778,"AS":1779,"inf":1780,"leetcode":1781,"call":1782,"Ġcharact":1783,"clude":1784,"Ġap":1785,"package":1786,"sche":1787,"Return":1788,"Ġargu":1789,"Ġrequi":1790,"style":1791,"ware":1792,"foo":1793,"ãģ":1794,"RL":1795,"Ġ(\"":1796,"æķ":1797,"(-":1798,"matrix":1799,"ataset":1800,"LO":1801,"To":1802,"struct":1803,"lean":1804,"tails":1805,"Ġ\"<":1806,"Ġstate":1807,"tuple":1808,"ORM":1809,"Ġvari":1810,"rol":1811,"Version":1812,"Ġmatplotlib":1813,"Ġcurr":1814,"Path":1815,"Ġtotal":1816,"the":1817,"ategor":1818,"wh":1819,"round":1820,"view":1821,"lower":1822,"åĪ":1823,"ĠImport":1824,"ĠCom":1825,"Ġ[[":1826,"Ġorder":1827,"gex":1828,"torch":1829,"Ġrandom":1830,"table":1831,"ÑĢ":1832,"nect":1833,"any":1834,"--<":1835,"fter":1836,"part":1837,"AB":1838,"ãĢ":1839,"Ġfol":1840,"Ġsympy":1841,"ell":1842,"axis":1843,"Ġenum":1844,"Ġpygments":1845,"RO":1846,"Ð¾Ð":1847,"prefix":1848,"Ġinto":1849,"Ġallow":1850,"nn":1851,"EX":1852,"ĠValueError":1853,"Ġexist":1854,"Ġ)":1855,"face":1856,"close":1857,"uration":1858,"15":1859,"202":1860,"Ġwork":1861,"ĠIndex":1862,"ĠPath":1863,"\"],":1864,"Ġlambda":1865,"åı":1866,"Ġinit":1867,"mal":1868,"tree":1869,"Ġgraph":1870,"bin":1871,"Ġbinary":1872,"mod":1873,"Ġreg":1874,"ead":1875,"lex":1876,"Ġbreak":1877,"Python":1878,"Ġaxis":1879,"Ġlast":1880,"ustom":1881,"Ġdate":1882,"point":1883,"Ġad":1884,"lobal":1885,"vid":1886,"ĠBSD":1887,"This":1888,"({":1889,"ister":1890,"plan":1891,"Ġmore":1892,"Ġign":1893,"Any":1894,"()))<":1895,"']":1896,"Ġnon":1897,").__":1898,"Ġmod":1899,"play":1900,"eat":1901,"Ġtypes":1902,"ld":1903,"ply":1904,"AD":1905,"mpty":1906,"sp":1907,"ATE":1908,"Ġsing":1909,"ffi":1910,"repr":1911,"Ġthan":1912,"ush":1913,"ultip":1914,"Ġits":1915,"Ġwhere":1916,"find":1917,"tz":1918,"().__":1919,"files":1920,"ĠTreeNode":1921,"lass":1922,"imple":1923,"Ġter":1924,"ĠOpen":1925,"Ġvis":1926,"number":1927,"ression":1928,"AC":1929,"Ġhash":1930,"ĠCallable":1931,"parame":1932,"Ġbytes":1933,"FORM":1934,"unk":1935,"`.<":1936,"curs":1937,"Ġelement":1938,"Ġcommand":1939,"exp":1940,"now":1941,"Ġdetails":1942,"Ġfunctions":1943,"coder":1944,"andid":1945,"most":1946,"amples":1947,"upt":1948,"ĠĠĠĠĠĠĠĠĠĠ":1949,"__)<":1950,"ĠSet":1951,"iler":1952,"ribut":1953,"rial":1954,"parser":1955,"strip":1956,"ĠName":1957,"lay":1958,"ĠString":1959,"problems":1960,"ÂłÂł":1961,"sour":1962,"::<":1963,"Ġload":1964,"cument":1965,"lp":1966,"compat":1967,"Ġlevel":1968,"ĠImportError":1969,"\".":1970,"ody":1971,"Ġparser":1972,"olve":1973,"Ġmain":1974,"Ġconvert":1975,"doc":1976,"untime":1977,"ĠLicense":1978,"dim":1979,"compile":1980,"rt":1981,"Ġcolor":1982,"Ġscipy":1983,"stant":1984,"100":1985,"ĠDist":1986,"Ġlabel":1987,"ting":1988,"Ġdiffe":1989,"Ġact":1990,"uage":1991,"Ġsolution":1992,"errors":1993,"ĠGener":1994,"bool":1995,"ssion":1996,"hand":1997,"PY":1998,"ference":1999,"Ġwas":2000,"ĠInt":2001,"Implement":2002,"åħ":2003,"target":2004,"ann":2005,"String":2006,"Ġ\"__":2007,"stamp":2008,"ique":2009,"Ġinstance":2010,"ENT":2011,"Ġ100":2012,"vironment":2013,"except":2014,"exceptions":2015,"Ġli":2016,"whe":2017,"Ġ('":2018,"bytes":2019,"NA":2020,"lication":2021,"iew":2022,"ĠText":2023,"Ġunit":2024,"Ġ12":2025,"ĠĠĠĠĠĠĠĠĠ":2026,"æľ":2027,"ERS":2028,"precated":2029,"rary":2030,"Ġextra":2031,"Ġ]<":2032,"els":2033,"duct":2034,"les":2035,"Ġcor":2036,"txt":2037,"})<":2038,"Ġpol":2039,"Col":2040,"Ġedit":2041,"Com":2042,"ie":2043,"match":2044,"âĶ":2045,"sign":2046,"ular":2047,"wise":2048,"KE":2049,"FORMAT":2050,"ML":2051,"Ġfollow":2052,"datetime":2053,"source":2054,"be":2055,"14":2056,"Ġignore":2057,"scription":2058,"lambda":2059,"cript":2060,"Ġ\\<":2061,"LI":2062,"ĠKey":2063,"qa":2064,">]<":2065,"transform":2066,"æķ°":2067,"ome":2068,"Ġarg":2069,"trize":2070,"Logger":2071,"Field":2072,"etwork":2073,")))<":2074,"Ġbot":2075,"oding":2076,"fore":2077,"Ġgroup":2078,"attern":2079,"NO":2080,"ia":2081,"tributes":2082,"Ġopt":2083,"ithub":2084,"Ġitertools":2085,"Ġ):<":2086,"cat":2087,"FA":2088,"oken":2089,"ORS":2090,"Ġ&":2091,"parametrize":2092,"precation":2093,"eta":2094,"Ġfunc":2095,"ice":2096,"ven":2097,"Ġoptions":2098,"std":2099,"Ġstat":2100,"ĠZ":2101,"________":2102,"Ġcoding":2103,"ture":2104,"ility":2105,"Ġnumbers":2106,"gine":2107,"ĠAPI":2108,"rtype":2109,"rst":2110,"Text":2111,"Config":2112,"wn":2113,"encode":2114,"TH":2115,"Ġnodes":2116,"////":2117,"irs":2118,"Ġ----":2119,"Ġthen":2120,"ULT":2121,"mid":2122,"mask":2123,"Var":2124,"Ġthere":2125,"Ġnoqa":2126,"gorith":2127,"Ġstream":2128,"ization":2129,"SSL":2130,"Ġplt":2131,"mpt":2132,"aise":2133,"cli":2134,"34":2135,"]*":2136,"Ġprefix":2137,"ilt":2138,"patch":2139,"github":2140,"Ġnn":2141,"ĠHTTP":2142,"erge":2143,"dered":2144,"classes":2145,"Sum":2146,"ake":2147,"Ġtri":2148,"Ġlib":2149,"OD":2150,"Ġfast":2151,"ob":2152,"dout":2153,"vers":2154,"logger":2155,"},":2156,"Ġfreq":2157,"Case":2158,"ĠGH":2159,"UN":2160,"inition":2161,"Ġsche":2162,"Ġsuch":2163,"width":2164,"ĠAn":2165,"Ġwin":2166,"uptools":2167,"Ġ201":2168,"Ġ--":2169,"Sub":2170,"At":2171,"ĠNode":2172,"ook":2173,"Ġedge":2174,"Ġlangchain":2175,"cord":2176,"Ġlink":2177,"atab":2178,"planation":2179,"Ġmark":2180,"mode":2181,"grid":2182,"Ġfilename":2183,"lines":2184,"ĠIterable":2185,"Ġoptional":2186,"filename":2187,"over":2188,"gener":2189,"+=":2190,"ãĢĤ":2191,"current":2192,"\"{":2193,"atabase":2194,"metadata":2195,"Ġgrid":2196,"Ġheader":2197,"Ġempty":2198,"Ġcontin":2199,"how":2200,".\"<":2201,"Ġindi":2202,"script":2203,"Implemented":2204,"ĠIt":2205,"Ġhere":2206,"Ġsecond":2207,"oid":2208,"afe":2209,"En":2210,"install":2211,"Ġ*<":2212,"Ġ}<":2213,"win":2214,"Ġelements":2215,"Ġoff":2216,"sl":2217,"ä¸ª":2218,"bug":2219,"Ġfont":2220,"mory":2221,"Ġalso":2222,"ically":2223,"Ġmode":2224,"weight":2225,"Ġnx":2226,"ited":2227,"ä»":2228,"client":2229,"([[":2230,"Dist":2231,"ĠArgs":2232,"Ġparam":2233,"Ġutf":2234,"Ġhttp":2235,"gram":2236,"Ġte":2237,"}\")<":2238,"Ġstyle":2239,"Ġdfs":2240,"dle":2241,"ifier":2242,"err":2243,"MA":2244,"50":2245,"åŃ":2246,"Ġinstall":2247,"eps":2248,"================================":2249,"Ġplatform":2250,"first":2251,"abs":2252,"Ġframe":2253,"QL":2254,"wait":2255,"Key":2256,"tyle":2257,"Ġ''":2258,"Ġheap":2259,"formation":2260,"ely":2261,"Ġio":2262,"Ġbet":2263,"indows":2264,"update":2265,"off":2266,"FF":2267,"rit":2268,"ĠĠĠĠĠĠĠĠĠĠĠĠĠĠĠĠĠĠĠĠĠĠĠ":2269,"Ġdt":2270,"``.<":2271,"trans":2272,"ources":2273,"kens":2274,"ummy":2275,"blem":2276,"ween":2277,"eros":2278,"pth":2279,"src":2280,"Ġfl":2281,"plat":2282,"Ġurllib":2283,"erate":2284,"Info":2285,"Ġë":2286,"ĠListNode":2287,"Ġwords":2288,"Ġren":2289,"rectory":2290,"Data":2291,"content":2292,"Comp":2293,"---<":2294,"TR":2295,"ĠOutput":2296,"Ġexample":2297,"lags":2298,"stru":2299,"buffer":2300,"igr":2301,"\"))<":2302,"Code":2303,"ĠWe":2304,"Ġcontains":2305,"Ġali":2306,"var":2307,"omial":2308,"Ð»":2309,"cate":2310,"oo":2311,"Ġsp":2312,"24":2313,"local":2314,"Get":2315,"fg":2316,"common":2317,"Ġyour":2318,"freq":2319,"miss":2320,"################################":2321,"]))<":2322,"replace":2323,"Ġthread":2324,"Ġfa":2325,"SON":2326,"Ġent":2327,"_(":2328,"FAULT":2329,"Tra":2330,"response":2331,"Al":2332,"ĠNotImplemented":2333,"Context":2334,"\"),":2335,"Ġgetattr":2336,"au":2337,"Ġavailable":2338,"lete":2339,"([\"":2340,"Ġmy":2341,"utable":2342,"MP":2343,"ç»":2344,"Ġoperator":2345,"Ġ202":2346,"ost":2347,"ert":2348,"33":2349,"licen":2350,"ches":2351,"title":2352,"Ġencoding":2353,"Ġchange":2354,"normal":2355,"cle":2356,"search":2357,"ics":2358,"Ġret":2359,"Ġpoint":2360,"Ġcontinue":2361,"imp":2362,"Ġreturns":2363,"Ġsign":2364,"penden":2365,"rop":2366,"stream":2367,"Ġkw":2368,"Ġlike":2369,"åĲ":2370,"typ":2371,"www":2372,"aging":2373,"font":2374,"è¿":2375,"fixture":2376,"Ġlicense":2377,"headers":2378,"very":2379,"wrap":2380,"Bu":2381,"block":2382,"ä¸Ģ":2383,"ï¼ļ":2384,"Ġ-*-":2385,"rag":2386,"Image":2387,"ameter":2388,"hash":2389,"diff":2390,"Ġ-*-<":2391,"manager":2392,"Ġ\".":2393,"ategorical":2394,"Ġremove":2395,"ĠĠĠĠĠĠĠĠĠĠĠĠĠĠĠĠĠĠĠĠĠĠĠĠĠĠĠĠĠĠĠĠ":2396,"TYPE":2397,"Ġstrings":2398,"ixin":2399,"Ġenumerate":2400,"ĠĠĠĠĠĠĠĠĠĠĠĠ":2401,"ning":2402,"Ġheaders":2403,"Di":2404,"Ġmultip":2405,"ctionary":2406,"console":2407,"ssible":2408,"Tree":2409,"]+":2410,"Ġdifferent":2411,"itive":2412,"Ġdeprecated":2413,"remove":2414,"Ġevent":2415,"Ġdefaultdict":2416,"backends":2417,"ities":2418,"perator":2419,"last":2420,"Ġheight":2421,"Ġattribute":2422,"Ġcre":2423,"Module":2424,"IL":2425,"dt":2426,"ful":2427,"orage":2428,"ender":2429,"]],":2430,"=[\"":2431,"fit":2432,"ten":2433,"__,":2434,"Ġafter":2435,"Hand":2436,"ables":2437,"served":2438,"dev":2439,"Ġprovide":2440,"18":2441,"train":2442,"filter":2443,"riter":2444,"tocol":2445,"andard":2446,"create":2447,"Ġprev":2448,"Tuple":2449,"Ġqueue":2450,"Ġzip":2451,"can":2452,"ĠAt":2453,"ote":2454,"Ġsingle":2455,"expected":2456,"ride":2457,"ling":2458,"ites":2459,"mbol":2460,"side":2461,"],[":2462,"contrib":2463,"light":2464,"child":2465,"getLogger":2466,"~~~~~~~~~~~~~~~~":2467,"top":2468,"Ġcalled":2469,"Ġmetadata":2470,"13":2471,"cul":2472,"stractmethod":2473,"gorithm":2474,"40":2475,"Request":2476,"Ġ'.":2477,"kg":2478,"vals":2479,"TE":2480,"ves":2481,"ĠCol":2482,"almost":2483,"Ġcontent":2484,"ĠImage":2485,"Ġspecified":2486,"Ġ20":2487,"ĠAll":2488,"contain":2489,"ernel":2490,"Ġå":2491,"ock":2492,"unter":2493,"ba":2494,"Parser":2495,"Ġinformation":2496,"ĠAl":2497,"IME":2498,"Ġauto":2499,"auth":2500,"astype":2501,"Ġdig":2502,"uplic":2503,"ater":2504,"Ġbackend":2505,"UTH":2506,"Ġ----------<":2507,"ĠCont":2508,"points":2509,"Ġtop":2510,"rand":2511,"bit":2512,"Ġcast":2513,"register":2514,"ensure":2515,"Ġmaximum":2516,"arange":2517,"project":2518,"ĠParameters":2519,"ĠURL":2520,"rank":2521,"Ġlook":2522,"ä½":2523,"ified":2524,"ĠInvalid":2525,"ature":2526,"ĠDo":2527,"56":2528,"istr":2529,"issing":2530,"={":2531,"(?":2532,"17":2533,"asic":2534,"math":2535,"200":2536,"classmethod":2537,"Ġmask":2538,"API":2539,"Ġinteg":2540,"Ġbound":2541,"empty":2542,"Ġinstead":2543,"Ġperiod":2544,"Ġmethods":2545,"EL":2546,"Ġmodels":2547,"ynomial":2548,"äº":2549,"extra":2550,"Ġgo":2551,".\")<":2552,"solute":2553,"gt":2554,"}\"<":2555,"ear":2556,"hes":2557,"IS":2558,"Ġsort":2559,"thing":2560,"platform":2561,"itional":2562,"params":2563,"essage":2564,"ĠFile":2565,"Mixin":2566,"mplete":2567,"Ġim":2568,"----------------------------------------------------------------":2569,"down":2570,"Format":2571,"ìĿ":2572,"vector":2573,"option":2574,"Ġobjects":2575,"vider":2576,"Ġsearch":2577,"Ġanswer":2578,"Id":2579,">'''<":2580,"Ġfollowing":2581,"Ġtransform":2582,"TO":2583,"decode":2584,"ose":2585,"Ġweight":2586,"ssl":2587,"Ġhigh":2588,"ĠVersion":2589,"oint":2590,"uble":2591,"ier":2592,"sha":2593,"insert":2594,"Ġunicode":2595,"ĠSequence":2596,"Ġshape":2597,"ĠRes":2598,"Ġdir":2599,"19":2600,"action":2601,"Manager":2602,"ices":2603,"Ġbetween":2604,"assed":2605,"only":2606,"Ġerrors":2607,"US":2608,">-":2609,"Gener":2610,"vision":2611,"Given":2612,"Ġdel":2613,"Ġnormal":2614,"Ġoriginal":2615,"UP":2616,"30":2617,"ones":2618,"Ġtz":2619,"Ġwidth":2620,"dtypes":2621,"dot":2622,"ĠCheck":2623,"ĠAUTH":2624,"An":2625,"#<":2626,"__<":2627,"Of":2628,"Ġattr":2629,"Ġarguments":2630,"orig":2631,"'.":2632,"Ġunittest":2633,"EP":2634,"pass":2635,"ĠDefinition":2636,"Ġpoints":2637,"release":2638,"Ġquery":2639,"ek":2640,"ted":2641,"Ġcompat":2642,"Ġsettings":2643,"Ġpathlib":2644,"ributed":2645,"plt":2646,"ĠAUTHORS":2647,"skip":2648,"Ġlogger":2649,"Do":2650,"pecial":2651,"roll":2652,"Ġinclude":2653,"Ġprocess":2654,"gging":2655,"quirements":2656,"********":2657,"eval":2658,"ĠInput":2659,"cause":2660,"Ġtrans":2661,"direct":2662,"status":2663,"Ġinitial":2664,"Object":2665,"ĠLiteral":2666,"GE":2667,"spec":2668,"Ġlet":2669,"Ġoffset":2670,"Ġstruct":2671,"docs":2672,"ift":2673,"Ġ\"\"<":2674,"ensions":2675,"zero":2676,"Ġrender":2677,"Ġimplementation":2678,"qrt":2679,"ĠNumber":2680,",-":2681,"upported":2682,"stdout":2683,"leg":2684,"keep":2685,"ĠDefault":2686,"22":2687,"He":2688,"Result":2689,"Le":2690,"tag":2691,"Ġrequires":2692,"lang":2693,"added":2694,">)":2695,"ced":2696,"Ġcharacters":2697,"post":2698,"template":2699,"ongest":2700,"backend":2701,"header":2702,"å¤":2703,"Console":2704,"ublic":2705,"cimal":2706,"'):<":2707,"sorted":2708,"exec":2709,"Cache":2710,"]])<":2711,"heap":2712,"DI":2713,"Ġresults":2714,"comm":2715,"enter":2716,"Ġwant":2717,"ãĢĤ<":2718,"egative":2719,"modules":2720,"uler":2721,"sage":2722,"Ġthem":2723,"Ġtable":2724,"ĠCh":2725,"copyright":2726,"Class":2727,"Ġ{}":2728,"readline":2729,"packaging":2730,"2024":2731,"Ġchild":2732,"cape":2733,"height":2734,"Ġrequests":2735,"è¾":2736,"losed":2737,"Ġtests":2738,"55":2739,"store":2740,"pip":2741,"'),<":2742,"ĠComp":2743,"Ġutil":2744,"EXT":2745,"Ġhasattr":2746,"Ġtrue":2747,"unit":2748,"Ġabsolute":2749,"multi":2750,"velo":2751,"Ġnamed":2752,"ĠWhe":2753,"Ġglobal":2754,"mbed":2755,"ian":2756,"Explanation":2757,"Ġcolumns":2758,"words":2759,"zy":2760,")-":2761,"\"],<":2762,"ru":2763,"Ġwrite":2764,"device":2765,"æĺ":2766,"Fun":2767,"Ġvisited":2768,"ped":2769,"Pre":2770,"lice":2771,";<":2772,"]):<":2773,"static":2774,"chemy":2775,"dentifier":2776,"radi":2777,"Ġwithout":2778,"typing":2779,"------------":2780,"ched":2781,"gen":2782,"ĠMulti":2783,"rich":2784,"mplexity":2785,"Ġboth":2786,"query":2787,"Ġdirect":2788,"ready":2789,"Ġproject":2790,"rypt":2791,"Number":2792,"Ġkwargs":2793,"({\"":2794,"åº":2795,"ynam":2796,"LS":2797,"alcul":2798,"non":2799,"Ðº":2800,"Ġclasses":2801,"ilder":2802,"ĠPer":2803,"Ġremo":2804,"OC":2805,"atrix":2806,"Ġfeat":2807,"Ġposition":2808,"Ġreturned":2809,"emo":2810,"=(":2811,"ower":2812,"has":2813,"sync":2814,"ĠExample":2815,"Ġexception":2816,"Ġsetup":2817,"Ġlow":2818,"ĠNotImplementedError":2819,"tests":2820,"Ġmock":2821,"lection":2822,"derr":2823,"offset":2824,"`,":2825,"Str":2826,"ason":2827,"Ġpossible":2828,"Ġcontextlib":2829,"Ġop":2830,"element":2831,"nown":2832,"fields":2833,"Ġarrays":2834,"cent":2835,"Ġequal":2836,"event":2837,"Ġ-------<":2838,"Ġ[-":2839,"alth":2840,"zeros":2841,"Command":2842,"allclose":2843,"book":2844,"Ġref":2845,"Line":2846,"term":2847,"åĩ":2848,"flow":2849,"stdin":2850,"ists":2851,"Ġbefore":2852,"Ġcharacter":2853,"ĠLo":2854,"mary":2855,"usr":2856,"cast":2857,"onical":2858,"cii":2859,"Ġver":2860,"Ġdeque":2861,"ixed":2862,"Ġag":2863,"Ġsetuptools":2864,"author":2865,"change":2866,"Ġrequired":2867,"pecifier":2868,"#!":2869,"ffix":2870,"[[":2871,"=<":2872,"Ġsequence":2873,"mean":2874,"``<":2875,"istry":2876,"Ġdefined":2877,"Solution":2878,"angle":2879,"Ġpassed":2880,"urllib":2881,"Ġsystem":2882,"ĠPygments":2883,"Ġhelp":2884,"ibility":2885,"vided":2886,"directory":2887,"OS":2888,"Ġsolve":2889,"Ser":2890,"Ġ'__":2891,"Ġclient":2892,"ceback":2893,"engine":2894,"pose":2895,"div":2896,"columns":2897,"dp":2898,"task":2899,"none":2900,"async":2901,"django":2902,"IG":2903,"Ġjust":2904,"Handler":2905,"Ġ11":2906,"mul":2907,"31":2908,"Ġfull":2909,"Ġteam":2910,"]])":2911,"crement":2912,"âĢ":2913,"ĠException":2914,"arrays":2915,"TestCase":2916,"æł":2917,"meta":2918,"poly":2919,"binary":2920,"second":2921,"hed":2922,"antic":2923,"Ġ16":2924,")[":2925,"ĠUse":2926,"Ġabs":2927,"TER":2928,"bl":2929,"abstractmethod":2930,"problem":2931,"Ġattributes":2932,"Ġencode":2933,"ither":2934,"Ġscript":2935,"ton":2936,"csv":2937,"Ġexec":2938,"Dtype":2939,"dirs":2940,"fill":2941,"ĠRequest":2942,"bed":2943,"UR":2944,"finit":2945,"âĶĢ":2946,"Ñĥ":2947,"ntax":2948,"Ġcolumn":2949,"Inter":2950,"ĠConsole":2951,"Token":2952,"ĀĀ":2953,"acy":2954,"page":2955,"Response":2956,"ai":2957,"cfg":2958,"mall":2959,"ops":2960,"board":2961,"getattr":2962,"ERSION":2963,"PR":2964,"rng":2965,"Ġinvalid":2966,"Stream":2967,"It":2968,"\").":2969,"make":2970,"Ġwrap":2971,"Ġthey":2972,"Ġreverse":2973,"Ġimportlib":2974,"Ġheapq":2975,"andidate":2976,"Ġ:<":2977,"sparse":2978,"iled":2979,"zen":2980,"vari":2981,"``,":2982,"dapt":2983,"day":2984,"Me":2985,"step":2986,"Ġmp":2987,"ffici":2988,"Ġctypes":2989,"warn":2990,"Ġgenerated":2991,"->":2992,"zip":2993,"Ġargument":2994,"setup":2995,"Ġtag":2996,"[:,":2997,"Ġway":2998,"packages":2999,"__\":<":3000,"Ġconnection":3001,"HE":3002,"ordin":3003,"Ġdon":3004,"bot":3005,"Ġlanguage":3006,"gument":3007,"Ġsocket":3008,"Ġintegers":3009,"spect":3010,"80":3011,"show":3012,"ays":3013,"tect":3014,"ias":3015,"CON":3016,"Ġcnt":3017,"ision":3018,"ĠSQL":3019,"ĠYou":3020,"Ġstore":3021,"idget":3022,"Ġminimum":3023,"lper":3024,"Ġconsole":3025,"ccess":3026,"libs":3027,"Ġdoc":3028,"ĠIterator":3029,"dleware":3030,"è¡":3031,"ĠBy":3032,"fl":3033,"encoding":3034,":-":3035,"TIME":3036,">\"\"\"":3037,"ĠNO":3038,"cap":3039,"net":3040,"Ġoption":3041,"Ġpick":3042,"commun":3043,"defor":3044,"You":3045,"settings":3046,"cases":3047,"Ġspace":3048,"Ġparameters":3049,"deforces":3050,"Ġtemplate":3051,"cc":3052,"Ġcustom":3053,"Iter":3054,"fft":3055,"Ġproblem":3056,"Ġ2006":3057,"æĺ¯":3058,"Ġseries":3059,"Ġwhether":3060,"rozen":3061,"ĠCounter":3062,"66":3063,"Ġbeen":3064,"DEFAULT":3065,"Ġdictionary":3066,"Ġstep":3067,"ds":3068,"23":3069,"lative":3070,"ĠTra":3071,"schema":3072,"pha":3073,"Ġ'''<":3074,"Ġview":3075,"HTTP":3076,"TML":3077,"less":3078,"Ġtmp":3079,"host":3080,"man":3081,"itespace":3082,"eric":3083,"dm":3084,"Ġensure":3085,"null":3086,"AND":3087,"ways":3088,"fn":3089,"ince":3090,"andidates":3091,"Ġinfo":3092,"ĠAdd":3093,"attribute":3094,"78":3095,"feat":3096,"aa":3097,"erson":3098,"ĠTypeVar":3099,"Ġlines":3100,"Ġkeys":3101,"ED":3102,"ence":3103,"ĠID":3104,"No":3105,"serial":3106,"Requirement":3107,"go":3108,"__()<":3109,"session":3110,"velop":3111,"è¯":3112,"Ġparameter":3113,"Ġwrapper":3114,"reen":3115,"Ġparts":3116,"Ġasync":3117,"mes":3118,"ayer":3119,"aut":3120,"Ġserial":3121,"Ġcover":3122,"Ġold":3123,"escape":3124,"Ġsql":3125,"çĶ":3126,"Ġ15":3127,"Ġnd":3128,"Ġwindow":3129,"Char":3130,"]]:<":3131,"Ġgenerate":3132,"ĠDistutils":3133,"Ġprovided":3134,"ighb":3135,"Ġbecause":3136,"Ġsubprocess":3137,"environ":3138,"Or":3139,"vious":3140,"())":3141,"Ġmerge":3142,"real":3143,"sample":3144,"ĠNote":3145,"ĠOpenGL":3146,"convert":3147,"af":3148,"?<":3149,"factor":3150,"Ġeven":3151,"Raise":3152,"att":3153,"KEY":3154,"Ñı":3155,"sv":3156,"Tensor":3157,"scal":3158,"})":3159,"norm":3160,")]":3161,"ipe":3162,"Ġlicen":3163,"Fa":3164,"Ġunique":3165,"Ġactual":3166,"body":3167,"ump":3168,"Message":3169,"ĠCreate":3170,"community":3171,"arrow":3172,"ndarray":3173,"Ġ...<":3174,"Found":3175,"lt":3176,"tick":3177,"ases":3178,"asure":3179,"ĠOr":3180,"bound":3181,"Ð¼":3182,"eq":3183,"Ġfilter":3184,"Ġreserved":3185,"isect":3186,"Ġlicensed":3187,"05":3188,"ending":3189,"Ġreplace":3190,"å°":3191,"connect":3192,"Hel":3193,"uint":3194,"Ġæ":3195,"#!/":3196,"Ġalready":3197,"Distribution":3198,"Ġlower":3199,"Ent":3200,"integer":3201,"misc":3202,"ateg":3203,"bs":3204,"hook":3205,"quires":3206,"ftware":3207,"Tests":3208,"position":3209,"ĠArray":3210,"corator":3211,"Ġupdate":3212,"Ġterms":3213,"kit":3214,"Ġdoesn":3215,"Ġtimeout":3216,"ĠSo":3217,"med":3218,"ogle":3219,"ĠKeyword":3220,"gra":3221,">}<":3222,"ĠTypeError":3223,"ĠCommand":3224,"uation":3225,"å®":3226,"Sy":3227,"'))<":3228,"ls":3229,"ags":3230,"description":3231,"nodes":3232,"Ġmultiple":3233,"ored":3234,"è¾ĵ":3235,"extension":3236,"Ġblock":3237,"learn":3238,"Ġitems":3239,")),":3240,"Ð²":3241,"Ġawait":3242,"ĠComment":3243,"ars":3244,"dat":3245,"resources":3246,"ances":3247,"NAME":3248,"Ġskip":3249,"codes":3250,"II":3251,"sequence":3252,"ily":3253,"DataFrame":3254,"Ġmon":3255,"Ġedges":3256,"Ġerr":3257,"ĠCategorical":3258,"Ġuses":3259,"structor":3260,"alind":3261,"starts":3262,"Ġcell":3263,"ĠConfig":3264,"IP":3265,"Ġ,":3266,"Ġtheir":3267,"90":3268,"Ġ[(":3269,"iss":3270,"Ġcons":3271,"idden":3272,"Ġthese":3273,"Ġexc":3274,"Ġrights":3275,"argest":3276,"itial":3277,"tension":3278,"quare":3279,"},<":3280,"Ġhow":3281,"Ġzero":3282,"AY":3283,"Ġbox":3284,"TypeError":3285,"total":3286,"pygments":3287,"egg":3288,"lc":3289,"cies":3290,"By":3291,"control":3292,"Ġbased":3293,"Color":3294,"ĠĠĠĠĠĠĠĠĠĠĠĠĠĠ":3295,"Ġfinal":3296,"App":3297,"cmd":3298,"Ġdocument":3299,"Ġlocal":3300,"OK":3301,"Ġwithin":3302,"Connection":3303,"olean":3304,"Ġfig":3305,"cp":3306,"Ġ{'":3307,"Ġcannot":3308,"Def":3309,"releases":3310,"havi":3311,"tt":3312,"ĠSy":3313,"íķ":3314,"Ġmissing":3315,"save":3316,"sql":3317,"tmp":3318,"Series":3319,"solution":3320,"PD":3321,"resh":3322,"Invalid":3323,"OL":3324,"eded":3325,"State":3326,"straints":3327,"Element":3328,"pert":3329,"Ġlabels":3330,"BU":3331,"Ġkeep":3332,"Ġsession":3333,"...":3334,"chann":3335,"rome":3336,"Ġsplit":3337,"yType":3338,":`~":3339,"Ġexists":3340,"Max":3341,"ãĤ":3342,"ffect":3343,"{}":3344,"Ġour":3345,"while":3346,"zone":3347,"Tools":3348,"Ġts":3349,"lied":3350,"udent":3351,"tom":3352,"ugh":3353,"03":3354,"OP":3355,"ABC":3356,"Ġfields":3357,"Ġaction":3358,"','":3359,"embed":3360,"dings":3361,"stderr":3362,"emplate":3363,"Ġcmd":3364,"lip":3365,"aT":3366,"SI":3367,"ĠDE":3368,"ĠExamples":3369,"ĠĠĠĠĠĠĠĠĠĠĠĠĠ":3370,"dantic":3371,"fc":3372,"axes":3373,"Ġ#:":3374,"Ġhandle":3375,"als":3376,"mt":3377,"wheel":3378,"imize":3379,"Ġshow":3380,"TreeNode":3381,"Ġremoved":3382,"ĠPEP":3383,"pool":3384,"Ġform":3385,"Ġserver":3386,"Ġ~~~~~~~~~~~~~~~~":3387,"SC":3388,"Ġstd":3389,"Ġca":3390,"Ġoperations":3391,"labels":3392,"distribution":3393,"Ġcomb":3394,"08":3395,"connection":3396,"cd":3397,"indi":3398,"Ġ\"_":3399,"ground":3400,"Ġcost":3401,"Ġtask":3402,"Ġdistribution":3403,"Open":3404,"emory":3405,"Ġê":3406,"Ġinterface":3407,"Optional":3408,"warning":3409,"Ġrel":3410,"Ġsupported":3411,"safe":3412,"Ġconnect":3413,"26":3414,"Ġ--------<":3415,"Ġsample":3416,"Ġimp":3417,"rows":3418,"auto":3419,"orld":3420,"Ġabout":3421,"xx":3422,"dig":3423,"vate":3424,"Des":3425,"uid":3426,"allow":3427,"staticmethod":3428,"Ġsk":3429,"ĠMy":3430,"Ġconfiguration":3431,"åĩº":3432,"75":3433,"Ġtokens":3434,"ascii":3435,"uff":3436,"distutils":3437,"Ġcho":3438,"limit":3439,"section":3440,"debug":3441,"Ġrelative":3442,"86":3443,"Ġdescription":3444,"Ġfill":3445,"Ġpaths":3446,"Ġchunk":3447,"istory":3448,"Ġeither":3449,"æĸ":3450,"marker":3451,"Ġperiods":3452,"ison":3453,"river":3454,"Up":3455,"Ġadj":3456,"ĠGet":3457,"startswith":3458,"Ġinspect":3459,"]:":3460,"Ġkind":3461,"Ġ\"\\":3462,"memory":3463,"////////":3464,"ayout":3465,"defined":3466,"cell":3467,"usion":3468,"ORD":3469,"åŃĹ":3470,"conv":3471,"*.":3472,"ĠStyle":3473,"expr":3474,"Ġeval":3475,"space":3476,"gree":3477,"ĠFormat":3478,"ĠMultiIndex":3479,"Ġtimedelta":3480,"ragma":3481,"tol":3482,"perties":3483,"Wrapper":3484,"allback":3485,"Ġfail":3486,"Ġbuffer":3487,"conf":3488,"Ġinsert":3489,"Ġalgorithm":3490,"ĠTimestamp":3491,"Ġstri":3492,"Ġotherwise":3493,"]),":3494,"complex":3495,"Ġssl":3496,"mount":3497,"Ġsimple":3498,"ĠInter":3499,"cope":3500,")*":3501,"ĠAB":3502,"Ġcontaining":3503,"dataset":3504,"Ġdataset":3505,"pat":3506,"Ġcommon":3507,"Ġslow":3508,"Ġpattern":3509,"Ġman":3510,"Ġnamespace":3511,"URL":3512,"Ġemail":3513,"exc":3514,"Ġextension":3515,"ud":3516,"dump":3517,"okup":3518,"two":3519,"Author":3520,"verage":3521,"ee":3522,"getitem":3523,"inder":3524,"tric":3525,"ä¸Ģä¸ª":3526,"Ġpragma":3527,"Ġappro":3528,"cessing":3529,"88":3530,"Ġlong":3531,"nx":3532,"imens":3533,"ACK":3534,"press":3535,"ould":3536,"ugin":3537,"Ġaut":3538,"scale":3539,"fer":3540,"ids":3541,"Ġhook":3542,"mock":3543,"Ġdown":3544,"arison":3545,"rences":3546,"Ġsepar":3547,"ä¸Ń":3548,"ral":3549,"ĠJSON":3550,"column":3551,"termin":3552,"Ġmemory":3553,"Ġthreading":3554,"Ġloop":3555,"æī":3556,"Ġob":3557,"site":3558,"children":3559,"abled":3560,"gh":3561,"Ġtitle":3562,"Qu":3563,"extensions":3564,"DIR":3565,"cio":3566,"ECT":3567,"domain":3568,"ĠRaise":3569,"global":3570,"ĠNo":3571,"ik":3572,"ĠMapping":3573,"Ġpatch":3574,"Ġsrc":3575,"ilar":3576,"\"}<":3577,"Ġrelease":3578,"VAL":3579,"Ġbuilt":3580,"ngine":3581,"Formatter":3582,"aded":3583,"View":3584,"rough":3585,"Ġdim":3586,"specifi":3587,"img":3588,"ured":3589,"Ġbisect":3590,"password":3591,"æľī":3592,"ank":3593,"Ġreason":3594,"imilar":3595,"Check":3596,"åĽ":3597,"Ġinstalled":3598,"SG":3599,"calar":3600,"pyplot":3601,"ession":3602,"74":3603,"render":3604,"dio":3605,"PRO":3606,"licit":3607,"Method":3608,"tributeError":3609,"Ġ((":3610,"ĠIO":3611,"NotFound":3612,"06":3613,"ike":3614,"IONS":3615,"mag":3616,"onicalize":3617,"Len":3618,"Ġ\",":3619,"Ð´":3620,"gexLexer":3621,"04":3622,"Ġevery":3623,">`":3624,"_,":3625,"Back":3626,"STR":3627,"DATE":3628,"Ġusers":3629,"gment":3630,"Ġwould":3631,"parts":3632,"intypes":3633,"Ġlex":3634,"Ġwheel":3635,"Ġsha":3636,"Ġmost":3637,"precationWarning":3638,"Num":3639,"bstract":3640,"tags":3641,"Ġdigits":3642,"okie":3643,"Ġproduct":3644,"sor":3645,"UM":3646,"ĠDjango":3647,"ĠNum":3648,"ĠInstall":3649,"Style":3650,"__':<":3651,"lest":3652,"fp":3653,"Ġnorm":3654,"yncio":3655,"ĠLink":3656,"________________":3657,"exit":3658,"Add":3659,"Ġallowed":3660,"User":3661,"ä¸º":3662,"curity":3663,"Ġord":3664,"inalg":3665,"Ġfactor":3666,"ASE":3667,"Whe":3668,"cho":3669,"Ġnetwork":3670,"Pa":3671,"loy":3672,"ERR":3673,"asing":3674,"apply":3675,"Ġvariable":3676,"FO":3677,"Ġrng":3678,"features":3679,"sup":3680,"bb":3681,"Ġpoly":3682,"Ġcorrect":3683,"jor":3684,"Ġsol":3685,"Ġdevice":3686,"Ġpkg":3687,"tensor":3688,"chema":3689,"Graph":3690,"location":3691,"wrapper":3692,"lin":3693,"ategories":3694,"mut":3695,"spe":3696,"handle":3697,"indices":3698,"Link":3699,"æĪ":3700,"Ġ----------------------------------------------------------------":3701,"Ġdynam":3702,"Ġvert":3703,"Ġmodules":3704,"ĠPre":3705,"numbers":3706,"sw":3707,"game":3708,"ĠBu":3709,"Ġimg":3710,"scalar":3711,"objects":3712,"logging":3713,"Ġparsed":3714,"Ġaccept":3715,"missions":3716,"Ġbehavi":3717,"\"\\":3718,"35":3719,"ÂłÂłÂłÂł":3720,"Callable":3721,"hs":3722,"Ġparams":3723,"(\"/":3724,"system":3725,"Options":3726,"Ġbit":3727,"alindrome":3728,"ORT":3729,"Ġdependen":3730,"email":3731,"Ñĭ":3732,"Ġprovides":3733,"double":3734,"vo":3735,"Ġshutil":3736,"Ġident":3737,"ĠIN":3738,"older":3739,"Ġsent":3740,"thread":3741,"çĶ¨":3742,"lexers":3743,"requests":3744,"score":3745,"Ġrequirement":3746,"igrations":3747,"built":3748,"invalid":3749,"constant":3750,"Reg":3751,"rie":3752,"requen":3753,"uring":3754,"Ġseen":3755,"Ġndarray":3756,"Ġcases":3757,"mission":3758,"kind":3759,"batch":3760,"Loader":3761,"Ġlibrary":3762,"Ġreal":3763,"Ġaccess":3764,"paths":3765,"Ġavoid":3766,"__.":3767,"onents":3768,"linked":3769,"window":3770,"ç¬":3771,"Ġcalcul":3772,"())):<":3773,"Ġproxy":3774,"sqrt":3775,"imal":3776,"Ġtrain":3777,"Ġsave":3778,"(\\":3779,"MO":3780,"ire":3781,"ĠDatetime":3782,"upy":3783,"Ġalways":3784,")])<":3785,"VERSION":3786,"pattern":3787,"select":3788,"Ġimports":3789,"Ġsc":3790,"warnings":3791,"mallest":3792,"ĠWh":3793,"poch":3794,"sec":3795,"rel":3796,"Reader":3797,"Ġpartial":3798,"DO":3799,"seq":3800,"tool":3801,"Ġenv":3802,"socket":3803,"Ġcodecs":3804,"pache":3805,"rees":3806,"tty":3807,"tokens":3808,"Event":3809,"Ġbody":3810,"mor":3811,"alk":3812,"delete":3813,"Ġindices":3814,"Ġdisplay":3815,"alle":3816,"Th":3817,"Alchemy":3818,"lyp":3819,"exists":3820,"Ġcap":3821,"256":3822,"Ġrepresenting":3823,"44":3824,"creasing":3825,"ross":3826,"lexer":3827,"adding":3828,"Word":3829,"(\"\\":3830,"We":3831,"lim":3832,"Ġtimes":3833,"Ġsa":3834,"Ġpop":3835,"curr":3836,"Stack":3837,"rat":3838,"ĠCON":3839,"det":3840,"36":3841,"ãĥ":3842,"rcValidator":3843,"lots":3844,"bose":3845,"çĤ":3846,"LM":3847,"ested":3848,"SH":3849,"respon":3850,"COL":3851,"çĽ":3852,"ux":3853,"ĠIPython":3854,"ENS":3855,"Ġinclu":3856,"ĠCode":3857,"Ġmulti":3858,"ĠApp":3859,"Ġfn":3860,"Ġ30":3861,"Ġcy":3862,"Ġraw":3863,"128":3864,"åħ¥":3865,"ster":3866,"price":3867,"cos":3868,"ET":3869,"ving":3870,"alf":3871,"card":3872,"qdm":3873,"chunk":3874,"ĠToken":3875,"cription":3876,"AP":3877,"Install":3878,"ĠSub":3879,"ale":3880,"ĠApache":3881,"ention":3882,"~<":3883,"ĠInc":3884,"'])<":3885,"ered":3886,"YES":3887,"cret":3888,"Client":3889,"groups":3890,"ierarch":3891,"Ġusage":3892,"ĠFun":3893,"Ġside":3894,"Ġlongest":3895,"Ġabc":3896,"Ġ1000":3897,"Per":3898,"product":3899,"Ġraised":3900,"JSON":3901,"ĠTo":3902,":]<":3903,"requires":3904,"ignore":3905,"ä¾":3906,"ĠUser":3907,"ish":3908,"cv":3909,"duler":3910,"steps":3911,"ĠTimedelta":3912,"acter":3913,"unique":3914,"fy":3915,"27":3916,"sets":3917,"[_":3918,"Ġday":3919,"ively":3920,"Ġrot":3921,"Ġctx":3922,"éĩ":3923,"åľ":3924,"username":3925,"ras":3926,"missing":3927,"BO":3928,"ĠPlatform":3929,"ĠTh":3930,"Ġexact":3931,"ilters":3932,"PDX":3933,"ĠSPDX":3934,"çĤ¹":3935,"long":3936,"ListNode":3937,"ĠEn":3938,"Ġinterval":3939,"dirname":3940,"Ġredu":3941,"ODO":3942,"Ġstatus":3943,"Ġshort":3944,"igration":3945,"ĠSQLAlchemy":3946,"Ġprevious":3947,"Ġoc":3948,"cols":3949,"29":3950,"rs":3951,"akes":3952,"Ġforward":3953,"oper":3954,"Ġversionadded":3955,"So":3956,"ĠSpace":3957,"ESS":3958,"regex":3959,"Ġra":3960,"utton":3961,"colors":3962,"[::-":3963,"iling":3964,"Ġdest":3965,"initial":3966,"]==":3967,"ĠMe":3968,"Ġenvironment":3969,"iloc":3970,"28":3971,"Ġwrit":3972,"Ġcomplete":3973,"EST":3974,"ĠGiven":3975,"Ġpost":3976,"Ġscale":3977,"../":3978,"peat":3979,"annot":3980,"Ġlocation":3981,"æľĢ":3982,"upyter":3983,"Group":3984,"2000":3985,"VER":3986,"icro":3987,"drop":3988,"reverse":3989,"layer":3990,"Ġspecific":3991,"andom":3992,"Ġengine":3993,"seed":3994,"strings":3995,"(),<":3996,"Map":3997,".*":3998,"hell":3999,"gi":4000,"Ġamount":4001,"tesIO":4002,"Ġrunning":4003,"Ġadded":4004,"compiler":4005,"ordinates":4006,"full":4007,"Ġsw":4008,"reshape":4009,"Date":4010,"77":4011,"Min":4012,"Ġnow":4013,"ores":4014,"meth":4015,"ueue":4016,"ĠOn":4017,"Ġtempfile":4018,"acity":4019,"PL":4020,"Matrix":4021,"Ġwho":4022,"etch":4023,"posit":4024,"Ġiterable":4025,"END":4026,"è®":4027,"Ġflags":4028,"Ġ'#":4029,"Ġ13":4030,"Ġspec":4031,"Ġexpression":4032,"ĠZZ":4033,"09":4034,"Ġpage":4035,"termine":4036,"Ġlimit":4037,"With":4038,"ĠHero":4039,"Ġraises":4040,"wards":4041,"dTuple":4042,"used":4043,"Ġpyp":4044,"Ġflag":4045,"'\\":4046,"Size":4047,"available":4048,"reset":4049,"Ġ'<":4050,"Ġdecode":4051,"enderable":4052,"ĠRuntime":4053,"effici":4054,"Dis":4055,"Ġdb":4056,"Enum":4057,"Ġmany":4058,"linalg":4059,"server":4060,"Ret":4061,"Ġla":4062,"soci":4063,"Ġselect":4064,"Ġdatabase":4065,"prev":4066,"Ġcanonicalize":4067,"storage":4068,"Ġperform":4069,")+":4070,"Ġdomain":4071,"uplicate":4072,"Ġ14":4073,"where":4074,"izes":4075,"=-":4076,"Content":4077,"ĠDi":4078,"track":4079,"asy":4080,"As":4081,"strict":4082,"Ġremain":4083,"Values":4084,"hent":4085,"edi":4086,"unct":4087,"application":4088,"Ġdistance":4089,"Ġreq":4090,">..":4091,"WS":4092,"mplet":4093,"Ġpresent":4094,"Ġargparse":4095,"ox":4096,"Ġcodes":4097,"paces":4098,"arge":4099,"Ġpolynomial":4100,"AG":4101,"ient":4102,"Ġthrough":4103,"versed":4104,"Ġcached":4105,"!<":4106,"atasets":4107,"etadata":4108,"ually":4109,"gb":4110,"ector":4111,"PAT":4112,"hentic":4113,"Ġbatch":4114,"Ġ32":4115,"functional":4116,">[":4117,"Ġ<<":4118,"uous":4119,"medi":4120,"single":4121,"cost":4122,"layout":4123,"testcases":4124,"ĠWindows":4125,"ront":4126,"Ġdimens":4127,"Ġpool":4128,"nsupported":4129,"Item":4130,"ĠMeta":4131,"Ġlinked":4132,"Ġnamedtuple":4133,"Ġaliases":4134,"Ġprices":4135,"Ġpackages":4136,"Ġ''<":4137,"Ġdistributed":4138,"Ġ\"-":4139,"ives":4140,"Ġ\")<":4141,"rate":4142,"Ġembed":4143,"Ġfilenames":4144,"cremental":4145,"verter":4146,"Ġboard":4147,"Like":4148,"dapter":4149,"QU":4150,"Ġvector":4151,"Ġclose":4152,"Pool":4153,"Ġresource":4154,"Function":4155,"Ġdummy":4156,"gin":4157,"Ġsince":4158,"ĠOrdered":4159,"allel":4160,"INE":4161,"Ġconstant":4162,"ograph":4163,"ules":4164,"ÑĮ":4165,"Ġfin":4166,"flags":4167,"dispatch":4168,"Parse":4169,"lap":4170,"Ġsubclass":4171,"Ġvia":4172,"On":4173,"Auth":4174,"flat":4175,"standard":4176,"Ġcompatibility":4177,"rest":4178,"upper":4179,"39":4180,"Ġtokenizer":4181,"Ġterm":4182,"'),":4183,"Ġdesc":4184,"_<":4185,"onal":4186,"counts":4187,"Ġcounter":4188,"ÐµÐ½":4189,"Run":4190,"crypt":4191,"ĠOperator":4192,"channels":4193,"Ġapplication":4194,"slots":4195,"rot":4196,"Ġ50":4197,"ç¤":4198,"Ġtrack":4199,"âĶĢâĶĢ":4200,"Identifier":4201,"ĠÑģ":4202,"Table":4203,"Ġcreated":4204,"Ġconstruct":4205,"soft":4206,"======":4207,"handler":4208,"38":4209,"ĠGeneric":4210,"ĠPeriod":4211,"Ġrows":4212,"Ġauth":4213,"ĠAR":4214,"ĠIS":4215,"ĠMIT":4216,"ĠError":4217,"Ġless":4218,"ĠQu":4219,"formatter":4220,"Ġloc":4221,"NING":4222,"high":4223,"ination":4224,"ĠTODO":4225,"yped":4226,"mbols":4227,"Ġdep":4228,"edges":4229,"literal":4230,"'],":4231,"lates":4232,"Tool":4233,"known":4234,"Ġleast":4235,"Ġoperation":4236,"deprecation":4237,"pandas":4238,"ç¤º":4239,"\"].":4240,"Ġrecurs":4241,"Ġproperty":4242,"ulation":4243,"ĠMark":4244,"ĠGenerator":4245,"Count":4246,"Ġpe":4247,"ĠABC":4248,"wd":4249,"ĠHTML":4250,"Provider":4251,"Ġprodu":4252,"Ġassu":4253,"Ġsmall":4254,"Mark":4255,"Ġbl":4256,"requency":4257,"ĠĠĠĠĠĠĠĠĠĠĠĠĠĠĠĠĠĠĠĠ":4258,"results":4259,"ws":4260,"exception":4261,"Ġ),<":4262,"Ġ\"%":4263,"Ġworks":4264,">>>>":4265,"Ġneeded":4266,"Ġsklearn":4267,"Ġjoin":4268,"SL":4269,"Ġstandard":4270,"ipeline":4271,"ABLE":4272,"buf":4273,"gress":4274,"License":4275,"health":4276,"Ġdepth":4277,"Ġsix":4278,"Ġmm":4279,"lyph":4280,"fs":4281,"inner":4282,"Ġbelow":4283,"subplot":4284,"reader":4285,"quent":4286,"Ġhandling":4287,"Ġextract":4288,"users":4289,"Hierarch":4290,"straint":4291,"loop":4292,"ĠOther":4293,"aries":4294,"()]<":4295,"closed":4296,"quiv":4297,"è¡¨":4298,"DB":4299,"Ñĩ":4300,"ĠInitial":4301,"Ġexceptions":4302,"ä¸į":4303,"Ġgre":4304,"Oper":4305,"Ġpassword":4306,"xml":4307,"ĠData":4308,"Ġprice":4309,"__,<":4310,"`.":4311,"cuda":4312,"sens":4313,"uter":4314,"tern":4315,"container":4316,")),<":4317,"Ġkernel":4318,"argument":4319,"callback":4320,"Ġ$":4321,"Ġ'/":4322,"Note":4323,"\\.":4324,"ĠStringIO":4325,"loads":4326,"ffili":4327,"').":4328,"Ġdirectly":4329,"ĠParse":4330,"21":4331,"HierarchyType":4332,"Ġcorrespon":4333,"ather":4334,"Ġmove":4335,"ometry":4336,"End":4337,"car":4338,"Ġatt":4339,"Ġcomplexity":4340,"Ġstop":4341,"INT":4342,"Ġscheme":4343,"(?:":4344,"Create":4345,"EXTENS":4346,"Ġaffili":4347,"raction":4348,"ĠfontTools":4349,"Transform":4350,"Ġaffiliates":4351,"parameters":4352,"Ġkeyword":4353,"Ġet":4354,"versal":4355,"alect":4356,"Ġtesting":4357,"Ġentry":4358,"ification":4359,"Ġsupports":4360,"Ġ(-":4361,"Ġsite":4362,"pository":4363,"raps":4364,"Ġanother":4365,"ERROR":4366,"ume":4367,"Ġmak":4368,"Mapping":4369,"Ġna":4370,"Ġvalidate":4371,"period":4372,"PO":4373,"ptr":4374,"2011":4375,"Ġglob":4376,"lazy":4377,"Ġâ":4378,"kernel":4379,"Trace":4380,"lookup":4381,"agg":4382,"eriv":4383,"Ġretri":4384,"Ġchain":4385,"unittest":4386,"Ġpositive":4387,"ua":4388,"MENT":4389,"60":4390,"corators":4391,"ography":4392,"ITE":4393,"Compiler":4394,"åĬ":4395,"example":4396,"ĠCO":4397,"åĢ":4398,"dition":4399,"45":4400,"Ġapply":4401,"Filter":4402,"itor":4403,"heapp":4404,"ĠÐ¿":4405,"Ġleg":4406,"inst":4407,"address":4408,"cnt":4409,"Ġdelete":4410,"Ġagain":4411,"Ġproperties":4412,"orary":4413,"Ġpickle":4414,"uplicates":4415,"Ġdebug":4416,"Ġprogram":4417,"display":4418,"Ġcontribut":4419,"ĠPol":4420,"requirements":4421,"Ġtr":4422,"Ġcar":4423,"asurement":4424,"Ġ^":4425,"Ġbeing":4426,"Ġmarker":4427,"Ġunt":4428,"ĠLine":4429,"Ġaxes":4430,"ĠAttributeError":4431,"using":4432,"CA":4433,"Schema":4434,"Ġcould":4435,"Ġdataclasses":4436,"-------------<":4437,"PAR":4438,"ĠÐº":4439,"ĠField":4440,"simple":4441,"dataclass":4442,"ATED":4443,"ä¹":4444,"ĠSparse":4445,"Timeout":4446,"Ġlst":4447,"uri":4448,"Ġsyntax":4449,"Lib":4450,"é¢":4451,"timedelta":4452,"åĪ°":4453,"attrs":4454,"ä»¥":4455,"Control":4456,"HEAD":4457,"colorbar":4458,"Ġtextwrap":4459,"Ġspecial":4460,"Ġ\"/":4461,"Ġhelper":4462,"velopment":4463,"\\<":4464,"ĠInterval":4465,"ui":4466,"some":4467,"help":4468,"onent":4469,"ĠAlso":4470,"]=":4471,"unicode":4472,"redu":4473,"ĠFast":4474,"Ġmypy":4475,"ĠAs":4476,"è§":4477,"custom":4478,"IM":4479,"unctuation":4480,"xes":4481,"If":4482,"loss":4483,"sa":4484,"ĠBinary":4485,"æĹ":4486,"Ġboolean":4487,"cision":4488,"Ġwarning":4489,"cuments":4490,"MAX":4491,"ATA":4492,"fd":4493,"registry":4494,"ideo":4495,"Ġsafe":4496,"Ġscore":4497,"VE":4498,"lst":4499,"Ġel":4500,"ÑĢÐ°":4501,"entry":4502,"anti":4503,"ied":4504,"Ġsetting":4505,"Ġdecimal":4506,"Ġmime":4507,"Tag":4508,"Ġhost":4509,"Ġmean":4510,"active":4511,"Ġlogic":4512,"argv":4513,"Cur":4514,"implement":4515,"ĠQQ":4516,"Ġcv":4517,"Extension":4518,"pipe":4519,"ĠWhen":4520,"Serial":4521,")(":4522,"Ġprereleases":4523,"Ġcontrol":4524,"ĠBe":4525,"mplements":4526,"uess":4527,"ĉĉĉ":4528,"environment":4529,"Ġodd":4530,"ĠDefaults":4531,"Ġest":4532,"final":4533,"Ġregister":4534,"Ġcalls":4535,"Ġtags":4536,"see":4537,"Ġmodify":4538,"ĠOrderedDict":4539,"groupby":4540,"Float":4541,"Ġletters":4542,"ç»Ħ":4543,"Ġlookup":4544,"Ġ],<":4545,"ĠObject":4546,"Ġrepr":4547,"Ġdetect":4548,"IB":4549,"ĴĮ":4550,"ĠThere":4551,"ĠColor":4552,"Ġpack":4553,"pyarrow":4554,"hi":4555,"Ġprompt":4556,"ading":4557,"calc":4558,"pd":4559,"åı¯":4560,"Ġfalse":4561,"Ġtqdm":4562,"Integer":4563,"sep":4564,"Ed":4565,"Ġhandler":4566,"messages":4567,"Pol":4568,"ĠTe":4569,"licenses":4570,"parsers":4571,"scheme":4572,"ji":4573,"ĠClass":4574,"Ġfeatures":4575,"web":4576,"Ġrest":4577,"support":4578,"Ġduring":4579,"tic":4580,"Ġcallable":4581,"Ġdigit":4582,"].<":4583,"clip":4584,"Ġsure":4585,"åľ¨":4586,"Ġbehavior":4587,"herit":4588,"byte":4589,"ationError":4590,"SGI":4591,"subprocess":4592,"Ġwhat":4593,"Ġpairs":4594,"Ġuseful":4595,"ĠLeg":4596,"Ġasyncio":4597,">=":4598,"force":4599,"quant":4600,"Ġintervals":4601,"Ġpair":4602,"PREC":4603,"home":4604,"æŀ":4605,"éĢ":4606,"pg":4607,"Ġtensor":4608,"Ġcompiler":4609,"extend":4610,"pkg":4611,"Ġiss":4612,"Ġcolors":4613,"[:-":4614,"ĠComplexity":4615,"ĠDatetimeIndex":4616,"ider":4617,"atterns":4618,"CC":4619,"Ġdecorator":4620,"ĠRaises":4621,"Point":4622,"Ġmessages":4623,"Ġrepresentation":4624,"ä¾ĭ":4625,"Default":4626,"changed":4627,"olver":4628,"language":4629,"Ro":4630,"Ġrequirements":4631,"roller":4632,"record":4633,"INFO":4634,"AI":4635,"Ġ*=":4636,"ĠDEFAULT":4637,"question":4638,"Ġinstanti":4639,"Pri":4640,"Ġtake":4641,"Ġrank":4642,"shift":4643,"Trans":4644,"():":4645,"Wheel":4646,"Ġusername":4647,"loader":4648,"Ġwintypes":4649,"metaclass":4650,"PUT":4651,"validate":4652,"slice":4653,"ĠĠĠĠĠĠĠĠĠĠĠĠĠĠĠĠĠĠ":4654,"Ġ----------------":4655,"urls":4656,"reated":4657,"Ġbin":4658,"proto":4659,"Ġbyte":4660,"ĠBytesIO":4661,")/":4662,"suffix":4663,"true":4664,"Ġmapping":4665,"contains":4666,"ALL":4667,"si":4668,"Ġhashlib":4669,"Ġip":4670,"Ġloss":4671,"matically":4672,"ĠĠĠĠĠĠĠĠĠĠĠĠĠĠĠĠĠ":4673,"ever":4674,"ĠĠĠĠĠĠĠĠĠĠĠĠĠĠĠĠĠĠĠĠĠĠĠĠĠĠĠ":4675,"own":4676,"Ġspecifier":4677,"oton":4678,"95":4679,"Ġoverride":4680,"ĠReg":4681,"CHE":4682,"ĠKeyError":4683,"Ġmeans":4684,"ĠRemo":4685,"Ġfp":4686,"fail":4687,"DEPREC":4688,"ople":4689,"ferences":4690,">:":4691,"creen":4692,"signed":4693,"ç´":4694,"egin":4695,"BUG":4696,"rer":4697,"ĠOS":4698,"ĠDis":4699,"ĠWhitespace":4700,"++":4701,"Ġlargest":4702,"Ġupper":4703,"Ġport":4704,"ja":4705,"Ġreference":4706,"37":4707,"linear":4708,"éĹ":4709,"Ġsteps":4710,"ZE":4711,"Ġpydantic":4712,"Backend":4713,"matplotlib":4714,"sig":4715,"Ġstructure":4716,"builtins":4717,"Ġnull":4718,"Ġsuffix":4719,"ertifi":4720,"Ġthree":4721,"bab":4722,"Pos":4723,":`.":4724,"Pen":4725,"DeprecationWarning":4726,"setter":4727,"Raised":4728,"]-":4729,"Writer":4730,"pad":4731,"cum":4732,"llo":4733,"Task":4734,"runner":4735,"Is":4736,"Encoder":4737,"Ġtool":4738,"ĠMax":4739,"Ġletter":4740,"SQL":4741,"vas":4742,"(**":4743,"scipy":4744,"lector":4745,"functions":4746,"ĠResponse":4747,"LIKE":4748,"Power":4749,"Ġrepresents":4750,"Ġalpha":4751,"cheb":4752,"Ġdynamically":4753,"crete":4754,"importer":4755,"align":4756,"rb":4757,"writ":4758,"prompt":4759,"radius":4760,"Block":4761,"Ġordered":4762,"builder":4763,"åºı":4764,"Ġonce":4765,"ogram":4766,"Ġclosed":4767,"ming":4768,"issues":4769,"scatter":4770,"Length":4771,"All":4772,"depth":4773,"ĠMock":4774,"sin":4775,"96":4776,"1000":4777,"ĥ½":4778,"ctories":4779,"Ġoptim":4780,"Ġutils":4781,"æİ":4782,"Ġfrozen":4783,"Ġdivision":4784,"draw":4785,"401":4786,"****************":4787,"ama":4788,"FIX":4789,"Ġdependencies":4790,"merge":4791,"iles":4792,"gent":4793,"ĠStream":4794,"),(":4795,"OCK":4796,"auss":4797,"opts":4798,"ATION":4799,"GR":4800,"distance":4801,"Generator":4802,"year":4803,"Ġdisable":4804,"TraceHierarchyType":4805,"icy":4806,"Ġunpack":4807,"ĀĀĀĀ":4808,"PATH":4809,"agent":4810,"udio":4811,"CT":4812,"WORD":4813,"Param":4814,"ĠAsync":4815,"Ġscalar":4816,"figure":4817,"Ġdiv":4818,"Ġche":4819,"NotFoundError":4820,"pendency":4821,"Returns":4822,"Ġruntime":4823,"otonic":4824,"Union":4825,"sk":4826,"factory":4827,"Font":4828,"egment":4829,"ness":4830,"tokenizer":4831,"folder":4832,"ait":4833,"asarray":4834,"stop":4835,"Ġdraw":4836,"produ":4837,"}\\":4838,"Ġsimp":4839,"Ġcomplex":4840,"area":4841,"desc":4842,"Description":4843,"Session":4844,"å½":4845,"Ġgot":4846,"ĠBuild":4847,"Ġlists":4848,"ĠTensor":4849,"itch":4850,"ĠRequirement":4851,"complete":4852,"symbol":4853,"ï¼ļ<":4854,"Ġvariables":4855,"ĠDistribution":4856,"Ġindic":4857,"Ġsingly":4858,"Head":4859,"Environment":4860,"lm":4861,"Ġcallback":4862,"Ġpublic":4863,"levels":4864,"ĠConvert":4865,"GB":4866,"From":4867,"ational":4868,"Ġsend":4869,"basic":4870,"bove":4871,"RUN":4872,"Hello":4873,"Ġsysconfig":4874,"Ġgu":4875,"dense":4876,"ressed":4877,"Ġ'-":4878,"clus":4879,">*":4880,"Ġspe":4881,"Ġrelated":4882,"iddleware":4883,"...,":4884,"short":4885,"Ð¾Ð²":4886,"alpha":4887,"istent":4888,"æĿ":4889,"hould":4890,"æ³":4891,"'''":4892,"ĠNOT":4893,"Ġcoeffici":4894,"ĠSpecifier":4895,"ĠRE":4896,"trained":4897,"ARK":4898,"DEPRECATED":4899,"48":4900,"Ġrece":4901,"figs":4902,"ĠSSL":4903,"Ġetc":4904,"Ġwell":4905,"take":4906,"å¼":4907,"samples":4908,"Ġnormalize":4909,"AME":4910,")).":4911,"Dataset":4912,"Ġdataclass":4913,"Ac":4914,"ĠTemplate":4915,"library":4916,"numeric":4917,"__.__":4918,"Ġbest":4919,"Ġimages":4920,"pick":4921,"ighbors":4922,"Win":4923,"Ġge":4924,"Ġtgt":4925,"timeout":4926,"*(":4927,"Ġfeature":4928,"DF":4929,"Ġattemp":4930,"Ġtd":4931,"Ġhighlight":4932,"Ġassoci":4933,"Ġ%(":4934,"lers":4935,"Pl":4936,"generate":4937,"Ġmatches":4938,"Sequence":4939,"Meta":4940,"network":4941,"ital":4942,"OKUP":4943,"adj":4944,"Widget":4945,"Ġabove":4946,"bits":4947,"Ġparsing":4948,"sn":4949,"Ġtakes":4950,"Cla":4951,"æ¯":4952,"ĠNumPy":4953,"utor":4954,"integ":4955,"Range":4956,"original":4957,"rl":4958,"Ġdat":4959,"ĠLe":4960,"Ġinputs":4961,"mapping":4962,"è¾ĵåħ¥":4963,"apt":4964,"stats":4965,"Ġí":4966,"decorators":4967,"Ġadditional":4968,"PRE":4969,"lag":4970,"edia":4971,"Ġ[],":4972,"Ġstored":4973,"oc":4974,"Ġreport":4975,"Ġcat":4976,"\".<":4977,"Memory":4978,"dated":4979,"trics":4980,"FT":4981,"mi":4982,"ĠMatrix":4983,"Ġconcat":4984,"Read":4985,"recurs":4986,"(\".":4987,"ainer":4988,"lation":4989,"ĠThese":4990,"lette":4991,"Ġversions":4992,"Ġhtml":4993,"cursor":4994,"á´":4995,"Ġitself":4996,"reshold":4997,"Ġ24":4998,"pecify":4999,"Ġderiv":5000,"ĠSer":5001,"Ġtraceback":5002,"polynomial":5003,"seconds":5004,"Ġdays":5005,"Ġinv":5006,"istic":5007,"ëĭ":5008,"solve":5009,"Ð±":5010,"åį":5011,"finity":5012,"Ġattrs":5013,"Ġtermin":5014,"98":5015,"ê°":5016,"Ġretry":5017,"Bit":5018,"_{":5019,"iguous":5020,"ĠAbstract":5021,"literals":5022,"hex":5023,"clear":5024,"concat":5025,"dims":5026,"Ġround":5027,"Ġsuccess":5028,"MS":5029,"compare":5030,"Ġoccur":5031,"Ġmight":5032,"ivot":5033,"Ġreleased":5034,"07":5035,"specific":5036,"chat":5037,"1234":5038,"runtime":5039,"alent":5040,"uate":5041,"Ġ25":5042,"union":5043,"LOOKUP":5044,"Ġdti":5045,"SSLContext":5046,"+)":5047,"under":5048,"Ġcursor":5049,"ategory":5050,"Lock":5051,"ĠÐ²":5052,"å¾":5053,"dar":5054,"Ġrenderable":5055,"'{":5056,"push":5057,"special":5058,"ìĹ":5059,"Ġredirect":5060,"Qt":5061,"assign":5062,"quivalent":5063,"HT":5064,")],":5065,"ĠValues":5066,"Ġrecord":5067,"eed":5068,"Ġwarn":5069,"ĠExplanation":5070,">``":5071,"ough":5072,"Row":5073,"orn":5074,"Ġ199":5075,"include":5076,"pan":5077,"ĠMin":5078,"styles":5079,"DAY":5080,"Ġcli":5081,"cing":5082,"Ġdot":5083,"prime":5084,"ared":5085,"ilities":5086,"Ġweb":5087,"Ġ*,":5088,"Ġneeds":5089,"'.<":5090,"Ġ255":5091,"Constraints":5092,"Ġ_,":5093,"rowser":5094,"Ġcontributors":5095,"Ġxml":5096,"Ġ\"#":5097,"èĬ":5098,"helper":5099,"Ġ'\\":5100,"Clause":5101,"Finder":5102,"Ġ[]":5103,"mpletion":5104,"Ġlocale":5105,"atis":5106,"ĠMB":5107,"ane":5108,"setuptools":5109,"Ġcorresponding":5110,"clean":5111,"Ġdone":5112,"ĠMod":5113,"lev":5114,"Ġcir":5115,"Ġexit":5116,"Net":5117,"lear":5118,"Ġrepository":5119,"lish":5120,"leep":5121,"ural":5122,"cpu":5123,"ulate":5124,"fast":5125,"Ġresp":5126,"ĠNew":5127,"Ð·":5128,"Ġind":5129,"document":5130,"è¾ĵåĩº":5131,"datasets":5132,"Ġtt":5133,"]).":5134,"alias":5135,"SIZE":5136,"codeforces":5137,"ressions":5138,"cks":5139,"aw":5140,"Multi":5141,"}.":5142,"commands":5143,"Queue":5144,"assertTrue":5145,"ĠÐ´":5146,"åĽŀ":5147,"åĮ":5148,"rev":5149,"Ġpower":5150,"fli":5151,"quences":5152,"Option":5153,"ĠAuto":5154,"Det":5155,"~~~~~~":5156,"Ġes":5157,"ĠFind":5158,"Ġclean":5159,"Decoder":5160,"namespace":5161,"aving":5162,"Ġast":5163,"``.":5164,"ency":5165,"Extra":5166,"åĨ":5167,"parsed":5168,"ident":5169,"pdf":5170,"Diff":5171,"Linear":5172,"ĠRead":5173,"Ġsoftware":5174,"six":5175,"OUT":5176,"Ġthose":5177,"Ġ'../":5178,"Ġallows":5179,",)<":5180,"Ġ\"{":5181,"pc":5182,"Ġcs":5183,"men":5184,"gis":5185,"}:":5186,"ÑģÑĤ":5187,"}{":5188,"degree":5189,"Ġplace":5190,"Ġchildren":5191,"Ġbackground":5192,"MON":5193,"!\")<":5194,"epoch":5195,"Ġsparse":5196,"Ġden":5197,"NaT":5198,"Ġreset":5199,"Ġexplicit":5200,"ĠPIL":5201,"ortran":5202,"Ġsquare":5203,"Ġrtol":5204,"hero":5205,"Ġsupp":5206,"send":5207,"derer":5208,"mm":5209,"Ġchann":5210,"ĠTree":5211,"è¦":5212,"Ġwrapped":5213,"ords":5214,"Ġverbose":5215,"ctx":5216,"ĠModule":5217,"åĪĹ":5218,"contest":5219,"Ġones":5220,"Ġ'{":5221,"alchemy":5222,"nections":5223,"Ġprotocol":5224,"ific":5225,"åº¦":5226,"ird":5227,"Ġuntil":5228,"Ġreversed":5229,"ĠPlatforms":5230,"after":5231,"proxy":5232,"Ġmemo":5233,"Ġtrailing":5234,"Ġgen":5235,"Ġprime":5236,"Ġregex":5237,"enderableType":5238,"preter":5239,"YPY":5240,"Ġreduce":5241,"sen":5242,"ĠStr":5243,"Ġanything":5244,"ĠFunction":5245,"Ġtoo":5246,"Ġ'_":5247,"ĠHe":5248,"amily":5249,"Ġnote":5250,"ìŀ":5251,"oints":5252,"Ð¿":5253,"CHAR":5254,"rstrip":5255,"Conv":5256,"character":5257,"gr":5258,"Ġexisting":5259,"Ġforce":5260,"76":5261,"Ġus":5262,"Ġalias":5263,"ended":5264,"Ġbar":5265,"ormalized":5266,"Ġconv":5267,"lopen":5268,"¦Ĥ":5269,"legend":5270,"Process":5271,"je":5272,"Ġcalculate":5273,"ga":5274,"sensitive":5275,"quired":5276,"èĬĤ":5277,"Ġnecess":5278,"Ġph":5279,"ĠĠĠĠĠĠĠĠčĊ":5280,"Ġexpr":5281,"ĠCodeforces":5282,"hello":5283,"Ali":5284,"Ġzipfile":5285,"[(":5286,"candidates":5287,"mar":5288,"Ġ(:":5289,"([-":5290,"Ð¹":5291,"ttp":5292,"ĠModel":5293,"Ġschema":5294,"__\",<":5295,"42":5296,"Ut":5297,"Sh":5298,"tar":5299,"diag":5300,"pk":5301,"ĠâĶ":5302,"diffe":5303,"codeError":5304,"uch":5305,"Ġimported":5306,"Middleware":5307,"supported":5308,"erm":5309,"Ġformatter":5310,"ç¬¦":5311,"Ġfuture":5312,"Ġcondition":5313,"interval":5314,"digits":5315,"blob":5316,"account":5317,"Ġcontainer":5318,"Ġ=<":5319,"generator":5320,"TLS":5321,"Ġarch":5322,"Ġgroups":5323,"cer":5324,"Codec":5325,"ĠRun":5326,"Ġfrozenset":5327,"åī":5328,"Ġcandidates":5329,"æķ°ç»Ħ":5330,"allowed":5331,"icrosoft":5332,"heet":5333,"Ġcompute":5334,"Ġ\"\".":5335,"void":5336,"Ġoptparse":5337,"urlopen":5338,"Ġtimezone":5339,"LOW":5340,"elif":5341,"guments":5342,"Ġseconds":5343,"BaseModel":5344,"Ġnegative":5345,"Ñĸ":5346,"ĠPunctuation":5347,"('\\":5348,"Call":5349,"Ġmanager":5350,"_/":5351,"aml":5352,"Ġsimilar":5353,"ĠCache":5354,"opensource":5355,"Ġrect":5356,"times":5357,"Search":5358,"Ġassociated":5359,"vides":5360,"metric":5361,"rices":5362,"Ġnetworkx":5363,"center":5364,"Ġbegin":5365,")//":5366,"åŃĲ":5367,"Raises":5368,"Ġfix":5369,"equals":5370,"pred":5371,"answer":5372,"quote":5373,"Ġstrs":5374,"inspace":5375,"NI":5376,"Column":5377,"Ġstatic":5378,"mem":5379,"Ġreader":5380,"ĠSimple":5381,"Attribute":5382,"Ġ19":5383,"ĠMake":5384,"ĠAN":5385,"igure":5386,"operator":5387,"OCKS":5388,"ĠĠĠĠĠĠĠĠĠĠĠĠĠĠĠĠĠĠĠĠĠĠĠĠĠĠ":5389,"UE":5390,"xis":5391,"ashes":5392,"codecs":5393,"Ġbuf":5394,"chars":5395,"multip":5396,"Ġprecision":5397,"Ġcontents":5398,"Ġshift":5399,"ĠUnicode":5400,"Ġlock":5401,"Ġdialect":5402,"Copyright":5403,"=======<":5404,"Ġsig":5405,"Ġstorage":5406,"neg":5407,"maximum":5408,"Ġpygame":5409,"Ġonline":5410,"Īĺ":5411,"Ġfunctional":5412,"based":5413,"ĠHow":5414,"Ġpush":5415,"ICT":5416,"=[]<":5417,"Dummy":5418,"Ġcategories":5419,"Ġcf":5420,"minimum":5421,"ĠProtocol":5422,"Ġcm":5423,"85":5424,"<=":5425,"èĬĤçĤ¹":5426,"Ġcommands":5427,"Ġincluded":5428,"alance":5429,"Ġweights":5430,"Ġ')<":5431,"And":5432,"ĠFl":5433,"openssl":5434,"Can":5435,"Ġmigrations":5436,"Stat":5437,"reduce":5438,"trip":5439,"Ġlinear":5440,"CL":5441,"RegexLexer":5442,"funcs":5443,"formats":5444,"Ġgenerator":5445,"Ġcollect":5446,"è¦ģ":5447,"compatible":5448,"Ġcandidate":5449,"Ġfinally":5450,"negative":5451,"Specifier":5452,"Ġtk":5453,"================================================================":5454,"td":5455,"ryptography":5456,"åĴĮ":5457,"Ġheapp":5458,"counter":5459,"Ġapi":5460,"rf":5461,"partial":5462,"ä¸ĭ":5463,"ĠInstallRequirement":5464,"Ġsection":5465,"Ġauthor":5466,"timestamp":5467,"Box":5468,"Pass":5469,"Ġstill":5470,"Ġdiag":5471,"dumps":5472,"Ġprivate":5473,"(\"\"":5474,"dest":5475,"windows":5476,"hooks":5477,"Ġ#<":5478,"gl":5479,"Ġlexer":5480,"101":5481,"One":5482,"Ġmodified":5483,"Ġdocumentation":5484,"components":5485,"Ġautomatically":5486,"uted":5487,"Random":5488,"Ġxp":5489,"Ġinstances":5490,"Ġ60":5491,"ĠUnsupported":5492,"Ġdescrib":5493,"SU":5494,"ĠInteger":5495,"cut":5496,"driver":5497,"Ġlater":5498,"Ġbottom":5499,"Ġsubmissions":5500,"abspath":5501,"ping":5502,":])<":5503,"Ġdirs":5504,"multipart":5505,"dence":5506,"langchain":5507,"accept":5508,"bc":5509,"vars":5510,"ĠGraph":5511,"tain":5512,"Ġhig":5513,"power":5514,"Start":5515,"urse":5516,"dfs":5517,"categ":5518,"Ġmimetypes":5519,"Ġ2005":5520,"å®ļ":5521,"optional":5522,"=_":5523,"ctest":5524,"Ġ18":5525,")\"<":5526,"()[":5527,"Enter":5528,"MES":5529,"ount":5530,"Ġsymbol":5531,"transformers":5532,"category":5533,"Ġmatching":5534,"Pipeline":5535,"Ġpointer":5536,"Metadata":5537,"Ġsmallest":5538,"Ġappe":5539,"configuration":5540,"ĠNamedTuple":5541,"pped":5542,"ĠST":5543,"Ġchanges":5544,"ially":5545,"_.":5546,"Ġconstructor":5547,"bbox":5548,"Ġconverted":5549,"255":5550,"weights":5551,"Ġage":5552,"Ġ\"\"\":":5553,"ĠFound":5554,"Ġstarting":5555,"=\"\"":5556,"methods":5557,"database":5558,"DS":5559,"bold":5560,":]":5561,"uck":5562,"Ġdetermine":5563,"å¤§":5564,"wi":5565,"serve":5566,"Ġdirectories":5567,"Builder":5568,"XX":5569,"Ġtick":5570,"################################################################":5571,"anguage":5572,"Ġsqrt":5573,"}\"":5574,"Ġcoordinates":5575,"RUNNING":5576,"rgb":5577,"ĠUsed":5578,"é¢ĺ":5579,"Norm":5580,">\\":5581,"cel":5582,"extract":5583,"rong":5584,"æĹ¶":5585,">):<":5586,"Ġbits":5587,"åĲİ":5588,"Ġdefine":5589,"Ġwere":5590,"(\"-":5591,"Directory":5592,"endswith":5593,"ANDLE":5594,"assertRaises":5595,"Build":5596,"aps":5597,"Ġinternal":5598,"ĠLexer":5599,"Ġcoefficients":5600,"lis":5601,"ado":5602,"Ġarea":5603,"ampler":5604,"linspace":5605,"Ġ',":5606,"perly":5607,"mk":5608,"ç§":5609,"grad":5610,"resource":5611,"pay":5612,"pare":5613,"istogram":5614,"ĠMemory":5615,"GET":5616,"Temp":5617,"Ġpadding":5618,"Ġsegment":5619,"scripts":5620,"oth":5621,"Ġgh":5622,"Ġexactly":5623,"admin":5624,"inct":5625,"æŀľ":5626,"anced":5627,"ĠRange":5628,"Ġknow":5629,"ionError":5630,"Ġindent":5631,"resolve":5632,"Ġdefaults":5633,"ĠÐ½":5634,"ĠYour":5635,"Template":5636,"Ġdeprecation":5637,"circ":5638,"COM":5639,"å·":5640,"Ġpi":5641,"Ġsomething":5642,"ĠCan":5643,"'re":5644,"Ġspecify":5645,"called":5646,"middleware":5647,"vec":5648,"Ġchecks":5649,"Ġinside":5650,"Ġjob":5651,"Ġcollection":5652,"'],<":5653,"Ġappend":5654,"ĠValid":5655,"mac":5656,"ĠParser":5657,"Ġown":5658,"named":5659,"public":5660,"Ġdifference":5661,"etCode":5662,"TOCOL":5663,"Label":5664,"correct":5665,"flict":5666,"ĠÐ¾":5667,"MARK":5668,"ĠEX":5669,"utc":5670,"amma":5671,"popleft":5672,"Ġboundary":5673,"alary":5674,":\",":5675,"same":5676,"randint":5677,"dates":5678,"Ġflat":5679,"Convert":5680,"åĪĨ":5681,"Ġrem":5682,"ĠInitialize":5683,"è¡Į":5684,"ĠDes":5685,"apped":5686,"SP":5687,"contextmanager":5688,"Ġcompatible":5689,"mpl":5690,"Ġ2022":5691,"59":5692,"setitem":5693,"gorithms":5694,"Ġang":5695,"enum":5696,"HTML":5697,"WAR":5698,"METH":5699,")}":5700,"requirement":5701,"serv":5702,"ìĿ´":5703,".)<":5704,"optim":5705,"SO":5706,"Ġstdout":5707,"Retry":5708,"EE":5709,"Ġlayer":5710,"Ġlevels":5711,"Ġencoded":5712,"ials":5713,"Adapter":5714,"LL":5715,"...<":5716,"Exec":5717,"kipedia":5718,"pow":5719,"Ġpix":5720,"Ġfastapi":5721,"separ":5722,"LOC":5723,"sidered":5724,"Ġsaved":5725,"ĠLib":5726,"wei":5727,"Proxy":5728,"Windows":5729,"Ad":5730,"zz":5731,"loyee":5732,"]],<":5733,"override":5734,"Platform":5735,"ĠRegexLexer":5736,"ĠTick":5737,"Find":5738,"Chat":5739,"aly":5740,"ĠHash":5741,")\\":5742,"çİ":5743,"ene":5744,"Ġconsidered":5745,"Ġ\"._":5746,"ranges":5747,"layers":5748,"(\"_":5749,"%(":5750,"security":5751,"Ġextensions":5752,"segment":5753,"ĠWSGI":5754,"Ġsets":5755,"bi":5756,"iki":5757,"ÐµÑĤ":5758,"ĠUp":5759,"imation":5760,"ragment":5761,"break":5762,"elements":5763,"](":5764,"constants":5765,"ĠMYPY":5766,"ç¤ºä¾ĭ":5767,"ingle":5768,"alt":5769,"Ġpad":5770,"Ġ17":5771,"extern":5772,"Level":5773,"ĠÂł":5774,"Ġbasic":5775,"Ġzeros":5776,">\"<":5777,"ood":5778,"Ġ()":5779,"prog":5780,"mutation":5781,"2023":5782,"Ġ64":5783,"Ð°Ð½":5784,"executable":5785,"QQ":5786,"ĠAuthor":5787,"ĠGE":5788,"wsgi":5789,"Mode":5790,"Ġaround":5791,"hidden":5792,"ĠMessage":5793,"may":5794,"locale":5795,"ĠEach":5796,"maxsize":5797,"unch":5798,"-=":5799,"digit":5800,"month":5801,"IR":5802,"mult":5803,"()):<":5804,"Ġmeta":5805,"è§£":5806,"Ġmi":5807,"ĠOnly":5808,"////////////////":5809,"Ġauthors":5810,"Ġtail":5811,"123":5812,"Ġscheduler":5813,"FS":5814,"reindex":5815,"INTER":5816,"subplots":5817,"struction":5818,"Ġslice":5819,"png":5820,"ighbor":5821,"Ġrv":5822,"ately":5823,"ret":5824,"mens":5825,"green":5826,"ffset":5827,"ndim":5828,"oolean":5829,"Import":5830,"æīĢ":5831,"</":5832,"arm":5833,"indexer":5834,"Ġcheb":5835,"filters":5836,"HAS":5837,"Ġlarge":5838,"Ġmajor":5839,"cip":5840,"Ġloader":5841,"tuples":5842,"bind":5843,"ëĬ":5844,"æ³ķ":5845,"ĠOtherwise":5846,"Ġyear":5847,"unpack":5848,"scriptor":5849,"LC":5850,"nb":5851,"lr":5852,"ining":5853,"Converter":5854,"eno":5855,"IGN":5856,"Palindrome":5857,"Ġ.._":5858,"Ġpredi":5859,"Ġ2024":5860,"Ġinherit":5861,"Ġcryptography":5862,"Ġdual":5863,"icen":5864,"Ġdirection":5865,"Ġescape":5866,"Ġvariant":5867,"}'":5868,"Embed":5869,"ë¡":5870,"inference":5871,"([(":5872,"forward":5873,"toml":5874,"ĠPoly":5875,"Document":5876,"IBUT":5877,"[...,":5878,"templates":5879,"à¸":5880,"ĠBack":5881,"åħĥ":5882,"Ġgreater":5883,"expand":5884,"My":5885,"Ġfoo":5886,"lah":5887,"ĠSparseArray":5888,"contents":5889,"nsi":5890,"ĠSearch":5891,"è¿Ķ":5892,"AM":5893,"dimens":5894,"åŃĹç¬¦":5895,"scope":5896,"visible":5897,"FC":5898,"upports":5899,"Factory":5900,"Be":5901,"agement":5902,"Counter":5903,"Ġissue":5904,"ĠCodeforcesTask":5905,"Ġgra":5906,"Ġlowercase":5907,"super":5908,"mpro":5909,"Ġ'../_":5910,"Order":5911,"[^":5912,"å¯":5913,"Ġformats":5914,"SER":5915,"Ġhex":5916,"Ġsuppress":5917,"aussian":5918,"legram":5919,"Protocol":5920,"ĠFormatter":5921,"doptions":5922,"TRIBUT":5923,"10000":5924,"æĢ":5925,"Ġ``'":5926,"Yu":5927,"ĠĠĠĠĠĠĠĠĠĠĠĠĠĠĠĠĠĠĠĠĠ":5928,"ĠPackage":5929,"eats":5930,"login":5931,"åĢ¼":5932,"fname":5933,"Ġrat":5934,"Ġdouble":5935,"è·":5936,"TF":5937,"49":5938,"hest":5939,"this":5940,"ĠDO":5941,"pers":5942,"Form":5943,"dummy":5944,"ĠIP":5945,"System":5946,"MONTH":5947,"ĠExtension":5948,"atches":5949,"Store":5950,"Ġ).":5951,"php":5952,"Ġ26":5953,"Runtime":5954,"=['":5955,"icensed":5956,"ouse":5957,"FIG":5958,"pu":5959,"ae":5960,"functools":5961,":%":5962,"encoder":5963,"5678":5964,"SHORT":5965,"Ġrepl":5966,"Ġinstantiated":5967,"éĹ´":5968,"Ġhidden":5969,"METHOD":5970,"iform":5971,"ategy":5972,"Buffer":5973,"ĠSoftware":5974,"Ġcells":5975,"Ġidentifier":5976,"Ġguess":5977,"Vis":5978,"rfc":5979,"Ġshared":5980,"ormalizedName":5981,"Serializer":5982,"äºİ":5983,"video":5984,"Source":5985,"DICT":5986,"Ġtimestamp":5987,"ë¥":5988,"ithme":5989,"polys":5990,"9999":5991,"ĠTeam":5992,"riend":5993,"Ġcounts":5994,"Ġmade":5995,"Ġtuples":5996,"pipeline":5997,"Ġquot":5998,"è¿ĶåĽŀ":5999,"ĠValue":6000,"SET":6001,"Match":6002,"ority":6003,"keyp":6004,"ĠOSError":6005,"mak":6006,"ariable":6007,"uv":6008,"seek":6009,"Layout":6010,"è¿Ļ":6011,"Interval":6012,"/.":6013,"Aut":6014,"Ġassign":6015,"/{":6016,"ĠDevelopment":6017,"HANDLE":6018,"hour":6019,"-----------------------------------------------------------------------------<":6020,".')<":6021,"des":6022,"ĠSh":6023,"æĪĲ":6024,"USER":6025,"ĠPRO":6026,"\")]<":6027,"ĠNotes":6028,"Ġcols":6029,"ĠContext":6030,"Common":6031,"Ġstrict":6032,"Ġvarious":6033,"å¹":6034,"Ġleading":6035,"infer":6036,"Ġfil":6037,"ĠĠĠĠĠĠĠĠĠĠĠĠĠĠĠĠĠĠĠĠĠĠ":6038,"199":6039,"inp":6040,"Ġbbox":6041,"izers":6042,"compress":6043,"Failed":6044,"Ġdump":6045,"Ġcurrently":6046,"effect":6047,"images":6048,"Ġchat":6049,"ĠMeasurement":6050,"Tri":6051,"Ġscreen":6052,"land":6053,"Ġchecking":6054,"Ð¾Ð»":6055,"Ġpartic":6056,"ithmetic":6057,"ench":6058,"ĠFastAPI":6059,"Down":6060,"oney":6061,"mengine":6062,"Iterable":6063,"lru":6064,"ric":6065,"Ġlayout":6066,">\"":6067,"Binary":6068,"ef":6069,"46":6070,"Ġsymbols":6071,"Ġ22":6072,"fmt":6073,"Ġseq":6074,"47":6075,"itu":6076,"Ġfrequency":6077,"DATETIME":6078,"]\")<":6079,"moves":6080,"Exp":6081,"Ġimplemented":6082,"Iterator":6083,"Hook":6084,"gmail":6085,"Ġcompare":6086,"Ġvisit":6087,"produces":6088,"52":6089,"Ġ*_":6090,"loor":6091,"imer":6092,"Script":6093,"Ġnan":6094,"ĠFloat":6095,"Ġappropri":6096,"AX":6097,"major":6098,"writer":6099,"Hash":6100,"lenv":6101,"uest":6102,"reference":6103,"Ġclear":6104,"ĠTemp":6105,"Ġquant":6106,"ĠBaseModel":6107,"boolean":6108,"Ġstyles":6109,"Header":6110,"ī¤":6111,"oogle":6112,"ëĬĶ":6113,"git":6114,"ising":6115,"\"^":6116,"IF":6117,"Ġtar":6118,"Ġmiddle":6119,"CONT":6120,"cessed":6121,"IGHT":6122,"Operator":6123,"wiki":6124,"Ġinf":6125,"partition":6126,"migrations":6127,"loaded":6128,"ĠRequests":6129,"sertionError":6130,"cording":6131,"TYPES":6132,"variant":6133,"intp":6134,"DEBUG":6135,"Ġput":6136,"adow":6137,"ĠCategoricalIndex":6138,"Ġnecessary":6139,"MIN":6140,"ĠTable":6141,"Query":6142,"ualenv":6143,"digest":6144,"Ġorigin":6145,"Ġxrange":6146,"ĠĠĠĠĠĠĠĠĠĠĠĠĠĠĠĠĠĠĠĠĠĠĠĠĠĠĠĠĠĠĠĠĠĠ":6147,"ë¡ľ":6148,"Ġdelta":6149,"ufunc":6150,"Ġconn":6151,"OT":6152,"scheduler":6153,"ynamic":6154,"å°ı":6155,"chor":6156,"Ġsubset":6157,"pydev":6158,"ĠUsage":6159,"icle":6160,"blue":6161,"Ġdimensions":6162,"extras":6163,"uel":6164,"acters":6165,"ysql":6166,"aced":6167,"Mon":6168,"categories":6169,"false":6170,"umlah":6171,"Timestamp":6172,"lab":6173,"radient":6174,"ube":6175,"Ġ-----<":6176,"Ġcore":6177,"student":6178,"(['":6179,"gre":6180,"Ġturn":6181,"Ġtrust":6182,"Ġ\"--":6183,"shared":6184,"Ġadjac":6185,"small":6186,"execute":6187,"fin":6188,"rea":6189,"Ġsqlalchemy":6190,".\",<":6191,"free":6192,"Ġcarry":6193,"Child":6194,"Ġisn":6195,"ìĿĺ":6196,"baz":6197,"ĠSOCKS":6198,"inja":6199,"Database":6200,"ç½":6201,"ĠTrie":6202,"PU":6203,"rm":6204,"æĮ":6205,"orp":6206,"timezone":6207,"amount":6208,"Ġ'%":6209,"Ġsignature":6210,"ĠPY":6211,"Ġperson":6212,"Ġqueries":6213,"Dirs":6214,"SV":6215,"Ð»Ð°":6216,"ĠQt":6217,"formed":6218,"OF":6219,"IndexError":6220,"Ġaddress":6221,"----<":6222,"ÑĨ":6223,"need":6224,"otent":6225,"ĠOpenSSL":6226,"èĥ½":6227,"Ġcontained":6228,"directed":6229,"Ġcmdoptions":6230,"ĠMon":6231,"road":6232,"Ġhapp":6233,"ĠHel":6234,"Ġquote":6235,"ç´ł":6236,"Use":6237,"Ġ2013":6238,"Ġsignal":6239,"Ġinitialize":6240,"]})<":6241,"DATA":6242,"æŃ":6243,"ĠTransform":6244,"Ġlru":6245,"monotonic":6246,"ĠColumn":6247,"Ġhour":6248,"trace":6249,"Ġfaster":6250,"ĠTraceback":6251,"PS":6252,"pretrained":6253,"íķĺ":6254,"VALID":6255,"clo":6256,"Ġwritten":6257,"ĠSegment":6258,"Ġsep":6259,"Vector":6260,"mas":6261,"tract":6262,"ĠRemove":6263,">##":6264,"Ġmarkup":6265,"bounds":6266,"Ġ'''":6267,"Load":6268,"secut":6269,"([],":6270,"Ġcontextmanager":6271,"),(-":6272,"fully":6273,"alo":6274,"Ġpur":6275,"LEN":6276,"BaseTraceHierarchyType":6277,"Ġ['*.":6278,"ets":6279,"MODE":6280,"Ġabstractmethod":6281,"zA":6282,"ares":6283,"bra":6284,"parallel":6285,"ç®":6286,"Ġrout":6287,"Ġweak":6288,"Ġhooks":6289,"åīį":6290,"\"]:<":6291,")}<":6292,"Ġmmengine":6293,"adapt":6294,"dire":6295,"Ġegg":6296,"åİ":6297,"irt":6298,"Ġactually":6299,"ertificate":6300,"formatters":6301,"ring":6302,"Ġstride":6303,"æį":6304,"Incremental":6305,"Feat":6306,"ĠNaT":6307,"ĠMutable":6308,"Sort":6309,"normalize":6310,"Core":6311,"begin":6312,"solid":6313,"ĠLibrary":6314,"framework":6315,"Ġmpl":6316,"Ġcomparison":6317,"ĠStart":6318,"Ġbig":6319,"ĠNetwork":6320,"Window":6321,"Ġequivalent":6322,"ratio":6323,"indent":6324,"Cre":6325,"fied":6326,"FILE":6327,"transpose":6328,"Print":6329,"tables":6330,"ĠWord":6331,"[<":6332,"transforms":6333,"Button":6334,"inv":6335,"ĠLicensed":6336,"ĠAttributes":6337,"Yin":6338,"ĠOR":6339,"weiYin":6340,"YuweiYin":6341,"job":6342,"secutive":6343,"Heap":6344,"ordered":6345,"HO":6346,"Ġpay":6347,"roots":6348,"Ġuuid":6349,"Ġagainst":6350,"POR":6351,"uk":6352,"optimize":6353,"Ġ{}\".":6354,"dep":6355,"Ġtol":6356,"Ġfixed":6357,"apps":6358,"BR":6359,"Ġvideo":6360,"ä¸²":6361,"ĠCustom":6362,"2013":6363,"Ġeffect":6364,"feature":6365,"Ġiterator":6366,"half":6367,"quee":6368,"Ġrepeat":6369,"Ġ10000":6370,"Ġatol":6371,"Ġgeneration":6372,"native":6373,"USE":6374,"prices":6375,"Ġstrip":6376,"ava":6377,"ordinate":6378,"Ġlin":6379,"Ġbygroups":6380,"Ġ23":6381,"Ġ()<":6382,"oh":6383,"Ġmedi":6384,"Ġê°":6385,"Ġtied":6386,"Ġnested":6387,"cker":6388,"access":6389,"Ġstudent":6390,"Ġunits":6391,"ä½ł":6392,"Over":6393,"sired":6394,"Ġadding":6395,"DummyObject":6396,"ĠNA":6397,"Ġgame":6398,"Ġ~":6399,"Ġpivot":6400,"Ġnumba":6401,"tle":6402,"æłĳ":6403,"alog":6404,"capacity":6405,"Ġdst":6406,"Ġprobab":6407,"ÐµÑĢ":6408,"google":6409,"]),<":6410,"Thread":6411,"ĠAc":6412,"çĽ®":6413,"58":6414,"bad":6415,"Ġta":6416,"armor":6417,"ĠVERSION":6418,"Ġvar":6419,"ĠRet":6420,"Ġ*,<":6421,"lify":6422,"which":6423,"Abstract":6424,"blems":6425,"Future":6426,"ged":6427,"Ġgettext":6428,"Ġfree":6429,"amer":6430,"INPUT":6431,"structures":6432,"Ġ21":6433,"Ġgood":6434,"units":6435,"Ġmag":6436,"links":6437,"inputs":6438,"70":6439,"Action":6440,"Ġflow":6441,"ĠWheel":6442,"oriz":6443,"repeat":6444,"Ġtraining":6445,"={\"":6446,"Ġmx":6447,"Ġdimension":6448,"jit":6449,"ipFile":6450,"alys":6451,"vertices":6452,"longest":6453,"Socket":6454,"constructor":6455,"Ġ\"\",":6456,"Func":6457,"construct":6458,"outine":6459,"impl":6460,">(":6461,"¬¡":6462,"Initial":6463,"expression":6464,"Ġfront":6465,"Ġìŀ":6466,"inations":6467,"Ġinorder":6468,"Ð¾ÑĢ":6469,"olved":6470,"clar":6471,"proc":6472,"gres":6473,"Ġsen":6474,"mq":6475,"comparison":6476,"should":6477,"Ġtheme":6478,"trust":6479,"metrics":6480,"Ġexclude":6481,"StringIO":6482,"Ġserialize":6483,"ä¼":6484,"EXTENSIONS":6485,"Ġinner":6486,"Ġaccount":6487,"validator":6488,"ĠÐ¸":6489,"Ġwhose":6490,"Ġquestion":6491,"INDO":6492,"TypeVar":6493,"comb":6494,"Ġtransformers":6495,"ĠLegacy":6496,"CE":6497,"ĠAd":6498,"TED":6499,"Ġverify":6500,"Axes":6501,"Ġinp":6502,"ĠTag":6503,"Ġstdin":6504,"Ġexpect":6505,"outer":6506,"Ġfilters":6507,"############":6508,"choice":6509,"LIST":6510,"Marker":6511,"Ġsl":6512,"conn":6513,"flag":6514,"Wh":6515,"}')<":6516,"ĠVis":6517,"Installer":6518,"Async":6519,"ĠWin":6520,"Ġincluding":6521,"ĠAuth":6522,"plugin":6523,"three":6524,"Ġfunctionality":6525,"wikipedia":6526,"Ġbounds":6527,"peri":6528,"DecodeError":6529,"visit":6530,"leton":6531,"PT":6532,"Ġassume":6533,"Ġseed":6534,"Ġ\"\\\\":6535,"Ġcfg":6536,"imator":6537,"patterns":6538,"Ġ00":6539,"Ġcomment":6540,"ancy":6541,"Types":6542,"('/":6543,"ç¬¬":6544,"54":6545,"dx":6546,"come":6547,"ĠMat":6548,"äºĨ":6549,"åħĥç´ł":6550,"actions":6551,"overload":6552,"ONE":6553,"ĠBad":6554,"ĠRender":6555,"Ġcapacity":6556,"bone":6557,"Ġdefinition":6558,"SrcValidator":6559,"ĠĠĠĠĠĠĠĠĠĠĠĠĠĠĠĠĠĠĠĠĠĠĠĠ":6560,"Ġapplied":6561,"ĠPa":6562,"Ġchanged":6563,"MARKER":6564,"ä½į":6565,"Ġlag":6566,"See":6567,"Ġappropriate":6568,"79":6569,"å¦Ĥ":6570,"retri":6571,"queeze":6572,"ĠçļĦ":6573,"COMP":6574,"Space":6575,"ZZ":6576,"Ġindexer":6577,"Ġversionchanged":6578,"blocks":6579,"hentication":6580,"Ġwraps":6581,"tered":6582,"ImageFile":6583,"Ġcalling":6584,"Ġ|<":6585,"Two":6586,"åı¯ä»¥":6587,"ĠHttp":6588,"Spec":6589,"__}":6590,"finite":6591,"candidate":6592,"Ġenable":6593,"erce":6594,"DIT":6595,"Ġdetermin":6596,"lem":6597,"FORMATS":6598,"LeetCode":6599,"dst":6600,"Ġask":6601,"Ġurlparse":6602,"Ġrev":6603,"Ġbad":6604,"ãĢģ":6605,"Missing":6606,"Ġdic":6607,"Ġhalf":6608,"uman":6609,"ampling":6610,"history":6611,"ACE":6612,"Ġgreen":6613,"versable":6614,"Ġalign":6615,"+<":6616,"Ġ40":6617,"checkpoint":6618,"oauth":6619,"rac":6620,"é¡":6621,"cending":6622,")?":6623,"jection":6624,"ctypes":6625,"xp":6626,"combin":6627,"ĠGroup":6628,"%<":6629,"ports":6630,"è½":6631,"äºĮ":6632,"Ġscope":6633,"Ġmem":6634,"Ð¾Ð´":6635,"Ġcenter":6636,"DP":6637,"cm":6638,"Ġcomponents":6639,"mmetric":6640,"Ġsupplied":6641,"BACK":6642,"ĠJupyter":6643,"provider":6644,"subclass":6645,"ĠChat":6646,"ë¥¼":6647,"Ġlat":6648,"Ġ''.":6649,"Ġalph":6650,"eometry":6651,"Ġgeneral":6652,"Ġerrno":6653,"Ġvery":6654,"dies":6655,"ĠCONTRIBUT":6656,"Ġpartition":6657,"generic":6658,"çŃ":6659,"ĠPlease":6660,":\\":6661,"Ġvals":6662,"hesis":6663,"##<":6664,"]['":6665,"bottom":6666,"Ġretries":6667,"city":6668,"Ġrespon":6669,"Problem":6670,"ssions":6671,"Zero":6672,"sm":6673,"ĠConnection":6674,"sched":6675,"ĠEnum":6676,"Ġcategory":6677,"cached":6678,"Ġexpand":6679,"ĠBeats":6680,"button":6681,"even":6682,"ĠCur":6683,"Application":6684,"éģ":6685,"tep":6686,"ULL":6687,"ìĿĦ":6688,"ĠRo":6689,"ali":6690,"OPT":6691,"SY":6692,"Log":6693,"ponent":6694,"ĠFileNotFoundError":6695,"tasks":6696,"Helper":6697,"ĠSome":6698,"raries":6699,"Ġbias":6700,"fficient":6701,"Ġstatement":6702,"ä½¿":6703,"Ġ========<":6704,"Ġspa":6705,"Ġhi":6706,"props":6707,"heappush":6708,"ĠFlask":6709,"lendar":6710,"/#":6711,"Ġdelet":6712,"ì§":6713,"Ġconnections":6714,"------------------------------------------------":6715,"Ġevents":6716,"ColorValidator":6717,"Operation":6718,"Ġscal":6719,"gether":6720,"Ġrich":6721,"cookie":6722,"ĠRuntimeError":6723,"cial":6724,"returns":6725,"ĠâĢ":6726,"etween":6727,"\",\".":6728,"ëł":6729,"deprecated":6730,"ĠBlock":6731,"Ġhaving":6732,"tf":6733,"æ¬¡":6734,"lit":6735,"001":6736,"Ġloaded":6737,"bf":6738,"ravel":6739,"Ġgcd":6740,"Ġ\\\\":6741,"Tokenizer":6742,"èĢ":6743,"orizont":6744,"ii":6745,"mbers":6746,"Ġimplements":6747,"Ġknown":6748,"intersection":6749,"ĠState":6750,"Params":6751,"ima":6752,"Ġregular":6753,"ieve":6754,"Ġsim":6755,"Ġregistry":6756,");":6757,"master":6758,"Ġproblems":6759,"Ġspeed":6760,"download":6761,"Last":6762,"urface":6763,"days":6764,"Ġwait":6765,"const":6766,"Ġprofit":6767,"archive":6768,"Ġsentence":6769,"BASE":6770,"ckets":6771,"mus":6772,"âĸ":6773,"Ġ31":6774,"alysis":6775,"cf":6776,"Ġ}":6777,"Expr":6778,"djangoproject":6779,"rename":6780,"world":6781,"Ġshell":6782,"Ġdesired":6783,"CS":6784,"cn":6785,"ç»Ļ":6786,"ntaxError":6787,"Ġraising":6788,"mixed":6789,"IE":6790,"('.":6791,"here":6792,"Ġhyp":6793,"ĠDatabase":6794,"Ġdeep":6795,"nsure":6796,"Ġfolder":6797,"suppress":6798,"ï¼ī":6799,"square":6800,"Ġdy":6801,"setdefault":6802,"Ġoutputs":6803,"cores":6804,"mach":6805,"RequestException":6806,"Ġobtain":6807,"Ġspaces":6808,"processor":6809,"heappop":6810,"Ġliteral":6811,"Ġbacktrack":6812,"KeyError":6813,"decimal":6814,"roid":6815,"ara":6816,"slow":6817,"1111":6818,"ains":6819,"ĠProxy":6820,"oms":6821,"arguments":6822,"Ġprop":6823,"ìĹĲ":6824,"cogn":6825,"tok":6826,"vertex":6827,"bn":6828,"Infinity":6829,"ĠFont":6830,"tab":6831,"inx":6832,"poses":6833,"zeug":6834,"payload":6835,"Ñħ":6836,"recursion":6837,"ĠASC":6838,"kzeug":6839,"Ġdistributions":6840,"uster":6841,"gd":6842,"ï¼Ī":6843,"ĠProblem":6844,"Sign":6845,"Ġgoogle":6846,"ĠPip":6847,"Ġeps":6848,"cons":6849,"2017":6850,"MOD":6851,"cr":6852,"57":6853,"Ð³":6854,"FIEL":6855,"serializer":6856,"ĠGEOS":6857,"secret":6858,">================":6859,"Ġdtypes":6860,"interpol":6861,",'":6862,"ĠConsoleOptions":6863,"aN":6864,"tslibs":6865,"velopers":6866,"without":6867,"High":6868,"arest":6869,"HEADER":6870,"Ñİ":6871,"EXTENSION":6872,"-\\":6873,"ìĦ":6874,"Ġ'--":6875,"ĠPyInstaller":6876,"Ġmakes":6877,"Ġide":6878,"ypedDict":6879,"Bar":6880,"Datetime":6881,"aming":6882,"Mo":6883,"way":6884,"Ġglyph":6885,"Package":6886,"iso":6887,"tk":6888,"Ġcreating":6889,"Ġthings":6890,"Ġplayer":6891,"lying":6892,"'].":6893,"NUM":6894,"ĠSum":6895,"ĠĠĠĠĠĠĠĠĠĠĠĠĠĠĠĠĠĠĠĠĠĠĠĠĠ":6896,"Ġgeneric":6897,"New":6898,"imate":6899,"Depth":6900,"phinx":6901,"Callback":6902,"Server":6903,"æĸĩ":6904,"-%":6905,"quares":6906,"ANG":6907,"ëĭ¤":6908,"rep":6909,"comment":6910,"implementation":6911,"IX":6912,"There":6913,"ĠDocument":6914,"Ġcorrectly":6915,"stit":6916,"ĠPoint":6917,"ability":6918,"edList":6919,"Ġdistinct":6920,"ITY":6921,"TimeoutError":6922,"ĠASCII":6923,"Ġnumeric":6924,"prox":6925,"Ġrules":6926,"forms":6927,"iskit":6928,"entries":6929,"ĠOpt":6930,")``":6931,"ĠLex":6932,"ivity":6933,"az":6934,"Ġimporting":6935,"Ġ=>":6936,"Ġdebu":6937,"exe":6938,"Testcase":6939,"private":6940,"edu":6941,"astern":6942,"Ġcompile":6943,"033":6944,"that":6945,"ĠModified":6946,"89":6947,"consu":6948,"player":6949,"okies":6950,"Ġrefer":6951,"ĠDate":6952,"ĠConfiguration":6953,"éķ":6954,"letter":6955,"åŃĺ":6956,"offsets":6957,"^^":6958,"agraph":6959,"='')<":6960,"xyz":6961,"ranch":6962,"CCESS":6963,"NS":6964,"Out":6965,"datat":6966,"documents":6967,"Ġ2020":6968,"[\\":6969,"frames":6970,"flatten":6971,"Ġbas":6972,"lighter":6973,"Alias":6974,"ç½®":6975,"categorical":6976,"Ġrecent":6977,"predi":6978,"npack":6979,"finityType":6980,"æķ´":6981,"Ġtasks":6982,"Ġremaining":6983,"mployee":6984,"Ġdegree":6985,"=[[":6986,"Ġfigure":6987,"pair":6988,"Ġexpressions":6989,"MPL":6990,"ropo":6991,"Ġptr":6992,"HTTPError":6993,"prop":6994,"matches":6995,"SEC":6996,"Ġsubclasses":6997,"Auto":6998,"lists":6999,"Interface":7000,"ah":7001,"ĠGoogle":7002,"Entry":7003,"Ġcycle":7004,"pickle":7005,"ropout":7006,"Ġcoins":7007,"untyped":7008,"dentials":7009,"ticks":7010,"azy":7011,"Ġprevent":7012,"Product":7013,"Ġresolution":7014,"Ġplugin":7015,"ĠLinear":7016,"ĠSession":7017,"ropy":7018,"Ġfit":7019,"Custom":7020,"Ġrespect":7021,"Unknown":7022,"squeeze":7023,"WN":7024,"gon":7025,"éĵ":7026,"TEST":7027,"codings":7028,"into":7029,"NamedTuple":7030,"Ġextras":7031,"voke":7032,"ĠCLI":7033,"ìĪĺ":7034,"llm":7035,"pairs":7036,"cachecontrol":7037,"Offset":7038,"lint":7039,"Ġdivide":7040,"ĠCall":7041,"ĠConstant":7042,"])]<":7043,"Non":7044,"states":7045,"pet":7046,"lookups":7047,"Agg":7048,"pendent":7049,"Ġfailed":7050,"CHARS":7051,"Ġhold":7052,"istered":7053,"fetch":7054,"prereleases":7055,"moji":7056,"Ġ([":7057,"ĠResult":7058,"Ġconnected":7059,"Ġ[])<":7060,"rec":7061,"bz":7062,"Change":7063,"Ġmerged":7064,"Ġexplicitly":7065,"0001":7066,"dl":7067,"least":7068,"Ġparticular":7069,"cular":7070,"Ð°ÑĤ":7071,"ĠMigration":7072,"quad":7073,"cards":7074,"ĠÂłĠÂł":7075,"sdist":7076,"uer":7077,"ASS":7078,"]):":7079,"boundary":7080,"Ġtaken":7081,"dimension":7082,"AGE":7083,"ä¸¤":7084,"views":7085,"Ġcookie":7086,"ãģĦ":7087,"Ġ------------------------------------------------------------------<":7088,"Extractor":7089,"Ġdrop":7090,"family":7091,"orskip":7092,"Ġdownload":7093,"Ġmaking":7094,"glob":7095,"tach":7096,"Ġrecursive":7097,"Write":7098,"idual":7099,")\")<":7100,"Ġfails":7101,"FutureWarning":7102,"Ġcomponent":7103,"ĠDistributed":7104,"éĵ¾":7105,"Ġsequences":7106,"arrange":7107,"ĠBasic":7108,"versions":7109,"mutable":7110,"ats":7111,"ĠSymbol":7112,"audio":7113,"uting":7114,"Ġdid":7115,"modified":7116,"Ġinterpol":7117,"ãģĨ":7118,"hyp":7119,"ĠTimeout":7120,"Ġ\"))<":7121,"prod":7122,"Literal":7123,"importorskip":7124,"venv":7125,"ĠAnsi":7126,"ĠFigure":7127,"VAR":7128,"Ġkinds":7129,"Ġinplace":7130,"trim":7131,"UTF":7132,"Ġaverage":7133,"ract":7134,":`_":7135,"Ġresolve":7136,"Ġindicating":7137,"###<":7138,"ĠChar":7139,"tection":7140,"Ġdestination":7141,"oring":7142,"ĠAp":7143,"events":7144,"channel":7145,"Ġcard":7146,"ĠDeprecationWarning":7147,"ENTI":7148,"ived":7149,"solidate":7150,"Title":7151,"Ġsources":7152,"apes":7153,"'ll":7154,"ìł":7155,"plain":7156,")**":7157,").\"\"\"<":7158,"validation":7159,"Ġsubarray":7160,"Ġnormalized":7161,"selected":7162,"translation":7163,"hing":7164,"Ġclo":7165,"peated":7166,"Does":7167,"Ġtrim":7168,"Ġmagic":7169,"ĠLexers":7170,"Ġways":7171,"quot":7172,"ĠOne":7173,"REG":7174,"Ġspan":7175,"Ġentire":7176,"Ġsin":7177,"Ġgit":7178,"collection":7179,"Ġvertex":7180,"variable":7181,"________________________________":7182,"Ġchannel":7183,"Ġpow":7184,"measure":7185,"ceed":7186,"enate":7187,"shares":7188,"Ġvertices":7189,"Rows":7190,"First":7191,"origin":7192,"Network":7193,"udge":7194,"maybe":7195,"]\"<":7196,"alculate":7197,"ARR":7198,"Ġcal":7199,"GLES":7200,"uffle":7201,"Ġnotice":7202,"before":7203,"_)<":7204,"æĸ¹":7205,"best":7206,"ĠLog":7207,"srcValidator":7208,"ĠEnd":7209,"§ĭ":7210,"Ġcombinations":7211,"Ġposix":7212,"embedding":7213,"PREFIX":7214,"alph":7215,"quick":7216,"crease":7217,"ANT":7218,"widget":7219,"Ġtemporary":7220,"roadcast":7221,"ĠWhether":7222,"ĠHowever":7223,"stand":7224,"Ġsubstring":7225,"ollow":7226,"precision":7227,"ĠLoad":7228,"route":7229,"ĠCase":7230,"beta":7231,"owels":7232,"Ġlowest":7233,"OM":7234,"ĠTrans":7235,"INDOWS":7236,"SA":7237,"ante":7238,"Ġxy":7239,"Ġvirt":7240,"Ġupdated":7241,"difference":7242,"MAP":7243,"pypi":7244,"CUR":7245,"Ġaccording":7246,"Ġdocs":7247,"dy":7248,"Ġmeant":7249,"Ġrule":7250,"ĠPool":7251,"saved":7252,"Ġsatis":7253,"Ġrequire":7254,"lies":7255,"calls":7256,"isinstance":7257,"ĠSci":7258,"Ġvendor":7259,"THON":7260,"æłĩ":7261,"Ġguar":7262,"problemset":7263,"Ġdecor":7264,"Ġfname":7265,"prob":7266,"ifiers":7267,"remain":7268,"Ġìł":7269,"ĠNegative":7270,"Ġterminal":7271,"COD":7272,"Cannot":7273,"ils":7274,"distributed":7275,"Ġ``\"":7276,"ĠPeriodIndex":7277,"å¯¹":7278,"Eastern":7279,"cert":7280,"Ġcsv":7281,"ger":7282,"ç»ĵ":7283,"KET":7284,"FE":7285,"Ġconstants":7286,"loaders":7287,"clusive":7288,"CONFIG":7289,"BST":7290,"pline":7291,"ftime":7292,"service":7293,"fillna":7294,"DAL":7295,"ĠOAuth":7296,"attributes":7297,"FR":7298,"ERT":7299,"Results":7300,"warns":7301,"Chain":7302,"][\"":7303,"iful":7304,"Area":7305,"]))":7306,"ART":7307,"Ġmonth":7308,"atial":7309,"Ġbetter":7310,"ĠWeb":7311,"outputs":7312,"Mock":7313,"hip":7314,"Ġbs":7315,"getter":7316,"commit":7317,"Ġagent":7318,"\"}":7319,"ĠTestCase":7320,"checker":7321,"Ġ500":7322,"autiful":7323,"Engine":7324,"Ġsamples":7325,"redirect":7326,"Ġutility":7327,"ĠUpdate":7328,"serialize":7329,"Ð¶":7330,"Ġbra":7331,"ÐµÐº":7332,"éĻ":7333,"Ġchars":7334,"Ġmk":7335,"ĠSelf":7336,"Ġmmdet":7337,"ĠFoundation":7338,"__(*":7339,"angular":7340,"SetConsole":7341,"Ġstats":7342,"?\\":7343,"pping":7344,"Ġbook":7345,"success":7346,"Page":7347,"éĿ":7348,"Ġhashes":7349,"Ġboxes":7350,"Ġmixed":7351,"ĠWrite":7352,"ä¸Ĭ":7353,"TC":7354,"rik":7355,"callable":7356,"posed":7357,"Ġrhs":7358,"objs":7359,"65":7360,"Ġring":7361,"ĠRangeIndex":7362,"âķ":7363,"Ġufunc":7364,"ancel":7365,"Ġred":7366,"Ġworking":7367,"Ġ2012":7368,"Ġmaint":7369,"addr":7370,"å§ĭ":7371,"ctree":7372,"ĠPost":7373,"ferred":7374,"ifications":7375,"br":7376,"[::":7377,"Ġoverload":7378,"distributions":7379,"oreset":7380,"Ġalong":7381,"ltk":7382,"ĠRenderResult":7383,".+":7384,"sleep":7385,"Bad":7386,"wintypes":7387,"ĠMethod":7388,"'}<":7389,"ĠRegex":7390,"openai":7391,"VALUE":7392,"records":7393,"Ġtools":7394,"Simple":7395,"Ġfollows":7396,"})\"<":7397,"roken":7398,"workers":7399,"ĠSU":7400,"wrapped":7401,"snip":7402,"Ġ90":7403,"Filename":7404,"Ġpen":7405,"ĠAxes":7406,"Ġdocstring":7407,"Ġautos":7408,"Ġdependency":7409,"ornado":7410,"minor":7411,"ä¿":7412,"Ġaltern":7413,"angles":7414,"cuit":7415,"seg":7416,"getenv":7417,"ĠMo":7418,"when":7419,"cwd":7420,"Ġsm":7421,"Predi":7422,"Ġpackaging":7423,"RGB":7424,"Ġcert":7425,"cheme":7426,"ĠRenderableType":7427,"ãģ®":7428,"hover":7429,"Ġratio":7430,"orizontal":7431,"Ġ`.":7432,"ĠRandom":7433,"~~~~~~~~~~~~~~":7434,"lier":7435,"pix":7436,"randn":7437,"/'<":7438,"Ġdriver":7439,"ĠTO":7440,"undle":7441,"Ġplan":7442,"Storage":7443,"Ġrate":7444,"viders":7445,"500":7446,">#-----------------------------------------------------------------------------<":7447,"Look":7448,"Ġeasy":7449,"ossible":7450,"Cursor":7451,"Edge":7452,"front":7453,"NumberValidator":7454,"OpenGL":7455,"mutations":7456,"72":7457,"Ġascii":7458,"Ġnumer":7459,"specifiers":7460,"Ġadjacent":7461,"Div":7462,"ĠERROR":7463,"defs":7464,"Ġpylint":7465,"Unsupported":7466,"Ġwidget":7467,"parsing":7468,"attention":7469,"Symbol":7470,"faces":7471,"embeddings":7472,"erature":7473,"lections":7474,"cult":7475,"many":7476,"ĠFilter":7477,"ĠRich":7478,"structured":7479,"Ġworld":7480,"cheduler":7481,"profit":7482,"cesses":7483,"Provides":7484,"ÂłÂłÂł":7485,"ĠNOTE":7486,"ensors":7487,"REQU":7488,"åĲĪ":7489,"CR":7490,"}\".":7491,"Ġrep":7492,"helpers":7493,"hot":7494,"indll":7495,"Ġpred":7496,"ALI":7497,"Ġevaluate":7498,"æ¯ı":7499,"jk":7500,"Opt":7501,"Ġsci":7502,"Ġdue":7503,"()))":7504,"etree":7505,"eff":7506,"URE":7507,"rece":7508,"ATOR":7509,"ÐµÐ½Ð¸":7510,"Ġroots":7511,"mysql":7512,"ration":7513,"ands":7514,"NU":7515,"ĠContent":7516,"Ġseparate":7517,"Ġci":7518,"Ġsdist":7519,"Instance":7520,"Ġsetattr":7521,"Ġswap":7522,"deg":7523,"Ġnever":7524,"dependency":7525,"perm":7526,"ĠWorld":7527,"FIER":7528,"Transport":7529,"Ġgc":7530,"alker":7531,"ĠEvent":7532,"assertIs":7533,"Ġexecutable":7534,"sim":7535,"Ġunion":7536,"Split":7537,"Ġconsist":7538,"Ġselected":7539,"divmod":7540,"periment":7541,"Ġprocessing":7542,"coords":7543,"Ġ2015":7544,"Ġdynamic":7545,"Ġstderr":7546,"ĠMarker":7547,"Ġmoves":7548,"\"]]<":7549,"UID":7550,"Ġids":7551,"ĀĀĀĀĀĀĀĀ":7552,"éķ¿":7553,"Ġ(``":7554,"argtypes":7555,"ĠMetadata":7556,"Ġoffsets":7557,"ĠQuery":7558,"Ġreach":7559,"running":7560,"Ġapproach":7561,"rolling":7562,"512":7563,"Ġapps":7564,"heads":7565,"ĠAnnot":7566,"Ġweakref":7567,")==":7568,"uerre":7569,"Ġtrun":7570,"ished":7571,"ĠStack":7572,"Ġdx":7573,"Ġtogether":7574,"Numbers":7575,"Ġmult":7576,"Ð»Ñı":7577,"è¿Ľ":7578,"Ġsmaller":7579,"ummary":7580,"Ref":7581,"Ð½Ñĭ":7582,"PH":7583,"Ġvoid":7584,"intervals":7585,"ĠÐ·":7586,"Ġhighest":7587,"urlen":7588,"ĠSets":7589,"variance":7590,"ĠPO":7591,"urlencode":7592,"Ġupload":7593,"BOSE":7594,"tzinfo":7595,"ued":7596,"ç®Ĺ":7597,"Ġplay":7598,"43":7599,"Ġconsider":7600,"balance":7601,"Ġce":7602,"Ġbuilding":7603,"Ġë°":7604,"datatypes":7605,"}/":7606,"Ġconsolidate":7607,"Ġserializer":7608,",))<":7609,"Ġresources":7610,"multiple":7611,"|\\":7612,"chan":7613,"controller":7614,"ä»¶":7615,"Ġfetch":7616,"predict":7617,"chunks":7618,"configs":7619,"çĽ¸":7620,"Ġbind":7621,"assignment":7622,"ENTIFIER":7623,"Ġfew":7624,"Constraint":7625,"summary":7626,"click":7627,"Ġlanguages":7628,"CF":7629,"Leg":7630,"odd":7631,"Ġmac":7632,"Ġabstract":7633,"Ġdiffusers":7634,"Ġembedding":7635,"Ġcut":7636,"Connect":7637,"letters":7638,"osition":7639,"ORE":7640,"spection":7641,"ech":7642,"dependen":7643,"itable":7644,"Ġautosummary":7645,"Ġ\"\")<":7646,"2014":7647,"RST":7648,"unded":7649,"bias":7650,"Ġai":7651,"Ġhealth":7652,"Lookup":7653,"sel":7654,"ugins":7655,"Ġadapter":7656,"edirs":7657,"ĠRFC":7658,"Mask":7659,"sq":7660,"izing":7661,"usage":7662,"sympy":7663,"Represent":7664,"restype":7665,"Ġdoctest":7666,"ĠItem":7667,"ceil":7668,"TOK":7669,"Ġpayload":7670,">--------":7671,"('-":7672,"ToWin":7673,"frozen":7674,"Ġwinreg":7675,"''<":7676,"67":7677,"97":7678,"Ġttype":7679,"ĠFrozen":7680,"ODE":7681,"toctree":7682,"DM":7683,"))]<":7684,"ĠZero":7685,"uestion":7686,"Ġtw":7687,"]{":7688,"Ġequ":7689,"omin":7690,"js":7691,"found":7692,"Ġpr":7693,"Ġentries":7694,"ĠOver":7695,"ĠMAX":7696,"utilities":7697,"Axis":7698,"Ġaccepted":7699,"iterable":7700,"åı³":7701,"Basic":7702,"ðŁ":7703,"ĠLocal":7704,"aloader":7705,"Mod":7706,"ìļ":7707,"Ġll":7708,"sniper":7709,"SCHE":7710,"eye":7711,"ëĵ":7712,"Ġroll":7713,"Ġaccepts":7714,"åŃĹç¬¦ä¸²":7715,"Ġheights":7716,"<<":7717,"ager":7718,"Ġscripts":7719,"Av":7720,"Init":7721,"ĠEng":7722,"Argument":7723,"Ġhandles":7724,"Ġrepresented":7725,"ython":7726,"2016":7727,"magic":7728,"swap":7729,"Ġhome":7730,"interface":7731,"ä½¿çĶ¨":7732,"insum":7733,"ĠPrint":7734,"Ġcontest":7735,"92":7736,"done":7737,"Ġlb":7738,"Ġ\"\"\"\\<":7739,"maging":7740,"edium":7741,"details":7742,"OptionError":7743,"pyproject":7744,"dti":7745,"Ġpositions":7746,"detect":7747,"Ġvalidation":7748,"protobuf":7749,"Ġ2021":7750,"Ġcourse":7751,"ĠDecimal":7752,"Project":7753,"ê°Ģ":7754,"ora":7755,"geos":7756,"patched":7757,"Ġtc":7758,"ĠTLS":7759,"vidual":7760,"LED":7761,"LY":7762,"Ġduplicate":7763,"Ġbuilder":7764,"Ġbackwards":7765,"switch":7766,"ĠEd":7767,"Elements":7768,"Ġwriter":7769,"Ġderivative":7770,"'^":7771,"ç©":7772,"Ġexamples":7773,"ĠCompute":7774,"Ġfmt":7775,"Ġinterpreter":7776,"Ġops":7777,"rive":7778,"ĠLook":7779,"cells":7780,"Ġfft":7781,"ĠsetUp":7782,"Ġ128":7783,"Eval":7784,"ĠìĿ":7785,"wers":7786,"Ġfloating":7787,"periods":7788,"Ġnet":7789,"contour":7790,"dic":7791,"Ġ256":7792,"æīĢæľī":7793,"Ġactions":7794,"istics":7795,"Ġenviron":7796,"black":7797,"asyncio":7798,"Remo":7799,"Ġbrowser":7800,"ball":7801,"Ġ\"*":7802,"white":7803,"()`":7804,"AA":7805,"udo":7806,"Ð»Ð¸":7807,"Ð»Ð°Ñģ":7808,"hicle":7809,"alanced":7810,"ris":7811,"ĠMOD":7812,"ĠEnt":7813,"ĠTestClient":7814,"IST":7815,"Ġclip":7816,"Ġstarts":7817,"Ġtrip":7818,"ĠMaximum":7819,"Ġprovider":7820,"dataframe":7821,"signal":7822,"stitution":7823,"Ġactive":7824,"Ġisna":7825,"Resource":7826,"itude":7827,"ium":7828,"Ġtf":7829,"telegram":7830,"Timedelta":7831,"Byte":7832,"Categorical":7833,"rp":7834,"decoder":7835,"å¤į":7836,"screen":7837,"è·¯":7838,"Ġ},<":7839,"Ġcheckpoint":7840,"ĠDefine":7841,"Bound":7842,"abet":7843,"Ġdocuments":7844,"installed":7845,"Ġreading":7846,"Part":7847,"fixed":7848,"shell":7849,"activ":7850,"ĠÐ¼":7851,"ĠSort":7852,"ctype":7853,"virt":7854,"Ġunderlying":7855,"RI":7856,"Ġrob":7857,"chr":7858,"ĠMap":7859,"editable":7860,"ĠĠĠĠĠĠĠĠĠĠĠĠĠĠĠĠĠĠĠĠĠĠĠĠĠĠĠĠ":7861,"basedatatypes":7862,"OPEN":7863,"Ġlonger":7864,"toarray":7865,"cycle":7866,"mitted":7867,"emoji":7868,":\")<":7869,"worker":7870,"CharField":7871,"mix":7872,"Ġduration":7873,"Ġ_<":7874,":],":7875,"lu":7876,"deep":7877,"cay":7878,"Loss":7879,"ilent":7880,"ĠCodec":7881,"{\"":7882,"ASC":7883,"theta":7884,"filterwarnings":7885,"Ġpotent":7886,"ĠQueue":7887,"Ġdigest":7888,"Ġprimary":7889,"Ð¾Ð¼":7890,"ĠIndexError":7891,"vc":7892,"dependent":7893,"Ġbutton":7894,"DIRECT":7895,"Ġregion":7896,"']:<":7897,"84":7898,"ili":7899,"Ġmach":7900,"åĲĮ":7901,"bdist":7902,"makedirs":7903,"LINE":7904,"gy":7905,"Ġ##":7906,"Migration":7907,"between":7908,"roject":7909,"large":7910,"istant":7911,"ĠLanguage":7912,"lama":7913,"inery":7914,"inite":7915,"trun":7916,"Ġappear":7917,"Wrap":7918,"Ġcompression":7919,"Ġwriting":7920,"Ġpassing":7921,"Ġstacklevel":7922,"Attr":7923,"ĠAss":7924,"ND":7925,"indexed":7926,"ĠEnsure":7927,"Ġminor":7928,"neighbors":7929,"Ġheappush":7930,"keyword":7931,"2020":7932,">`_":7933,"Ġgive":7934,"otion":7935,"ĠKe":7936,"Ġpeople":7937,"ĠgetLogger":7938,"00000000":7939,"parameter":7940,"speed":7941,"pointer":7942,"person":7943,"¸°":7944,"pypa":7945,")))":7946,"compute":7947,"Ġacross":7948,"Collection":7949,"Ġadapt":7950,"SSLv":7951,"operators":7952,"verify":7953,"Ġcapt":7954,"actual":7955,"SF":7956,"ĠPass":7957,"theme":7958,"ADME":7959,"ĠUnsupportedWheel":7960,"inline":7961,"stor":7962,"Ġdefines":7963,"Ġcos":7964,"Cir":7965,"fake":7966,"Ġflask":7967,"ĉĉĉĉ":7968,"terminal":7969,"Ġoperators":7970,"ĠLegend":7971,"Ass":7972,"ÂłÂłÂłÂłÂłÂłÂł":7973,"></":7974,"aves":7975,"Ġincrement":7976,"collections":7977,"symbols":7978,"Ġ\"'":7979,"]\",":7980,"gdal":7981,"ÐµÐ¼":7982,"quential":7983,"LU":7984,"sect":7985,"Ġreturning":7986,"visited":7987,"Root":7988,"ĠLOC":7989,"keypatch":7990,"specifier":7991,"Ġthreshold":7992,"SNI":7993,"duplicates":7994,"ky":7995,"Ġcompress":7996,"Ġdisabled":7997,"ä»İ":7998,"reason":7999,"olated":8000,"¦¬":8001,"diffusion":8002,"Ġâī¤":8003,"threshold":8004,"ĠOP":8005,"hostname":8006,"ĠHand":8007,"Target":8008,"ĠIs":8009,"Chunk":8010,"éĩį":8011,"jupyter":8012,"uator":8013,"([^":8014,"multiarray":8015,"Period":8016,"yaml":8017,"bert":8018,"Hero":8019,"Ġconversion":8020,"translate":8021,"exact":8022,"largest":8023,"()``":8024,"acci":8025,"ĠAlgorithm":8026,"Ġmmcv":8027,"ipython":8028,"acle":8029,"Ġascending":8030,"protocol":8031,"AttributeError":8032,"cover":8033,"Web":8034,"æı":8035,"progress":8036,"bitrary":8037,"ëł¥":8038,"ĠFirst":8039,"setattr":8040,"Ġguarante":8041,"ĠTwo":8042,"Ġable":8043,"ĠSerial":8044,"87":8045,"ste":8046,"Ġlazy":8047,"Ġposixpath":8048,"Ġradius":8049,"Ġcent":8050,"pied":8051,"Left":8052,"çİ°":8053,"224":8054,"ĠÑ":8055,"onacci":8056,"Ġrequested":8057,"amera":8058,"Ġignored":8059,"ĠInfo":8060,"Profit":8061,"logical":8062,"Ġconsists":8063,"riendly":8064,"dependencies":8065,"ks":8066,"ners":8067,"ĠCH":8068,"ĠLOCAL":8069,"åħ¶":8070,"Ġlinks":8071,"Handle":8072,"Ġshortest":8073,"Ġpyproject":8074,"ders":8075,"decorator":8076,"Status":8077,"Ġneg":8078,"increasing":8079,"RED":8080,"Url":8081,"ĠPyPI":8082,"Ġrearrange":8083,"Ġchoice":8084,"Ġroutines":8085,"After":8086,"LOG":8087,"ĠAnnotated":8088,"ĠNull":8089,"dup":8090,"connected":8091,"ĠSocket":8092,"ĠDescription":8093,"Ġ\"{}":8094,"CLI":8095,"rocessing":8096,"ĠHTTPS":8097,"secure":8098,");<":8099,"EAR":8100,"Ġtraverse":8101,"Day":8102,"Ġinverse":8103,"Ġattack":8104,"Empty":8105,"\"})<":8106,"±Ĥ":8107,"Ġcare":8108,"ĠSystem":8109,"300":8110,"}'<":8111,"arwh":8112,"SUP":8113,"Ġnt":8114,"Ð¸Ñģ":8115,"LOAD":8116,"expect":8117,"Unicode":8118,"ylabel":8119,"appname":8120,"Ġconflict":8121,"ĠPri":8122,"ĠMarkup":8123,"verbose":8124,"Reference":8125,"Ġiteration":8126,"2012":8127,"ACT":8128,"TOKEN":8129,"Ð½Ð°":8130,"Ġremote":8131,"ĠMutableMapping":8132,"socks":8133,"è´":8134,"fold":8135,"Ġprogress":8136,"ĠEDIT":8137,"æİ¥":8138,"ĠSciPy":8139,"Ca":8140,"ropped":8141,"pypy":8142,"ĠTimedeltaIndex":8143,"Ġsigma":8144,"Ġpreserve":8145,"Ġ|=":8146,"mulx":8147,"Ġ------------------------------------------------":8148,"rams":8149,"ĠSign":8150,"ĠCreated":8151,"Ġart":8152,"Ġtraversal":8153,",),":8154,"RES":8155,"contextlib":8156,"clusions":8157,"tention":8158,"---":8159,"Only":8160,"[:]<":8161,"svn":8162,"Ġutilities":8163,"Ġrecursion":8164,"Ġarchive":8165,"ENV":8166,"Transformer":8167,"Please":8168,"tot":8169,"gz":8170,"Ġchunks":8171,"handlers":8172,"Cour":8173,"rating":8174,"appengine":8175,"ssib":8176,"Nodes":8177,"ley":8178,"ros":8179,"Ġfour":8180,"matrices":8181,"53":8182,"UD":8183,"ĠÑĤ":8184,"Ġneighbors":8185,"ĠThread":8186,"vie":8187,"Ġrotate":8188,"condition":8189,"izz":8190,"utation":8191,"ĠRed":8192,"globals":8193,"Ġpatterns":8194,"Ġjump":8195,"Service":8196,"agram":8197,"'``":8198,"caled":8199,"ĠWith":8200,"Parameter":8201,"Ġimplementations":8202,"Ġproduced":8203,"PORTED":8204,"âĢī":8205,"ĠHelper":8206,"Ġconsu":8207,"management":8208,"Agent":8209,"GER":8210,"duration":8211,"ìĬ":8212,"Ġhistory":8213,"ynch":8214,"Ġhttplib":8215,"erc":8216,"scores":8217,")')<":8218,"erkzeug":8219,"operations":8220,"strs":8221,"Ġ36":8222,"Container":8223,"ASCII":8224,"flush":8225,"olo":8226,"ĠTool":8227,"Ġ2023":8228,"rem":8229,"Ġ102":8230,"region":8231,"Ġ'\\\\":8232,"###":8233,"latex":8234,"xxx":8235,"Ġsoup":8236,"ĠGenerated":8237,"KT":8238,"iline":8239,"angulation":8240,"contin":8241,"Ġwhole":8242,"bins":8243,"234":8244,"Requires":8245,"Ġruns":8246,"æĶ":8247,"docstring":8248,"[:]":8249,"Classifier":8250,"Struct":8251,"limiter":8252,">================================":8253,"Ġnpt":8254,"ROOT":8255,"transformer":8256,">========":8257,"Duplicate":8258,"uniform":8259,"Ġrec":8260,"Ġwhitespace":8261,"Ġbuy":8262,"ĠBaseDistribution":8263,"Ġcatch":8264,"arwhals":8265,"enabled":8266,"ĠWork":8267,"éĵ¾è¡¨":8268,"raft":8269,"ĠOption":8270,"grade":8271,"Ġtkinter":8272,"andbox":8273,"Ġpixel":8274,"RC":8275,"wraps":8276,"OPTIONS":8277,"Candidate":8278,"SOR":8279,"Ġ(_":8280,"æİĴ":8281,"ĠConv":8282,"ĠVer":8283,"riterion":8284,"More":8285,"scape":8286,"profile":8287,"TLSv":8288,"visor":8289,"Ġgoal":8290,"Ġexecute":8291,"93":8292,"ulated":8293,"aces":8294,"have":8295,"LLM":8296,"pep":8297,"().<":8298,"xlabel":8299,"coco":8300,"ConnectionPool":8301,"83":8302,"Ġ]":8303,"PROTOCOL":8304,"resize":8305,"åıĸ":8306,"Ġ~~~~~~~~~~~~~~~~~~~~~~~~":8307,"writable":8308,"Ġoccurred":8309,"ç©º":8310,"Foo":8311,"hist":8312,"Ġfall":8313,"expi":8314,"plus":8315,"NAMES":8316,"Ġstones":8317,"Ġservice":8318,"Ġpypar":8319,"åĬł":8320,"63":8321,"ivers":8322,"Ġformatting":8323,"+-":8324,"Ġgt":8325,"ises":8326,"Ġ2019":8327,"spa":8328,"atures":8329,"Ġintro":8330,"509":8331,"Ġchoose":8332,"Loop":8333,"rout":8334,"mesh":8335,"heses":8336,"note":8337,"Sc":8338,"importers":8339,"Ġleaf":8340,"dropna":8341,"naive":8342,"ĠEnvironment":8343,"big":8344,"upload":8345,"CM":8346,"sem":8347,"Exist":8348,"inux":8349,"Ġwild":8350,"ĠLLM":8351,"ASolution":8352,"checks":8353,"editor":8354,"icon":8355,"Ġ=========":8356,"rad":8357,"ĠLock":8358,"required":8359,"aystack":8360,"nsity":8361,"ĠEnglish":8362,"Ġ({":8363,"æķ°åŃĹ":8364,"ĠCONTRIBUTORS":8365,"dog":8366,"NAError":8367,"atural":8368,"Ġsli":8369,"ails":8370,"skipif":8371,"Op":8372,"ê³":8373,"ĠVector":8374,"Ġinstallation":8375,"lineno":8376,":.":8377,"Ġ-->":8378,"bench":8379,"Ġlc":8380,"ĠInst":8381,"calcul":8382,"ĠArgument":8383,"mega":8384,"Ġsecret":8385,"providers":8386,"require":8387,"Ġow":8388,"OB":8389,"reso":8390,"Ġminutes":8391,"Ġve":8392,"(\"%":8393,"Ġpyparsing":8394,"Ġkeywords":8395,"Your":8396,")\"":8397,"mx":8398,"ĠSize":8399,"dispatcher":8400,"ĠCOM":8401,"xor":8402,"Ġenter":8403,"coroutine":8404,"Ġrunner":8405,"Ġopts":8406,"æĿ¥":8407,"external":8408,"shot":8409,"NOT":8410,"Ġcause":8411,"Tick":8412,"Ġdr":8413,"Ġenabled":8414,"virtualenv":8415,"atic":8416,"Ġbackward":8417,"pydevd":8418,"gcd":8419,"ĠCallback":8420,"å°±":8421,"toolkit":8422,"éľ":8423,"'):":8424,"Ġmuch":8425,"svg":8426,"direction":8427,"roy":8428,"ĠImpro":8429,"indexes":8430,"Prompt":8431,"\"])":8432,"Ġ28":8433,"æķ´æķ°":8434,"olation":8435,"floating":8436,"culty":8437,"CACHE":8438,"Ġquad":8439,"ĠGeneral":8440,"ario":8441,"Ġadjust":8442,"]\\":8443,"henticate":8444,"nested":8445,"Ġhandlers":8446,"Update":8447,">{":8448,"mer":8449,"Ġincludes":8450,"bre":8451,"Ġ'*":8452,"nonzero":8453,"Ġseparated":8454,"AIN":8455,"decreasing":8456,"mption":8457,"callbacks":8458,"]]))<":8459,"Ġperm":8460,"ĠSUCCESS":8461,"Ġthird":8462,"xfail":8463,"Account":8464,"Ġfraction":8465,"ĠFace":8466,"Ġscores":8467,"Ġsimply":8468,"Ġsigned":8469,"requent":8470,"Ġ[(\"":8471,"questions":8472,"RET":8473,"æī¾":8474,"Plugin":8475,"Ġdescribed":8476,"Sorted":8477,"uit":8478,"Ġneighbor":8479,"ĠPublic":8480,"ĠArrow":8481,"Position":8482,"EEK":8483,"Grid":8484,"Kind":8485,"éĺ":8486,"Ġactiv":8487,"importlib":8488,"simp":8489,"aged":8490,"ARY":8491,"Ġvalidator":8492,"phys":8493,"Ñī":8494,"ĠEmpty":8495,"Ġ{})<":8496,"nor":8497,"olume":8498,"veral":8499,"ÐµÐ´":8500,"ynchron":8501,"Ġunless":8502,"å¹¶":8503,"åĿ":8504,"Ġaddition":8505,"TK":8506,"tempdir":8507,"dr":8508,"TIMEOUT":8509,"éľĢ":8510,"âĶĢâĶ":8511,"Ġoccurs":8512,"ĠÐºÐ»Ð°Ñģ":8513,"nu":8514,"¬¸":8515,"span":8516,"Points":8517,"Ġtrees":8518,"Ġaudio":8519,"viding":8520,"vs":8521,"Ġpalindrome":8522,"==<":8523,"logs":8524,"Ġ`~":8525,"imports":8526,"MPT":8527,"è®¡":8528,"Rect":8529,"Ġss":8530,"Month":8531,"ĠWINDOWS":8532,"frac":8533,"tures":8534,"Ġmus":8535,"numba":8536,"pretty":8537,"Render":8538,"}}":8539,"Ġspecification":8540,"precate":8541,"overflow":8542,"Ġblue":8543,"Ġretrie":8544,"Ġoptimizer":8545,"ohn":8546,"artist":8547,"Unit":8548,"Ġfactory":8549,"Generic":8550,"Ġattempt":8551,"Cost":8552,"legacy":8553,"VERBOSE":8554,"joint":8555,"lets":8556,"Ġpt":8557,"Ð¸ÑĤ":8558,"ffff":8559,"salary":8560,"timesteps":8561,"ĠIncremental":8562,"defaults":8563,"tics":8564,"Ġpreorder":8565,"arded":8566,"matic":8567,"Ġdispatch":8568,"Ġdebugging":8569,"ugging":8570,"]*(":8571,"ĠDomain":8572,"Ġformatted":8573,"ĠYO":8574,"è¯·":8575,"Ġwindll":8576,"å¤ļ":8577,"ĠInstallationError":8578,"Ġfnmatch":8579,"LES":8580,"Ġ\"|":8581,"Ġrc":8582,"Prefix":8583,"Ġcau":8584,"Fore":8585,"Supports":8586,"fortran":8587,"Ġinvok":8588,"ĠPl":8589,"CCompiler":8590,"processing":8591,"attn":8592,"Ġbehaviour":8593,"Ġloads":8594,"lik":8595,"contiguous":8596,"REEN":8597,"gramming":8598,"Ã¡":8599,"arter":8600,"\"[":8601,"Cho":8602,"NormalizedName":8603,"UES":8604,"Parent":8605,"sizes":8606,"ages":8607,"ĠElement":8608,"weak":8609,"HEEL":8610,"Ġrather":8611,"ìľ":8612,"Ġforms":8613,"Ġangle":8614,"tod":8615,"Ġwrong":8616,"copg":8617,"Idx":8618,"ĠClient":8619,"parents":8620,"Some":8621,"pies":8622,"ĠSV":8623,"Ġdirname":8624,"ĠFinal":8625,"])):<":8626,"Ġmatrices":8627,"tmpdir":8628,"Ne":8629,"ond":8630,"olded":8631,"Ġ'*.":8632,")\",<":8633,"Ġfib":8634,"Ġdup":8635,"Ġtriangle":8636,"ĠIPv":8637,"Ġexternal":8638,"Ġadmin":8639,"Ġcombination":8640,"ĠAli":8641,"GetConsole":8642,"æĮĩ":8643,"Django":8644,"Ġfilled":8645,"Initialize":8646,"ĠTri":8647,"postgres":8648,"å·¦":8649,"Next":8650,"Same":8651,"Ġcompiled":8652,"Ð¾Ð³":8653,"Factor":8654,"iterator":8655,"InstallRequirement":8656,"Ġub":8657,"Ġyet":8658,"Operations":8659,"exist":8660,"apple":8661,"charset":8662,"pared":8663,"Pack":8664,"ryp":8665,"structure":8666,"PTR":8667,"sessions":8668,"ĠNon":8669,"aper":8670,"åı·":8671,"Poly":8672,"ĠTop":8673,"('''<":8674,"curacy":8675,"ĠPerson":8676,"Ġregistered":8677,"bg":8678,"Ġwon":8679,"LEG":8680,"Canvas":8681,"IVE":8682,"ystem":8683,"Ġdescriptor":8684,"uuid":8685,"canonical":8686,"ä½ľ":8687,")%":8688,"Post":8689,"Right":8690,"Renderable":8691,"ç»Ļå®ļ":8692,"ĠNe":8693,"Resolver":8694,"middle":8695,"UND":8696,"68":8697,"ĠÐ¿ÑĢ":8698,"rule":8699,"ĠMicrosoft":8700,"interpolate":8701,"Ġ\">":8702,"Ġdev":8703,"Generate":8704,"ka":8705,"mpts":8706,"Ġface":8707,"Encoding":8708,"Make":8709,"qt":8710,"Ġranges":8711,"UTC":8712,"Strings":8713,"Ġretain":8714,"Ġbins":8715,"sd":8716,"vered":8717,"Ġ...,":8718,"tected":8719,"Ġbeginning":8720,"Local":8721,"Ġ//=":8722,"åıª":8723,"recursionlimit":8724,"çŁ":8725,"ĠOut":8726,"Ġconfigparser":8727,"Algorithm":8728,"=',":8729,"jac":8730,"Created":8731,"Fill":8732,"ribe":8733,"1024":8734,"ĠIntervalIndex":8735,"adapter":8736,"jumlah":8737,"()),":8738,"ĠCalculate":8739,"Ġendpoint":8740,"but":8741,"cython":8742,"Ġunicodedata":8743,"iver":8744,"Ġbi":8745,"cookies":8746,"ĠAgent":8747,"matching":8748,"æį®":8749,"imat":8750,"created":8751,"BY":8752,"RenderableType":8753,"Ġhandled":8754,"ĠInteg":8755,"StringValidator":8756,"phone":8757,"DirsABC":8758,"Ġdeg":8759,"Ġgets":8760,"Single":8761,"Ġrectangle":8762,"61":8763,"BL":8764,"OpenSSL":8765,"Ġcertain":8766,"Ġexpi":8767,"å¼ı":8768,"Ġnone":8769,"ĠGenerate":8770,"Ġrecom":8771,"pyx":8772,"Ġeng":8773,"inel":8774,"Ġcharset":8775,"Implements":8776,"Ġtornado":8777,"separated":8778,"ename":8779,"Ġrs":8780,"ĠHTTPResponse":8781,"Ġindicate":8782,"got":8783,"Ġii":8784,"Ġsleep":8785,"Ġproperly":8786,"aaaa":8787,">]":8788,"cator":8789,"Ġsummary":8790,"Ġperformance":8791,"Ġ--------------------<":8792,",\"":8793,"Ap":8794,"Body":8795,">#################################################################":8796,"Ġtables":8797,"ITH":8798,">`.<":8799,"æ¨":8800,"Ġum":8801,"Ġheappop":8802,"erest":8803,"Ġ\"(":8804,"comes":8805,"Ġtrace":8806,"stride":8807,"Ġlibraries":8808,"Ġpat":8809,"Ġdatasets":8810,"ĠPart":8811,"bundle":8812,"()).":8813,"Ġblocks":8814,"Boolean":8815,"WH":8816,"listdir":8817,"INGS":8818,"LOCK":8819,"combine":8820,"DOC":8821,"[]":8822,"pid":8823,"([])<":8824,"assertFalse":8825,"Constant":8826,"Ġ80":8827,"Configured":8828,"tolist":8829,"floor":8830,"compression":8831,"Ġlight":8832,"ned":8833,"Ġ~~~~~~~~~~~~~~~~~~~~~~":8834,"å¿":8835,"ips":8836,"Ġinterpre":8837,"æľĢå¤§":8838,"Temporary":8839,"Bot":8840,"FileCopyright":8841,"FileCopyrightText":8842,"ev":8843,"Ã©":8844,"urses":8845,"Cookie":8846,"Ġdirected":8847,"*<":8848,"uristic":8849,"(\"--":8850,"quality":8851,"WEEK":8852,"Ġenough":8853,"porter":8854,"Ġpretty":8855,"Ġprepare":8856,"iness":8857,"social":8858,"Layer":8859,"mpify":8860,"perlyConfigured":8861,"Attributes":8862,"FFFF":8863,"ĠGNU":8864,"boxes":8865,"levant":8866,"ĠSkip":8867,"Ġcasting":8868,"SOLE":8869,"leaf":8870,"disable":8871,"ĠStyleType":8872,"aching":8873,"finder":8874,"wt":8875,"testcase":8876,"Ġfilesystem":8877,"ĠCommandError":8878,"Ġcc":8879,"ĠCount":8880,"Ġflatten":8881,"$<":8882,"ĠRight":8883,"åĲĳ":8884,"Ġquick":8885,"Ġhashmap":8886,"Close":8887,"median":8888,"nth":8889,"ĠJupyterMixin":8890,"MULT":8891,"background":8892,"Pairs":8893,"kde":8894,"lb":8895,"normalized":8896,"ĠValidationError":8897,"reversed":8898,"ĠSorted":8899,"ĠDet":8900,"ÐºÐ°":8901,"Ġpredict":8902,"ĠUsing":8903,"Ġhours":8904,">'":8905,"tb":8906,"role":8907,"ĠTask":8908,"ffine":8909,"partite":8910,"canvas":8911,"Retrie":8912,"aliases":8913,"æĦ":8914,"éĤ":8915,"cha":8916,"ĠNaN":8917,"SEPAR":8918,"404":8919,"Ġbuiltin":8920,"è½¬":8921,"517":8922,"router":8923,"ĠLO":8924,"Ġtestcase":8925,"spinner":8926,"ê¸°":8927,"ĠBoolean":8928,"Ġtracker":8929,"\"][":8930,"discu":8931,"ĠZipFile":8932,"padding":8933,"ges":8934,"ĠFrom":8935,"ĠTheme":8936,"atron":8937,"ĠRGB":8938,"FIRST":8939,"`,<":8940,"Ġtorchvision":8941,"Ġoptimize":8942,"genet":8943,"Words":8944,"ĠREADME":8945,"OFF":8946,"TZ":8947,"Ġchardet":8948,"!!":8949,"Ġtb":8950,"deque":8951,"Ġiterate":8952,"MET":8953,"POST":8954,"Ġcu":8955,"asn":8956,"PIL":8957,"SEPARATOR":8958,"dictionary":8959,"dataloader":8960,"AssertionError":8961,"Work":8962,"previous":8963,"ansi":8964,"ĠReferences":8965,"ĠVariable":8966,"ĠControl":8967,",)":8968,"inplace":8969,"Ġepoch":8970,"ants":8971,"LETE":8972,"CODE":8973,"whl":8974,"ĠNumpy":8975,"Expected":8976,"Ġreplacement":8977,"DoesNot":8978,"çī":8979,"èµ":8980,"Functions":8981,"~~~<":8982,"Begin":8983,"WW":8984,"sually":8985,"localize":8986,"Characters":8987,"xs":8988,"ometric":8989,"Ġgroupby":8990,"ĠPROTOCOL":8991,"Duplicates":8992,"GRO":8993,"Ġsn":8994,"()}<":8995,"ATCH":8996,"ratic":8997,"Soup":8998,"gro":8999,"Ġpie":9000,"Ġsell":9001,"ĠTempDirectory":9002,"ĠTracebackType":9003,"Email":9004,"`):<":9005,"similar":9006,"lications":9007,"Ġparallel":9008,"arger":9009,"æĭ":9010,"upError":9011,"Ġcoordinate":9012,"Ġhistogram":9013,"Ġconstraint":9014,"arned":9015,"0101":9016,"herical":9017,"Ġconditions":9018,"ĠAuthors":9019,"oldedCase":9020,"ĠTH":9021,"OAuth":9022,"QA":9023,"ini":9024,"Ġflush":9025,"PORT":9026,"Ġapprox":9027,"Ġrotation":9028,"ĠMust":9029,"requ":9030,"coerce":9031,"dentity":9032,"markers":9033,"ANY":9034,"åĪĻ":9035,"Geometry":9036,"()]":9037,"pie":9038,"ĠTypeAlias":9039,"IPT":9040,"AGS":9041,"sigma":9042,"åįķ":9043,"------":9044,"feren":9045,"signature":9046,"ĠAnsiToWin":9047,"CD":9048,"Su":9049,"]>":9050,"Ġsess":9051,"eks":9052,"__).":9053,"integers":9054,"ĠÐ¾Ð±":9055,".])<":9056,"bd":9057,"geometry":9058,"Ġencoder":9059,"Ġsuccessfully":9060,"ĠEngine":9061,"Ġarbitrary":9062,"2005":9063,"Called":9064,"Location":9065,"Ġtransforms":9066,"edirect":9067,"Features":9068,"encoded":9069,"masked":9070,"ket":9071,"Ġunknown":9072,"2001":9073,"Ð½Ð¾":9074,"patial":9075,"Ġchannels":9076,"\"))":9077,"ì§Ģ":9078,"igen":9079,"ĠAdditional":9080,"Ġmaintain":9081,"Ġmis":9082,"\":\"":9083,"ĠExit":9084,"patches":9085,"Expression":9086,"reat":9087,"ĠtwoSum":9088,"duplicate":9089,"Ġ[[\"":9090,"\\\\[":9091,"Ġidea":9092,"resolution":9093,"latest":9094,"Ġceil":9095,"Ġgraphs":9096,"UNCT":9097,"Ġcreates":9098,"LF":9099,"Ġwerkzeug":9100,"Ġep":9101,"ĠArrayLike":9102,"Ġremainder":9103,"Ġpg":9104,"ĠSince":9105,"ĠPyQt":9106,"ĠHTTPError":9107,"Ġincreasing":9108,"bucket":9109,"Ġcomm":9110,"traceback":9111,"Ġoverwrite":9112,"********************************":9113,"Ori":9114,"Ġends":9115,"ĠTicket":9116,"Sparse":9117,"éĥ½":9118,"ye":9119,"descriptor":9120,"READ":9121,"ĠSp":9122,"Ġpytz":9123,"ĠCollection":9124,")',":9125,"Ġ'&":9126,"Ġgrouped":9127,"Each":9128,"Ġresolved":9129,"IDENTIFIER":9130,"Ġ+<":9131,"ĠBaseTraceHierarchyType":9132,"åĮĸ":9133,"BaseVersion":9134,"LR":9135,"imagenet":9136,"ander":9137,"/\")<":9138,"Dig":9139,"ĠCore":9140,"ĠRecurs":9141,"Ġpointers":9142,"Ob":9143,"Ġspl":9144,"dialect":9145,"Ġeverything":9146,"rotate":9147,"histogram":9148,"Ġear":9149,"Ġsubtree":9150,"hours":9151,"Ġattention":9152,"Processor":9153,"Ġexclusions":9154,"expressions":9155,"Ġpalette":9156,"Highlighter":9157,"ĠImproperlyConfigured":9158,"ĠOper":9159,"alic":9160,"ĠSingle":9161,"Ġeas":9162,"perimental":9163,"ë©":9164,"Ġpprint":9165,"Ġexport":9166,"Accept":9167,"exclude":9168,"Ġsec":9169,"``).<":9170,"ĠExp":9171,"loading":9172,"è¿ĩ":9173,"initialize":9174,"physics":9175,"pydantic":9176,"ĠUTF":9177,"ĠNetworkX":9178,"ä¸¤ä¸ª":9179,"ĠPet":9180,"converter":9181,"Ġglobals":9182,"Ġadds":9183,"DEF":9184,"ortho":9185,"Ġkth":9186,"Ġidna":9187,"ious":9188,"whitespace":9189,"IDE":9190,"ĠII":9191,"ribute":9192,"Dependency":9193,"positive":9194,"51":9195,"Term":9196,"average":9197,"Ġoverrides":9198,"people":9199,"Ġorient":9200,"ĠFa":9201,"owner":9202,".%":9203,"Scheme":9204,"Ġindividual":9205,"Glyph":9206,"irseq":9207,"ARD":9208,"Traversal":9209,"Ġlegacy":9210,"colorbars":9211,"PER":9212,"Ġintern":9213,"ASK":9214,"just":9215,"Ġ42":9216,"Predicate":9217,"ĠÐºÐ»Ð°ÑģÑģ":9218,"urable":9219,"reqs":9220,"2008":9221,"ĠSecret":9222,"circuit":9223,"XML":9224,"cb":9225,"mgr":9226,"look":9227,"llama":9228,"Files":9229,"renderable":9230,"Ġissues":9231,"RandomState":9232,"aware":9233,"Ġmoney":9234,"ixture":9235,"384":9236,"Ġpermutations":9237,"ĠBeautiful":9238,"Ġreplaced":9239,"Trip":9240,"microsoft":9241,"satis":9242,"DoesNotExist":9243,"WR":9244,"rules":9245,"Ġdedent":9246,"\")[":9247,"ìŀĲ":9248,"Ġsubsequence":9249,"å°Ĩ":9250,"Ġprobably":9251,":=":9252,"dynamic":9253,"roman":9254,"excel":9255,"Ġalgorithms":9256,"team":9257,"Ġchr":9258,"such":9259,"6666":9260,"cab":9261,"ĠLag":9262,"hat":9263,"basename":9264,"pb":9265,"pure":9266,"rpc":9267,"__))<":9268,"Ġwindows":9269,"Ġ(?":9270,"uper":9271,"enerated":9272,"ĠTraversable":9273,"ãĤĴ":9274,"Could":9275,"REDIRECT":9276,"aking":9277,"ĠConnect":9278,"Distutils":9279,"Ġstates":9280,"Self":9281,"more":9282,"sequent":9283,"ences":9284,"ĠRot":9285,"ĠXML":9286,"Ġnxt":9287,"ĠLocation":9288,")'<":9289,"Language":9290,"gamma":9291,"Ġpu":9292,"illa":9293,"))?":9294,"ĠJust":9295,"002":9296,"Ġmasked":9297,"Ġsystems":9298,"mended":9299,"History":9300,"Variable":9301,"enable":9302,"Ġsv":9303,"Ġintended":9304,"implemented":9305,"VID":9306,"ause":9307,"Ġmu":9308,"Ġworkers":9309,"Ġ1997":9310,"__\",":9311,"åħĪ":9312,"wrappers":9313,"Iteration":9314,"Ġhappens":9315,"TEXT":9316,"Ġíķ":9317,"Ġmaybe":9318,">~~~~~~~~~~~~~~~~":9319,"POINT":9320,"Ġdeepcopy":9321,"lour":9322,"Ġ``(":9323,"Ġatexit":9324,"clusion":9325,"course":9326,"libException":9327,"recursive":9328,"FILEN":9329,"MODEL":9330,"]|":9331,"Ġbeta":9332,"éĽ":9333,"clone":9334,"()),<":9335,"Ġprofile":9336,"Descript":9337,"=\",":9338,"Ġloading":9339,"ĠDistutilsOptionError":9340,"Ġyaml":9341,"ĠMySQL":9342,"}\",":9343,"]},":9344,"bright":9345,"Ġexecution":9346,"ĠAxis":9347,"ĠImaging":9348,"IMP":9349,"rd":9350,"ĠSupports":9351,"Tester":9352,"Ġdefining":9353,"400":9354,"Segment":9355,"Ġlogs":9356,"Ġ``.":9357,"Ġ...]<":9358,"italic":9359,"csr":9360,"abcdef":9361,"ĠDATE":9362,"dimensional":9363,"Ġnltk":9364,"Ġplus":9365,"both":9366,"linux":9367,"Ġcomments":9368,"newlines":9369,"EAD":9370,"ĠStop":9371,"(\"<":9372,"Mem":9373,"Distance":9374,"strftime":9375,"Ġcoin":9376,"Ġtypically":9377,"regate":9378,"SPEC":9379,"claration":9380,"Ġstk":9381,"å½ĵ":9382,"tn":9383,"inorder":9384,"algorithm":9385,"Ġcum":9386,"Ġoutside":9387,"Ġsolver":9388,"BIT":9389,"Ġrepeated":9390,"Ġregard":9391,"Show":9392,"Ġnarwhals":9393,"Ġconf":9394,")\",":9395,"Controller":9396,"policy":9397,"Current":9398,"Ġsync":9399,"ĠEmbed":9400,"ALLOW":9401,"ĠCre":9402,"Ð½Ð¸":9403,"Cy":9404,"(\"'":9405,"ifest":9406,"Ġscikit":9407,"iner":9408,"Ġclf":9409,"69":9410,"gui":9411,"Ġpriority":9412,"UNK":9413,"Ġguaranteed":9414,"ĠShow":9415,"ĠDummy":9416,"Ð¾ÑĤ":9417,"ĠÐ½Ð°":9418,"ìĦľ":9419,"Ġasarray":9420,"ĠInvalidWheel":9421,"stable":9422,"Ġfo":9423,"éĩĬ":9424,"Access":9425,"ym":9426,"Insert":9427,"ayers":9428,"'[":9429,"BER":9430,"Ġconsecutive":9431,"Ġreceive":9432,"arily":9433,"Ġwalk":9434,"Ġshown":9435,"Ġpositional":9436,"Ġsolutions":9437,"Methods":9438,"Ġcity":9439,"Ġcwd":9440,"week":9441,"--------------<":9442,"araco":9443,"Ġith":9444,"Ġsilent":9445,"Ġmut":9446,"Ġencount":9447,"Ġmonkeypatch":9448,"sli":9449,"celer":9450,"Ġ\"[":9451,"Ġ300":9452,"herm":9453,"Ġoverflow":9454,"PYTHON":9455,"friendly":9456,"isfile":9457,"hdf":9458,"arx":9459,"ĠBST":9460,"ĠStruct":9461,"NN":9462,"inspect":9463,"platformdirs":9464,"-.":9465,"BAS":9466,"Ġworker":9467,"va":9468,">###":9469,"Ġ09":9470,"ĠConstraints":9471,"sysconfig":9472,"Batch":9473,"Ġfs":9474,"();":9475,"Available":9476,"Sampler":9477,"lenium":9478,"ĠInvalidSpecifier":9479,"Ġbuiltins":9480,"ĠCar":9481,"platlib":9482,"Ġmultiprocessing":9483,"lips":9484,"Ġ:,":9485,"nel":9486,"android":9487,"Ġls":9488,"Te":9489,"numer":9490,"Ġnewer":9491,"ĠUndefined":9492,"versation":9493,"issue":9494,"FFIX":9495,"fx":9496,"Ġdmp":9497,"subset":9498,"Ġpurposes":9499,"Ġsem":9500,"Ġdevelopers":9501,"configure":9502,"999":9503,"ROM":9504,"planes":9505,"Null":9506,"intern":9507,"resses":9508,"Ġlisted":9509,"defaultdict":9510,"Ġsuite":9511,"rality":9512,"HEADERS":9513,"Ġnothing":9514,"ĠDep":9515,"======<":9516,"ĠCurrent":9517,"Ġconstraints":9518,"SyntaxError":9519,"Ġproduce":9520,"report":9521,"ĠPlot":9522,"gm":9523,"Ġ\"+":9524,"ĠUnix":9525,"Ġdiagonal":9526,"MPLATE":9527,"41":9528,"Ġtheta":9529,"Ġ``<":9530,"Ġzone":9531,"sentence":9532,"ExtensionArray":9533,"ĠMatplotlib":9534,"pacity":9535,"ĠHistory":9536,"Ġhigher":9537,"Red":9538,"ĠFortran":9539,"Ġclick":9540,"Ġque":9541,"Ġns":9542,"StreamWriter":9543,"ĠCategoricalDtype":9544,"fraction":9545,"unknown":9546,"ILD":9547,"127":9548,"identity":9549,"aring":9550,"Ġseveral":9551,"([<":9552,"Ġallauth":9553,"submission":9554,"dum":9555,"guess":9556,"Ġ\"âĸ":9557,"Ġzlib":9558,"training":9559,"alg":9560,"Ġol":9561,"updated":9562,"ĠInvalidRequirement":9563,"Ġcsr":9564,"FILENAME":9565,"ĠFrame":9566,"Args":9567,"Ġmodifications":9568,"å¸":9569,"Ġ:]<":9570,"Namespace":9571,"ĠTextIO":9572,"Ġbasis":9573,"bid":9574,"ĠOptions":9575,"Ġ{!":9576,"Ġprints":9577,"Ġ99":9578,"serializers":9579,"Ġ~~~~~~~~~~~~~~~~~~~~":9580,"HASH":9581,"Ġencountered":9582,"ĠDataset":9583,"Ġpreserved":9584,"Ġke":9585,"Ġcp":9586,"Caller":9587,"trees":9588,"pytorch":9589,"component":9590,"ĠâĶľ":9591,"member":9592,"Ġ1024":9593,"decay":9594,"mpath":9595,"IncrementalDecoder":9596,"ĠFacebook":9597,"BE":9598,"EM":9599,"cpp":9600,"Ġè¾ĵåĩº":9601,"une":9602,"compatibility":9603,"Policy":9604,"\",\".\",\".":9605,"rant":9606,"ĠDetermine":9607,"frequency":9608,"palindrome":9609,"ĠThey":9610,"Ġfra":9611,"-----<":9612,"ĠNormalizedName":9613,"Ġmetrics":9614,"ivari":9615,"Ġzmq":9616,"ĠBit":9617,"SUFFIX":9618,"=%":9619,">----------------":9620,"aj":9621,"completion":9622,"ssibly":9623,"BB":9624,"dicts":9625,"DiGraph":9626,"ĠInvalidVersion":9627,"crypto":9628,"Diffe":9629,"æĦı":9630,"tp":9631,"repo":9632,"parsedVersion":9633,"Ġdecorated":9634,"Ġviews":9635,"SK":9636,"Using":9637,"Width":9638,"ditional":9639,"Ġthing":9640,"typeshed":9641,"ĠExtra":9642,"ĠNoReturn":9643,"csrf":9644,"Internal":9645,"Ġcosts":9646,"Ġselection":9647,"Ġtemplates":9648,"Ġoverlap":9649,"servation":9650,"ìĬ¤":9651,"éľĢè¦ģ":9652,"æ¨¡":9653,"Met":9654,"åģ":9655,"dedent":9656,"AV":9657,"NE":9658,"Ġqiskit":9659,"algorithms":9660,"cestor":9661,"Ġcreation":9662,"cas":9663,"ttype":9664,"avg":9665,"Ġ-----------------------------------------------------------------------------<":9666,"ĠLegendre":9667,"mime":9668,"Ġcross":9669,"urther":9670,"Named":9671,"WARE":9672,"Ġdeleted":9673,"jpg":9674,"Ġfinder":9675,"Ġ\":":9676,"ĠGDAL":9677,"æĸ°":9678,"éĻ¤":9679,"DL":9680,"ti":9681,"hen":9682,"enc":9683,"Ġcompletion":9684,"Ġ27":9685,"ĠPerform":9686,"ĠAssertionError":9687,"await":9688,"lfiles":9689,"Ġ+--------":9690,"Ġsur":9691,"othesis":9692,"maps":9693,"ivariate":9694,"sci":9695,"Ġduplicates":9696,"Ġcontour":9697,"Ġcircular":9698,":]:<":9699,"ĠSchema":9700,"Ġefficient":9701,"lwork":9702,"avig":9703,"ParseError":9704,"$\")<":9705,"lasses":9706,"ĠUnpack":9707,"åıī":9708,"ĠResource":9709,"zones":9710,"ĠLC":9711,"ĠDtype":9712,"consume":9713,"IA":9714,"YEAR":9715,"][-":9716,"StreamReader":9717,":])":9718,"fil":9719,"Ġnative":9720,"Ġtransformation":9721,"ë©´":9722,"Del":9723,"Ġri":9724,"Ġrand":9725,"later":9726,"acceptance":9727,"PEP":9728,"ADATA":9729,"Ġconverting":9730,"relu":9731,"Vert":9732,"orth":9733,"Ġappears":9734,"Normal":9735,"TS":9736,"eng":9737,"ĠBut":9738,"Ġprox":9739,"ffers":9740,"charmap":9741,"æł¼":9742,"Ġseparator":9743,"ĠBecause":9744,"Ġwater":9745,"usal":9746,"Ġ104":9747,"ĠDEBUG":9748,"Ġpipe":9749,"ĠLabel":9750,"mkdir":9751,"rute":9752,"ĠNamed":9753,"Ġprintf":9754,"---------------<":9755,"ç´¢":9756,"Ġtwice":9757,"Ġmeg":9758,"Coordinates":9759,"GEOS":9760,"fromroots":9761,"Ġpub":9762,"ilation":9763,"threading":9764,"/(":9765,"ker":9766,"è¡¨ç¤º":9767,"machinery":9768,"Ġplat":9769,"__\")<":9770,"InfinityType":9771,"(\"\".":9772,"Ġowner":9773,"=__":9774,"NPY":9775,"ÑĬ":9776,"Ġinfer":9777,"athan":9778,"Ġsi":9779,"ICE":9780,"ä»£":9781,"CRE":9782,"Ġps":9783,"Ġinference":9784,"ĠHead":9785,"evaluate":9786,"ä¹ĭ":9787,"Let":9788,"bisect":9789,"Ġ?":9790,"ermin":9791,"related":9792,"neighbor":9793,"ACKET":9794,"/?":9795,"mooth":9796,"Sample":9797,"fect":9798,"spatial":9799,"finalize":9800,"Ġfeed":9801,"Implementation":9802,"Ġframes":9803,"Ġinitialization":9804,"Ġchoices":9805,"ä¸ŃçļĦ":9806,"agic":9807,"2010":9808,"toklist":9809,"Ġcertificate":9810,"colorValidator":9811,"SITE":9812,"]_":9813,"phic":9814,"ĠðŁ":9815,"Ġrgb":9816,"ĠFrozenSet":9817,"bos":9818,"00000":9819,"ĠInstance":9820,"sums":9821,"Ġsums":9822,"Ġlogin":9823,"cloud":9824,"enderer":9825,"ĠnumRows":9826,"ENCOD":9827,"mong":9828,"Ġtransaction":9829,"Ġens":9830,"Ġneedle":9831,"Ġplatforms":9832,"SM":9833,"border":9834,"Ġè¾ĵåħ¥":9835,"ĠDFS":9836,"è§£éĩĬ":9837,"JECT":9838,"Ġhard":9839,"ALIAS":9840,"Ġstock":9841,"FileName":9842,"hashes":9843,"discuss":9844,"Ġmapped":9845,"!\"<":9846,"seudo":9847,"relative":9848,"examples":9849,"STAT":9850,"Ġsqlparse":9851,"ĠVisual":9852,"yes":9853,"Ġkeepdims":9854,"Ġut":9855,"inject":9856,"ĠĠĠĠĠĠĠĠĠĠĠĠĠĠĠĠĠĠĠĠĠĠĠĠĠĠĠĠĠ":9857,"è®¾":9858,"ipher":9859,"Ġbackbone":9860,"Ġgenerating":9861,"Ġ+--------+":9862,"pus":9863,"good":9864,"ãģĨãģĨ":9865,"tgt":9866,"ĠisPalindrome":9867,"coming":9868,"ĠThen":9869,"`.\"\"\"<":9870,"ilers":9871,"isnan":9872,"apsed":9873,"ĠMay":9874,"rammar":9875,"oose":9876,":,":9877,"éģį":9878,"82":9879,"__:<":9880,"HookCaller":9881,"')]<":9882,"Ġassigned":9883,"ĠFred":9884,"Ġ512":9885,"Ġmarkers":9886,"Ġembeddings":9887,"different":9888,"å¦Ĥæŀľ":9889,"uses":9890,"invert":9891,"AF":9892,"hub":9893,"scan":9894,"anned":9895,"zer":9896,"Ġcopied":9897,"__():<":9898,"ogenerated":9899,"BRACKET":9900,"Ġresponses":9901,"mies":9902,"Ġstores":9903,"Ġdirections":9904,"ä»¬":9905,"Yes":9906,"åĲ¦":9907,"caps":9908,"STRING":9909,"Ġvertical":9910,"ë³":9911,"ons":9912,"Arg":9913,"440":9914,"Ġruff":9915,"variables":9916,"mpleted":9917,"Ġvowels":9918,"Ġmechan":9919,"Ġsubsets":9920,"POS":9921,"ĠLaguerre":9922,"css":9923,"anel":9924,"doctest":9925,"Scalar":9926,"kv":9927,"Ġredistribution":9928,"Ġbfs":9929,"ĠDB":9930,"vict":9931,"Video":9932,"ç±":9933,"Ġbucket":9934,".'<":9935,"Ġ400":9936,"Ġdta":9937,"cedence":9938,"ĠFoldedCase":9939,"Ġ45":9940,"COLOR":9941,"éĿ¢":9942,"DType":9943,"rr":9944,"Ġsaf":9945,"builtin":9946,"Ġmeaning":9947,"IncrementalEncoder":9948,"/',":9949,"Po":9950,"px":9951,"ĠOrder":9952,"Ġè":9953,"Ġarrow":9954,"ĠStep":9955,"choices":9956,"Admin":9957,".\"":9958,"Ġplain":9959,"MIT":9960,"ĠShould":9961,"äºĮåıī":9962,"Ġreferences":9963,"pytestmark":9964,"Prime":9965,"çĲ":9966,"memo":9967,"Ġmd":9968,"ĠmaxProfit":9969,"2019":9970,"BSolution":9971,"Scheduler":9972,"Ġer":9973,"nswer":9974,"Ġ[\"._":9975,"ĠProcess":9976,"ĠProvider":9977,"Ġordering":9978,"Ġserialized":9979,"Legacy":9980,"Figure":9981,"Ġgr":9982,"Ġagree":9983,"sho":9984,"Ġindexes":9985,"Ġexpires":9986,"Top":9987,"cross":9988,"given":9989,"Ġpipeline":9990,"Ġemoji":9991,"Ġinject":9992,"Ġmultipart":9993,"quantity":9994,"Tags":9995,"Ø§":9996,"ĠImplement":9997,"Ġsched":9998,"fragment":9999,"anum":10000,"**<":10001,"Ġcomma":10002,"UNT":10003,"Substring":10004,"OrMore":10005,"ç¨":10006,"ç¼":10007,"Ġ])<":10008,"limited":10009,"ĠParseException":10010,"*,":10011,"Ġparagraph":10012,"BaseException":10013,"Ġinterpolation":10014,"UI":10015,"ÑĪ":10016,"Ġç¤ºä¾ĭ":10017,"members":10018,"abstract":10019,"renderer":10020,"completeRead":10021,"/%":10022,"rhs":10023,"getcwd":10024,"Ġdd":10025,"Ġher":10026,"preprocess":10027,"ĠHttpResponse":10028,"Ġdecoding":10029,"percent":10030,"ised":10031,"Ġcalc":10032,"Ġ'+":10033,"Ġconsistent":10034,"Ġarithmetic":10035,"Ġpyarrow":10036,"\"][\"":10037,"ĠAnd":10038,"emote":10039,"Ġresulting":10040,"Dictionary":10041,"dotenv":10042,"ìľ¼":10043,"arson":10044,"ImportError":10045,"Ġinvoked":10046,")],<":10047,"æŁ":10048,"stores":10049,"ĠHTTPException":10050,"hoverlabel":10051,"atleast":10052,"room":10053,"notes":10054,"When":10055,"requis":10056,"Ġplease":10057,"Ġrelevant":10058,"emb":10059,"outube":10060,"ĠXXX":10061,"patcher":10062,"written":10063,"hint":10064,"Â·":10065,"ĠRaw":10066,"ĠMatch":10067,"SEL":10068,")\"\"\"<":10069,"Ġtrying":10070,"TreeBuilder":10071,"Ġfactors":10072,"Json":10073,"))))<":10074,"ãĤĭ":10075,"agger":10076,"asse":10077,"ĠĠĠĠĠĠĠĠĠĠĠĠĠĠĠĠĠĠĠĠĠĠĠĠĠĠĠĠĠĠ":10078,"Ġdoing":10079,"mptions":10080,"einsum":10081,"ĠUt":10082,"ĠReal":10083,"ĠQuant":10084,"TemporaryFile":10085,"OLD":10086,"FL":10087,"æĥ":10088,"TTY":10089,"Ġ...,<":10090,"Ġnamespaces":10091,"ĠInfoExtractor":10092,"Average":10093,"appy":10094,"heights":10095,"BytesIO":10096,"Ġdepends":10097,"ĠEND":10098,"ĠSource":10099,"Ġ``/":10100,"ĠTestcase":10101,"Ġmarks":10102,"structions":10103,"Vari":10104,"fuel":10105,"Ġdry":10106,"llms":10107,"FIELDS":10108,"Act":10109,"Ġbold":10110,"itertools":10111,"Undefined":10112,"Ġtzinfo":10113,"kt":10114,"rospection":10115,"Ġbg":10116,"Lazy":10117,"each":10118,"Ġcomputed":10119,"Ġfinalize":10120,"Ġbdist":10121,"REQUI":10122,"anh":10123,"__('":10124,"Ġinitialized":10125,"vcs":10126,"Ġbalance":10127,"pts":10128,"Based":10129,"Ġfallback":10130,"Ġendi":10131,"ĠMIME":10132,"EXTR":10133,"generated":10134,"è¯¥":10135,"ĠInvalidWheelFilename":10136,"Ġcopyright":10137,"/\",":10138,"imit":10139,"ĠCompat":10140,"pathname":10141,"dispose":10142,"diagonal":10143,"Ġok":10144,"ĠCF":10145,"ILINE":10146,"XY":10147,"ìĸ":10148,"ĠHAS":10149,"rency":10150,"pages":10151,"Medium":10152,"Ġparses":10153,"`:":10154,"sheet":10155,"gettext":10156,"Ġevalu":10157,"741":10158,"ĠCLIP":10159,"Ġparame":10160,"ONT":10161,"éĩı":10162,"KB":10163,"Ð»ÑĮ":10164,"äº¤":10165,"LOCAL":10166,"`):":10167,"Ġdateutil":10168,"localhost":10169,"Ġstdlib":10170,"SYS":10171,"Ġmeasurement":10172,"food":10173,"Ð¾Ðº":10174,"enu":10175,"Ð¾Ð±":10176,"sqlite":10177,"highlight":10178,"åİĨ":10179,"ç±»":10180,"?)":10181,"Special":10182,"sequences":10183,"allen":10184,"Ġrepo":10185,"())))<":10186,"Ġdelay":10187,"ĠÐ±":10188,"ĠAND":10189,"wap":10190,"ya":10191,"Ġeq":10192,"rength":10193,"731":10194,"cade":10195,"Ġmiddleware":10196,"ĠRetry":10197,"water":10198,"onathan":10199,"Ġtab":10200,"ĠGe":10201,"ĠBackend":10202,"rust":10203,"Ġlarger":10204,"Address":10205,"ARRAY":10206,"ĠCCompiler":10207,"posix":10208,"ugment":10209,"Entity":10210,"Ġmachine":10211,"Largest":10212,"ķĮ":10213,"export":10214,"ĠĠĠĠĠĠĠĠĠĠĠĠĠĠĠĠĠĠĠĠĠĠĠĠĠĠĠĠĠĠĠ":10215,"ĠOpenAI":10216,"Ġdepend":10217,"Ġgreenlet":10218,"ea":10219,"fallback":10220,"ë¦¬":10221,"ĠSC":10222,"fixtures":10223,"Paths":10224,"Ring":10225,"Tok":10226,"ĠFI":10227,"ĠNameError":10228,"Interpol":10229,"truncate":10230,"detail":10231,"ĠSH":10232,"mpleter":10233,"Ġmetric":10234,"ressor":10235,"Ġthreads":10236,"Ġidentity":10237,",_":10238,"Ġsizes":10239,"Property":10240,"Ġprogramming":10241,"Diffusion":10242,"Ġdevelopment":10243,"Ġ101":10244,"cannot":10245,"Ġauthentication":10246,"Ġuppercase":10247,"Ġcalendar":10248,"å¼Ģ":10249,"\"},<":10250,"Raw":10251,"moid":10252,"Codes":10253,"ConnectionError":10254,"Ġidentify":10255,"lified":10256,"anging":10257,"000000":10258,"Registry":10259,"ĠFredrik":10260,"ĠRect":10261,"eground":10262,"Ġpp":10263,"Ġmpmath":10264,"Details":10265,"'\"<":10266,"pub":10267,"ĠPydantic":10268,"Conflict":10269,"Ġfinding":10270,"mediate":10271,"Ġalternative":10272,"çº":10273,"Ġ``__":10274,"Ġtimeit":10275,"Ġcodec":10276,"Ġgenerates":10277,"Ġtear":10278,"ĠLinked":10279,"Ġbranch":10280,"Ġcoords":10281,"Insensitive":10282,"eb":10283,"serang":10284,"']),<":10285,"filepath":10286,"Ġjedi":10287,"éķ¿åº¦":10288,"oom":10289,"Ġws":10290,"Ġ[],<":10291,"resp":10292,"Ġindexing":10293,"Ġintersection":10294,"á»":10295,"éĴ":10296,"Character":10297,"Role":10298,"Ġmedian":10299,"nce":10300,"properties":10301,"Descriptor":10302,"æµ":10303,"inops":10304,"andar":10305,"ĠIterate":10306,"âĢĻ":10307,"specs":10308,"Ġdepending":10309,"Ġrecommended":10310,"Many":10311,"Ġfragment":10312,"undh":10313,"Ġhappen":10314,"ĠLundh":10315,"ĠJson":10316,"æľ¬":10317,"SR":10318,"strong":10319,"Ġsym":10320,"Ġtrie":10321,"Doc":10322,"Ġremoving":10323,"Ġ517":10324,"Too":10325,"æķ°æį®":10326,"ĠApplication":10327,"gpt":10328,"Ġpure":10329,"forwards":10330,"ĠURI":10331,"Security":10332,"Ġmechanis":10333,"wrong":10334,"Ġnb":10335,"getvalue":10336,"Ġlik":10337,"Ġemp":10338,"Ġbecomes":10339,"ä¼ļ":10340,"110":10341,"ialog":10342,"Decimal":10343,"ABCMeta":10344,"Ġgoing":10345,"Ġê²":10346,"ĠYOLO":10347,"ni":10348,"ĠCSV":10349,"ĠPattern":10350,"Ġsecurity":10351,"ĠTrieNode":10352,"Ġinternally":10353,"SKIP":10354,"Step":10355,"Ġyi":10356,"Ġlearning":10357,"Ġmatched":10358,"ĠPytest":10359,"Ġschemes":10360,"Ġlocations":10361,"Ġoverrid":10362,"Ġpythoncom":10363,"Ġ2017":10364,"PC":10365,"approx":10366,"Ġdecoded":10367,"iou":10368,"traversal":10369,"ĠAfter":10370,"ĠåĴĮ":10371,"ĠDon":10372,"Ġwheels":10373,"Ġ105":10374,"ASM":10375,"EXPR":10376,"(\",":10377,"remo":10378,"Ġcombined":10379,"ĠLegacyVersion":10380,"Ġtp":10381,"====<":10382,"ĠJonathan":10383,"2015":10384,"Ġswitch":10385,"ç§į":10386,"optimizer":10387,"ULE":10388,"æ²":10389,"ĠÑĩ":10390,"ĠTypedDict":10391,"ĠSim":10392,"autoreset":10393,"Ġderived":10394,"Ġreally":10395,"Ġthus":10396,"sym":10397,"ĠBeautifulSoup":10398,"Draw":10399,"Usage":10400,"ĠOri":10401,"backward":10402,"transport":10403,"Ġalphabet":10404,"SUPPORTED":10405,"wb":10406,"usiness":10407,"Select":10408,"purelib":10409,"Ġlr":10410,"unsqueeze":10411,"izable":10412,"Unique":10413,"limits":10414,"é¢ĺçĽ®":10415,"'))":10416,"represent":10417,"ultiple":10418,"Health":10419,"iet":10420,"Ġshuffle":10421,"Ġshare":10422,"DAT":10423,"ĠSpecifierSet":10424,"IGNOR":10425,"expires":10426,"sphinx":10427,"``:":10428,"aster":10429,"PYPY":10430,"ĠDirect":10431,"çŃī":10432,">/":10433,"around":10434,"lue":10435,"ĠåĪ":10436,">#:":10437,"macos":10438,"ĠUN":10439,"ĠBinaryIO":10440,"ÑĨÐ¸":10441,"Ġscaling":10442,"Remove":10443,"Sta":10444,"ptime":10445,"proj":10446,"prepare":10447,"ĠìĪĺ":10448,"ĠìĿ´":10449,"edArray":10450,"ĠScalar":10451,"Integ":10452,"annotations":10453,"Ġhaystack":10454,">#############################################################################":10455,"94":10456,"kits":10457,"umath":10458,"Ġproviding":10459,"\"]))<":10460,"Ð¾Ð·":10461,"loyment":10462,"ĠClassVar":10463,"TypedDict":10464,"Ġending":10465,"Ġ2008":10466,"Attention":10467,"ĠMyClass":10468,"Ġclosest":10469,"ĠAL":10470,"Ġ``_":10471,"TEMPLATE":10472,"dlpack":10473,"ully":10474,"agrams":10475,"éģįåİĨ":10476,"requested":10477,"ghi":10478,"VALUES":10479,"ĠFunc":10480,"Ġvendored":10481,"Bits":10482,"]!=":10483,"seen":10484,"Ġrfc":10485,"ĠSetuptools":10486,"822":10487,"Ġdeal":10488,"ickrange":10489,"orphis":10490,"ĠHas":10491,"ĠProject":10492,"Walker":10493,"thers":10494,"ĠBar":10495,"Ġreads":10496,"Bytes":10497,"ao":10498,"operation":10499,"ĠGPL":10500,"Ġpolynomials":10501,"ience":10502,"palette":10503,"Ġosp":10504,"longdouble":10505,"RuntimeError":10506,"Feature":10507,"orient":10508,"ÑĢÐ¸":10509,"Ġpeek":10510,"gaussian":10511,"fidence":10512,"ĠConstruct":10513,"å®ŀ":10514,"Ġfd":10515,"Ġbel":10516,"ceeded":10517,"otst":10518,"ĠMinimum":10519,"Ġquantity":10520,"amin":10521,"Ġmoving":10522,"å®ĥ":10523,"ulative":10524,"Ext":10525,"Ġwhite":10526,"ENCODING":10527,"RY":10528,"Redirect":10529,"holder":10530,"jar":10531,"ĭľ":10532,"Ġtdi":10533,"~~<":10534,"ReLU":10535,"...\")<":10536,"RU":10537,"ĠHart":10538,"Ġ2018":10539,"netloc":10540,"Ġlexers":10541,"Total":10542,"Ġouter":10543,"ĠPackageFinder":10544,"Ġtda":10545,"uni":10546,"Ġpermutation":10547,"Ġcython":10548,"Ġdumps":10549,"bzr":10550,"Man":10551,"Score":10552,"cmp":10553,"ana":10554,"([[\"":10555,"creator":10556,"Ġplugins":10557,"Ġ2009":10558,"lished":10559,"ĠCaseInsensitive":10560,"stdlib":10561,"Try":10562,"tell":10563,"existent":10564,"ĠPos":10565,"Embeddings":10566,"needs":10567,"Pe":10568,"abi":10569,"Ġklass":10570,"åĬ¨":10571,"schedule":10572,"IV":10573,"PN":10574,"Ġĉ":10575,"Ġinvert":10576,"Ġsubject":10577,"Ġfactorial":10578,"Ġescap":10579,"coins":10580,"ignKey":10581,"lake":10582,"403":10583,"cated":10584,"Ġmar":10585,"ĠMan":10586,"heapify":10587,"Ġrelations":10588,"Quant":10589,"BOOL":10590,"tracker":10591,"]}<":10592,"Ġ))<":10593,"colorama":10594,"ĠSVG":10595,"tup":10596,"Ġgives":10597,"Ġ------<":10598,"TERN":10599,"Ġvectors":10600,"otstrap":10601,"Ġconven":10602,"acing":10603,"Comment":10604,"cats":10605,"slash":10606,"requencies":10607,"repl":10608,"Ġuni":10609,"arxiv":10610,"polar":10611,"musl":10612,"uggingface":10613,"Now":10614,"Ġpatches":10615,"Ġincorrect":10616,"sock":10617,"Ġargtypes":10618,"Ġ...]":10619,"Ġentryp":10620,"Ġlegend":10621,">|":10622,"LICENSE":10623,"ĠSc":10624,"Ġdivisor":10625,"Ġcandies":10626,"ĠELF":10627,"æĪĳ":10628,"çł":10629,"isdir":10630,"Ġ2000":10631,"splitlines":10632,"ĠTests":10633,"Gui":10634,"decomp":10635,"Ġfact":10636,"edian":10637,"Fail":10638,"íķľ":10639,"figsize":10640,"ALLOWED":10641,"finfo":10642,"truth":10643,"\"'":10644,"Escape":10645,"logn":10646,"tempt":10647,"åĨħ":10648,"ìĸ´":10649,"Fixed":10650,"Used":10651,"Ġamong":10652,"gence":10653,"Ġsqlite":10654,"73":10655,"BM":10656,"Sha":10657,"ku":10658,"Ġell":10659,"Ġrating":10660,"Ġoptimization":10661,"Ġfurther":10662,"interpreter":10663,"Ġspecifiers":10664,"Ġimmutable":10665,"attack":10666,"ĠColorValidator":10667,"Ġfiltered":10668,"Ġitalic":10669,"Selector":10670,"éĢĴ":10671,"aru":10672,"utures":10673,"unic":10674,"ĠFill":10675,"ĠWarning":10676,"ĠHartley":10677,"gate":10678,"getpath":10679,"pens":10680,"Ġfontsize":10681,"aux":10682,"'])":10683,"Pattern":10684,"aint":10685,"bian":10686,"phi":10687,"3333":10688,"domains":10689,"ĠANSI":10690,"entropy":10691,"ä½įç½®":10692,"glyph":10693,"Ġfake":10694,"Ġbackends":10695,"Ð´Ð°":10696,"isna":10697,"ellow":10698,"Ġdecomp":10699,"setrecursionlimit":10700,"Ġisland":10701,"ĠLabs":10702,"Ġrobot":10703,"åĽ¾":10704,"Utilities":10705,"Ġintrodu":10706,"routine":10707,"normpath":10708,"Gu":10709,"WASM":10710,"cles":10711,"Ġtim":10712,"Ġrecogn":10713,"Ġsheet":10714,"gebra":10715,"sources":10716,"Ġsimplify":10717,"Ġgrad":10718,"DWORD":10719,"Final":10720,"Ġ</":10721,"Ġscan":10722,"Ġmix":10723,"Ġì¶":10724,"pyxl":10725,"Ġreache":10726,"Ġbecome":10727,"Ġvirtualenv":10728,"aab":10729,"define":10730,"Ġ75":10731,"Ġlim":10732,"atively":10733,"ĠSpecifi":10734,")*(":10735,"ĠTOML":10736,"ArgumentParser":10737,"ĠFeat":10738,"Ġ34":10739,"ĠCaseInsensitiveDict":10740,"once":10741,"illow":10742,"ĠLarson":10743,"ĠMissing":10744,"minutes":10745,"icker":10746,"solver":10747,"Comparison":10748,"socialaccount":10749,"Mutable":10750,"anded":10751,"Ġsuc":10752,"FIELD":10753,"xt":10754,"Ĳľ":10755,"Ġtarfile":10756,"çĲĨ":10757,"will":10758,"Ġ/=":10759,"overlap":10760,"Ġrecursively":10761,"peg":10762,"Compute":10763,"legate":10764,"Ġdetermined":10765,"ssue":10766,"Resources":10767,"Domain":10768,"Ġipaddress":10769,"ĠRemoved":10770,"ĠÃ":10771,"Ġhashed":10772,".{":10773,"apshot":10774,"ĠRepresent":10775,"ONG":10776,"Ġrenderer":10777,"ĠPh":10778,"ĠEric":10779,"501":10780,"atives":10781,"alloc":10782,"Ġsty":10783,"sound":10784,"cumulate":10785,"MULTILINE":10786,"tw":10787,"Ġunderstand":10788,"ĠContainer":10789,"ĠLinkedList":10790,"bosity":10791,"ĠMODE":10792,"logy":10793,"Subarray":10794,"CURSOR":10795,"ula":10796,"ĠPrompt":10797,":].":10798,"Span":10799,"Ġpast":10800,"ĠCandidate":10801,"ĠEasy":10802,"mapper":10803,"Ġstuff":10804,"Ġmembers":10805,"Bounds":10806,".\\":10807,"incip":10808,"asm":10809,"geeks":10810,"Ġnoise":10811,"selection":10812,"Mis":10813,"rtol":10814,"Ġspf":10815,"tas":10816,"nake":10817,"Ġimplementing":10818,"ĠConfigDict":10819,"`_":10820,"arb":10821,"ĠSepar":10822,"125":10823,"SameTree":10824,"NULL":10825,"orse":10826,"oll":10827,"kew":10828,"Ġselenium":10829,"Ġevict":10830,"These":10831,"Ġadv":10832,"Maximum":10833,"Ġreceived":10834,"ÐµÐºÑĤ":10835,"Ġagreement":10836,"hg":10837,"Ġurlopen":10838,"]=='":10839,"æĬ":10840,"Ġamb":10841,"ernels":10842,"jobs":10843,"ccompiler":10844,"smallest":10845,"Ġresidual":10846,"delet":10847,"shadow":10848,"Ġvisual":10849,"MAG":10850,"Ġpixels":10851,"finished":10852,"retrie":10853,"AST":10854,"Mat":10855,"argsort":10856,"Ġmn":10857,"clared":10858,"\",)<":10859,"ctionaries":10860,"Ġrespectively":10861,"park":10862,"Ġmultiply":10863,"Ġir":10864,"ilon":10865,"Ġelem":10866,"Ġpreferred":10867,"Ġam":10868,"Ġanswers":10869,"ĠĠĠĠčĊ":10870,"Ġllm":10871,"Ġenc":10872,"Device":10873,"ĠParameter":10874,"Ġpolicy":10875,"MENTS":10876,"71":10877,"ZipFile":10878,"jinja":10879,"ĠFigureCanvas":10880,"]'":10881,"uli":10882,"encodings":10883,"Ġ`-":10884,"annel":10885,"192":10886,"Ġblack":10887,"ĠÐ´Ð»Ñı":10888,"walk":10889,"ĠMask":10890,"keywords":10891,"éĹ®":10892,"Question":10893,"insensitive":10894,"itz":10895,"Ġds":10896,"Indi":10897,"plotting":10898,"what":10899,"åĮħ":10900,"Full":10901,"bum":10902,"inverse":10903,"selector":10904,"Ġstar":10905,"Ġlogical":10906,"Ġdetectron":10907,"zmq":10908,"('_":10909,"Record":10910,"Ġbasename":10911,"Ġoutfile":10912,"Ġprocessed":10913,"INST":10914,"COUNT":10915,"KG":10916,"owel":10917,"far":10918,"flip":10919,"nl":10920,"ĨĴ":10921,"quared":10922,"cluding":10923,"dn":10924,"erance":10925,"Ġnor":10926,"ĠBY":10927,"Ġcorner":10928,"ĠBuildEnvironment":10929,"ç¨ĭ":10930,"DD":10931,"^{":10932,"stones":10933,"\"\"<":10934,"apache":10935,"Ġbug":10936,"è¿Ľè¡Į":10937,"gpu":10938,"Ġmoved":10939,"havior":10940,"Wait":10941,"[[\"":10942,"unix":10943,"Ġisolated":10944,"Ġgamma":10945,"strain":10946,"PLAT":10947,"å¾Ĺ":10948,"ponential":10949,"ëĵľ":10950,"']['":10951,"PACK":10952,"ficial":10953,"::-":10954,"Ġdirective":10955,"Ġimpro":10956,"BIN":10957,"acc":10958,"utorial":10959,"vander":10960,"__)":10961,"pyparsing":10962,"('--":10963,"Ġ2001":10964,"instances":10965,"Cls":10966,"identifier":10967,"uplicated":10968,"Ġclimb":10969,"Ġherm":10970,"delitem":10971,"Represents":10972,"Longest":10973,"tseries":10974,"liers":10975,"strptime":10976,"ĠCorp":10977,"proach":10978,"Ġchecked":10979,"books":10980,"ĠThat":10981,"ractice":10982,"robot":10983,"Ġmember":10984,"NetworkX":10985,"dtemp":10986,"cluster":10987,"ĠOGR":10988,"ĠView":10989,"Ġsumm":10990,"Ġstrategy":10991,"NotImplemented":10992,"Ġjoblib":10993,"VIDIA":10994,")`":10995,"æ¡":10996,"alive":10997,"Ġdashes":10998,"\")])<":10999,"Decorator":11000,"locals":11001,"ÐºÐ¸":11002,"DES":11003,"Ġ),":11004,"itect":11005,"geom":11006,"Ġ\"=":11007,"feed":11008,"MOVE":11009,"mpletions":11010,"ĠTHIS":11011,"Hint":11012,"æł¹":11013,"Ġfixture":11014,"HeaderDict":11015,"Ġpotentially":11016,"Ġsubsequent":11017,">`_.<":11018,"ĠTry":11019,"putils":11020,"Ġdisk":11021,"Weight":11022,"ãĥ¼":11023,"Embedding":11024,"ĠSerializer":11025,"]}":11026,"pivot":11027,"Ġintersect":11028,"searchsorted":11029,"åºĶ":11030,"Ġagg":11031,"12345678":11032,"æį¢":11033,"Ġlayers":11034,"iffi":11035,"Ġweek":11036,"Ordered":11037,"Ġmonotonic":11038,"Ġcleanup":11039,"LEGAL":11040,"Smallest":11041,"edy":11042,"Theme":11043,"Ġ[[]":11044,"Ġmegatron":11045,"*')<":11046,"rv":11047,"Ä±":11048,"Ġgradient":11049,"Ġprerequis":11050,"terms":11051,"charm":11052,"è¶":11053,"program":11054,"({'":11055,"ulo":11056,"Ġflip":11057,"ados":11058,"ety":11059,"ECASE":11060,"Ġdicts":11061,"shapes":11062,"Ġdifferences":11063,"////////////////////////////////":11064,"scene":11065,"REF":11066,"APP":11067,"[~":11068,"Ġwave":11069,"ots":11070,"Ġmaps":11071,"ĠPipError":11072,"å¥":11073,"ĠClassNotFound":11074,"åºıåĪĹ":11075,"Screen":11076,"à¦":11077,"Polynomial":11078,"èĩ":11079,"readed":11080,"Ġfi":11081,"Ġsalary":11082,"ffe":11083,"hood":11084,"Ġsug":11085,"ighbour":11086,"BOM":11087,"ĠHeaders":11088,"atty":11089,"Ġct":11090,"Ġborder":11091,"ManagerFor":11092,"Ġtranspose":11093,"Ops":11094,"ENABLE":11095,"Ġdistances":11096,"texture":11097,"ĠStandard":11098,"={'":11099,"Ġschedule":11100,"Ġindependent":11101,"Ġeinops":11102,"istration":11103,"ëı":11104,"retry":11105,"eratures":11106,"Ġprinting":11107,"Ġurljoin":11108,"abcde":11109,"Settings":11110,"DEC":11111,"pic":11112,"Ġtreated":11113,"ascal":11114,")]],":11115,"REC":11116,"Ġ(`":11117,"ĠForm":11118,"ĠAllow":11119,"money":11120,"Ġmigration":11121,"Ġpyasn":11122,"abcd":11123,"ĠStudent":11124,"thedocs":11125,"toolkits":11126,">,":11127,"Ġinteractive":11128,"Ġfully":11129,"Ġpk":11130,"ĠlengthOf":11131,"Height":11132,"Ġimplicit":11133,"nc":11134,"Exit":11135,"readthedocs":11136,"ridge":11137,"cumpro":11138,"EPT":11139,"ĠSym":11140,"crop":11141,"ìķ":11142,"ĥ¨":11143,"dec":11144,"Ġny":11145,"Ġuint":11146,"Ġqueryset":11147,"âĶĢâĶĢâĶĢâĶĢ":11148,"~~~~~~~~~~~~~~<":11149,"elem":11150,"Ġdpi":11151,"Ġfilepath":11152,"marks":11153,"remaining":11154,"lapping":11155,"pq":11156,"éħ":11157,"Ġ\"$":11158,"Ġ2011":11159,"Ġwildcards":11160,"SELECT":11161,"`)<":11162,"ginal":11163,"Ĭ¸":11164,">'<":11165,"Ġconst":11166,"LinkedList":11167,"Ã§":11168,"éĥ¨":11169,"ĠNow":11170,"Ġndim":11171,"Ġtargets":11172,"cluded":11173,"itlets":11174,">================================================================":11175,"too":11176,"ĠUTC":11177,"conds":11178,"syntax":11179,"Mult":11180,"clib":11181,"dropout":11182,"nable":11183,"Ġothers":11184,"fic":11185,"]]]<":11186,"ĠÐ·Ð°":11187,"HER":11188,"cates":11189,"Ġpers":11190,"ĠSEC":11191,"Ġusually":11192,"ĠStore":11193,"obs":11194,"ietf":11195,"Ġary":11196,"('<":11197,"ĠHEAD":11198,"NODE":11199,"URI":11200,"imag":11201,"ĠCDP":11202,"Ġdesigned":11203,"Ġtranslate":11204,"itter":11205,"preorder":11206,"ĠVin":11207,"positions":11208,"PlatformDirsABC":11209,"Ġjax":11210,"....":11211,"idna":11212,"onto":11213,"ĠSyntaxError":11214,"Ġindicates":11215,"broadcast":11216,"gonal":11217,"illi":11218,"ĠReplace":11219,"Ġcircuit":11220,"æİĴåºı":11221,"spawn":11222,"'][":11223,"ĠSu":11224,"ĠCir":11225,"pygame":11226,"ĠPack":11227,"builders":11228,"åĲ«":11229,"hexdigest":11230,"IZ":11231,"fr":11232,"lan":11233,"½æķ°":11234,"Ġurlencode":11235,"ongs":11236,"micro":11237,"ĠTC":11238,"=[<":11239,"Unless":11240,"Ġspecifying":11241,"continue":11242,"cumprod":11243,">\\\\[":11244,"IES":11245,"âī¤":11246,"\\\\]:":11247,"Ġlooks":11248,"zipfile":11249,"Pair":11250,"cuts":11251,"ukk":11252,"Ġanimation":11253,"ĠIMP":11254,"ĠWrap":11255,"ARE":11256,"Ġsorting":11257,"Ġpeak":11258,"Ġconsisting":11259,"ĠCopy":11260,"corr":11261,"Ġinstalling":11262,"waitable":11263,"ĠWebSocket":11264,"looks":11265,"MSG":11266,"Ġctr":11267,"ĠFour":11268,"Ġ123":11269,"BUILD":11270,"8601":11271,"Ġprediction":11272,"Ġfractions":11273,"]+=":11274,"Contains":11275,"159":11276,"Ġolder":11277,"Dialog":11278,"pend":11279,"Ġ'',":11280,"ĠReference":11281,"analy":11282,"coef":11283,"skipna":11284,"pended":11285,"interfaces":11286,"Ġ'.'":11287,"ĠAccept":11288,"CERT":11289,"surface":11290,"ĠAS":11291,"=====<":11292,"ĠEmployee":11293,"Region":11294,"ĠKeep":11295,"calculate":11296,"Est":11297,"Numpy":11298,"Ġ'')<":11299,"Ġxor":11300,"Ġminimal":11301,"ĠDictionary":11302,"Ġleetcode":11303,"Copy":11304,"Ġ2016":11305,"ĠHashable":11306,"ĠZeroOrMore":11307,"UUID":11308,"urname":11309,"ĠEval":11310,"ÑģÑı":11311,"ialect":11312,"ĠâĢĶ":11313,"Ġvirtual":11314,"IGNORECASE":11315,"oration":11316,"Ġeli":11317,"Ġìķ":11318,"Traceback":11319,"ĠIDNAError":11320,"ĠServer":11321,"agents":11322,"Ġhelpers":11323,"Imp":11324,"Person":11325,"Ã£":11326,"backwards":11327,"Ġpostorder":11328,"ĠDepends":11329,"dll":11330,">#################################":11331,"markup":11332,"ickle":11333,"Register":11334,"Ġcapture":11335,"star":11336,"iving":11337,">@_":11338,"Ġsatisfy":11339,"æĽ":11340,"ĠFree":11341,"Ġnewline":11342,"certs":11343,"degrees":11344,"gly":11345,"Ġant":11346,"vergence":11347,"triz":11348,"Stairs":11349,"91":11350,"ior":11351,"å»":11352,"Ġprob":11353,"DEX":11354,"ConsoleOutput":11355,"Ġmanip":11356,"SHA":11357,"CursorInfo":11358,">',":11359,"racle":11360,"apath":11361,"Ġdelimiter":11362,"Ġcuda":11363,"equ":11364,"Ġreferen":11365,"locs":11366,"Ġgain":11367,"Ġ'./":11368,"Ġcoverage":11369,"Help":11370,"supports":11371,"------+<":11372,"\"\",":11373,"unset":11374,"Ġ508":11375,"Tracker":11376,"=\"\")<":11377,"Ð°Ð½Ð¸":11378,"orthogonal":11379,"(',":11380,"=='":11381,"Ġminimize":11382,"2009":11383,"GROUP":11384,"ĠAct":11385,"ĠUnit":11386,"ĠNOQA":11387,"BAD":11388,"ees":11389,"æ±Ĥ":11390,"Ġstatements":11391,"Ġvisible":11392,"éħį":11393,"dc":11394,"Ġda":11395,"ĠisValid":11396,"Sequential":11397,"Car":11398,"Ġfloor":11399,"Ġins":11400,"ĠTIME":11401,"Ġ35":11402,"Ġpercent":11403,")'":11404,"Ġcsc":11405,"Ġsay":11406,"latin":11407,"Ġextended":11408,"weighted":11409,"canonicalize":11410,"products":11411,"Ġbrackets":11412,"\"):":11413,"queries":11414,"Ġstoring":11415,"ĠBook":11416,"\"]),<":11417,"Ġtmpdir":11418,"consistent":11419,"!'''<":11420,"Http":11421,"Ġrecur":11422,"olid":11423,"ĠLazy":11424,"noise":11425,"capital":11426,"Ġreduction":11427,"circle":11428,"çłģ":11429,"===<":11430,"ĠAPIs":11431,"UB":11432,"ĠNVIDIA":11433,"Ġtemperature":11434,"Ġperformed":11435,"Ġcustomer":11436,"ĠCharacter":11437,"ĠLOG":11438,"ico":11439,"connections":11440,"Autogenerated":11441,"erminal":11442,"TERS":11443,"120":11444,"ĠOpenAPI":11445,"Gate":11446,"ĵį":11447,"unused":11448,"Ġfollowed":11449,"permute":11450,"fib":11451,"Triplet":11452,"Ver":11453,"ĠLet":11454,"Ġsegments":11455,"tached":11456,"ĠImageFile":11457,"]].":11458,"ĠFROM":11459,"Side":11460,"Ġcbook":11461,"estyle":11462,"Ġcanonical":11463,"Ġsuitable":11464,"Ġopening":11465,"ĠContribut":11466,"Ġcustomises":11467,"Ġregardless":11468,"demo":11469,"ĠMain":11470,"crypted":11471,"Ġjoined":11472,"Ġdensity":11473,"printing":11474,"Art":11475,"ãģĤ":11476,"çĽ´":11477,"postgresql":11478,"UST":11479,"aneous":11480,"Category":11481,"veloper":11482,")>":11483,"MT":11484,"Negative":11485,"Ġparents":11486,"ĠBaseCache":11487,"ĠFILE":11488,"nat":11489,"Ã³":11490,"Ġextend":11491,"Ġconverts":11492,"NV":11493,"ov":11494,"}_":11495,"Ġmicro":11496,"ĠAsp":11497,"ĠLayer":11498,"Ġwhy":11499,"Ġstarted":11500,"Ġmoment":11501,"Ġoverhead":11502,"Ġtranslation":11503,"Ġevaluation":11504,"Editor":11505,"Difference":11506,"bine":11507,"watch":11508,"matmul":11509,"Ġopened":11510,"ĠProduct":11511,"DateTime":11512,"Ġattn":11513,"]',":11514,"covery":11515,"ĠDP":11516,"Ġvi":11517,"ĠGeometry":11518,"pired":11519,"Ġmanage":11520,"ĠÑģÑĤ":11521,"EGL":11522,"ĠFIX":11523,"ĠMac":11524,"Lists":11525,"formatted":11526,"BaseCache":11527,"ĠNewType":11528,"ĠPytestTester":11529,"/\"<":11530,"ĠÑĥ":11531,"geo":11532,"Ġinterest":11533,"ATW":11534,"REMENT":11535,"Ġfullname":11536,"softmax":11537,"Ġhighlighting":11538,"Align":11539,"æĹ¶éĹ´":11540,"~~~~~~~~~~~~~~~<":11541,"__),":11542,"conversion":11543,"does":11544,">>>":11545,"ElementTree":11546,"ç«":11547,"inc":11548,"Ġsubmission":11549,"STY":11550,"Ġheapify":11551,"Ġestimator":11552,"Ġquoted":11553,"Host":11554,"ĠNormal":11555,"ffered":11556,"Concat":11557,"çĶŁ":11558,"Ġblank":11559,"Ġscen":11560,"ĠSha":11561,"111":11562,"mitives":11563,"multiply":11564,"kinds":11565,"Retriever":11566,"+',":11567,">\",":11568,"yolo":11569,"Ġinfinite":11570,"Ġtyped":11571,"Ġrendered":11572,"Ġintegration":11573,"+-]":11574,"mith":11575,"Ġaffect":11576,"ĠTHE":11577,"adb":11578,":',":11579,"Ġincrease":11580,"\")),<":11581,"ANGE":11582,"Library":11583,"Ġhypothesis":11584,"æ¯ıä¸ª":11585,"ĠPOINTER":11586,"INF":11587,"Std":11588,"sas":11589,"Ġaux":11590,"also":11591,"ĠSaj":11592,"Ġdecoder":11593,"ĠInfinityType":11594,"Ġnearest":11595,"visual":11596,"Ġlengths":11597,"Ġìłķ":11598,"ĠVinay":11599,"ulates":11600,"coord":11601,"processes":11602,"ĠUS":11603,"ĠTransformer":11604,"ĠSajip":11605,"901":11606,"cx":11607,"constraint":11608,"Inst":11609,"UnparsedVersion":11610,"ĠHeader":11611,"remote":11612,"epochs":11613,"widgets":11614,":{":11615,"Has":11616,"Display":11617,"\\.\\":11618,"Ġbinascii":11619,"Ġ-<":11620,"Ġjinja":11621,"ĠTestC":11622,"schemas":11623,"^^^^":11624,"CLIENT":11625,"åŀ":11626,"Ġosname":11627,"Ġshouldn":11628,"Ð½Ñı":11629,"Ġfonts":11630,"branch":11631,"initions":11632,"Ġ{{":11633,"wheels":11634,"Ġtrigger":11635,"Ġcontributor":11636,"Ġoverridden":11637,")(\"":11638,"*.<":11639,"Ġexecuted":11640,"lyphs":11641,"HOST":11642,"prediction":11643,"Ġlikely":11644,"creso":11645,"ireq":11646,"jo":11647,"Ġaren":11648,"Ġesc":11649,"ills":11650,"kwds":11651,"Ġprior":11652,"());":11653,"ĠProtocolError":11654,"ominator":11655,"arith":11656,"Ġdee":11657,"Ġ`__":11658,"mlink":11659,"START":11660,"Ð²Ð°":11661,"elf":11662,"you":11663,"Ġunsupported":11664,"MultiIndex":11665,"SERVER":11666,"Sp":11667,"must":11668,"oto":11669,"Ġho":11670,"executor":11671,"(?:\\":11672,"peak":11673,"Arrow":11674,"Colors":11675,"ìĿĢ":11676,"vocab":11677,"}'.":11678,"Ġinclusive":11679,"Ġtok":11680,"omic":11681,"Ġprecedence":11682,"never":11683,"ansion":11684,"Ġconnecting":11685,"Ġexpects":11686,"Ġinline":11687,"Ġ'('":11688,"Ġdemo":11689,"symmetric":11690,"âĢĿ":11691,"Overflow":11692,"zure":11693,"Ġlm":11694,"ĠSecurity":11695,"ONLY":11696,"Ġcompose":11697,"Ġ97":11698,"ãģ«":11699,"Ġåľ":11700,"Ġassumed":11701,"integrate":11702,"certifi":11703,"dots":11704,"BoxLayout":11705,"Ġpyopenssl":11706,"ĠìĹ":11707,"Ġnonlocal":11708,"echo":11709,"itemsize":11710,"colorsrc":11711,"Bo":11712,"TX":11713,"uname":11714,"ĠSpan":11715,"Ġpages":11716,"dummies":11717,"`).<":11718,"air":11719,"()'":11720,"ubic":11721,"Ġroom":11722,"Ġconfigure":11723,"anning":11724,"vectorstores":11725,"íķ´":11726,"Ġnaive":11727,"ä¿Ŀ":11728,"ius":11729,"Ġcopies":11730,"subarray":11731,"ritten":11732,"Creates":11733,"Need":11734,"gray":11735,"asfreq":11736,"ĠUSE":11737,"Reporter":11738,"FileError":11739,"Ġtokenize":11740,"ategies":11741,"hard":11742,"Ġphi":11743,"Ġinher":11744,"readonly":11745,"Here":11746,"concatenate":11747,"orphism":11748,"MQ":11749,"WE":11750,"Ġcaching":11751,"Password":11752,"81":11753,"Ġtell":11754,"Ġ###":11755,"Ġhouse":11756,"Ġrm":11757,"ĠâĶĤ":11758,"Ġìŀħ":11759,"ÐµÐ½Ð¸Ðµ":11760,"ĠTags":11761,"uggest":11762,"Ð¾Ð¹":11763,"Ġnc":11764,"------<":11765,"ĠCommon":11766,"Ġconcaten":11767,"Ge":11768,"Public":11769,"tqdm":11770,"yield":11771,"cific":11772,"relation":11773,"imizer":11774,"ropic":11775,"åľ°":11776,"tile":11777,"wxyz":11778,"ects":11779,"('%":11780,"ĠĠĠĠĠĠĠĠĠĠĠĠĠĠĠĠĠĠĠĠĠĠĠĠĠĠĠĠĠĠĠĠĠĠĠĠĠ":11781,"ĠHere":11782,"Ġstudents":11783,"SCHEMES":11784,"OPENSSL":11785,"atmap":11786,"Ġhad":11787,"ĠMost":11788,"ĠGit":11789,"SSION":11790,"Ġstreamlit":11791,")}\")<":11792,"BLOCK":11793,"Main":11794,"ĠSupport":11795,"Ġvars":11796,"Locator":11797,"åĩ½æķ°":11798,"entities":11799,"trict":11800,"riteria":11801,"ĠPoolManager":11802,"GH":11803,"Ġcdf":11804,"Ġmarg":11805,"Ġconcurrent":11806,"ATORS":11807,"]'<":11808,"ĠNULL":11809,"LEFT":11810,"æ¯Ķ":11811,"DR":11812,"íĬ¸":11813,"Ġgl":11814,"Ġcompressed":11815,"subject":11816,"COOK":11817,"æĺ¯åĲ¦":11818,"ĀĀĀĀĀĀĀĀĀĀĀĀĀĀĀĀ":11819,"'}":11820,"FOR":11821,"ĠZip":11822,"Ġtrio":11823,"ç§»":11824,"oi":11825,"vstack":11826,"riends":11827,"quat":11828,"Ġoptimal":11829,"Ġunpacked":11830,"MODULE":11831,"ĠStopIteration":11832,"å»º":11833,"/><":11834,"62":11835,"Nested":11836,"Ġ[('":11837,"courses":11838,"ĠFuture":11839,"assertIn":11840,"rcParams":11841,"csc":11842,"drive":11843,"Ġcluster":11844,"Ġå°":11845,"åĬĽ":11846,"sputils":11847,"Īëĭ¤":11848,"ĠExtract":11849,"Standar":11850,"ĠStorage":11851,"GLOB":11852,"fb":11853,"qux":11854,"ĠCOR":11855,"prompts":11856,"Scope":11857,"than":11858,"Ġopenai":11859,"Ġmsgpack":11860,"ĠSSLContext":11861,"Splitter":11862,"GLOBAL":11863,"VEL":11864,"anchor":11865,"urlpatterns":11866,"Ġpathname":11867,"007":11868,"Ġsubplot":11869,"Ġ~~~~~~~~~~~~~~~~~~~<":11870,"greenlet":11871,"ĠNegativeInfinityType":11872,"ĠFIXME":11873,"Ġunquote":11874,"judge":11875,"detection":11876,"markdown":11877,"jug":11878,"isom":11879,"ĠCSS":11880,"Ġsubstitution":11881,"Utility":11882,"(\"\",":11883,"machine":11884,"gradient":11885,"Ħì":11886,"ĠBU":11887,"haz":11888,">========================":11889,"Ġbroadcast":11890,"axs":11891,"PathLike":11892,"2022":11893,"alindrom":11894,"ORDER":11895,"ĠFunctions":11896,"Ġformed":11897,"Round":11898,"fstat":11899,"Inline":11900,"ĠGET":11901,"])))<":11902,"Ã¤":11903,"Ġ`_":11904,"Ġacc":11905,"Ġholds":11906,"Unpack":11907,"arc":11908,"servers":11909,"Ġstand":11910,"ãģĻ":11911,"Ġ^=":11912,"pull":11913,"ĠOb":11914,"ubble":11915,"arer":11916,"Ġshapes":11917,"Ġbytearray":11918,"SECRET":11919,"RIGHT":11920,"klass":11921,"services":11922,"Ġ==========<":11923,"satisfied":11924,"ucli":11925,"projection":11926,"ĠReserved":11927,"ĠnewNode":11928,"Ġtraitlets":11929,"ĠÐ¾Ð±ÑĬ":11930,"Ġsecure":11931,"alen":11932,"Ġdc":11933,"acts":11934,"Ġserialization":11935,"IFY":11936,"Failure":11937,"arbage":11938,"310":11939,"gzip":11940,"sites":11941,"ĠMagic":11942,"neth":11943,"2021":11944,"sampling":11945,"å±":11946,"Ġï¼Į":11947,"Ġ::<":11948,"trailing":11949,"Markup":11950,"abilities":11951,"è¯ķ":11952,"åį³":11953,"Ġlineno":11954,"Obj":11955,"Warned":11956,"Ġband":11957,"Ġ@_":11958,"ĠExcel":11959,"Stdout":11960,"Ġparsers":11961,"ĠDistlibException":11962,"Ð¾Ð³Ð¾":11963,"rupt":11964,"Ġroman":11965,"isdigit":11966,"Ġthink":11967,"=[\"_":11968,"ĠURLs":11969,"flask":11970,"å®Į":11971,"Ġê³":11972,"loyees":11973,"ĠShort":11974,"sur":11975,"Ġimportant":11976,"divide":11977,"ĠLayout":11978,"Ġundirected":11979,"tokenize":11980,"METADATA":11981,"los":11982,"ĠPSF":11983,"constraints":11984,"vial":11985,"cryptography":11986,"Ġguide":11987,"FSIZE":11988,"ging":11989,"}',":11990,"Ġdivmod":11991,"codec":11992,"ĠProgramming":11993,"Ġidentical":11994,"ĠSymPy":11995,"cmap":11996,"Ġdictionaries":11997,"IDD":11998,"({})":11999,"\"%":12000,"imeter":12001,"ĠSample":12002,"BUFF":12003,"annotation":12004,".*?":12005,"separator":12006,"ĠExtensionArray":12007,"Ġomega":12008,"Ġuv":12009,"ocab":12010,"Kernel":12011,"åĻ":12012,"Ġonto":12013,"stacle":12014,"Ġmanag":12015,"Ġofficial":12016,"lengths":12017,"å½Ĵ":12018,"å¾Ħ":12019,"hazmat":12020,"Ġrevision":12021,"ĠGPU":12022,"Arr":12023,"Ġprimes":12024,"Ġå¦Ĥ":12025,"Ġautoattribute":12026,"[[],":12027,"Permission":12028,"æľĢå°ı":12029,"ĠFeature":12030,"rins":12031,"Ġjudge":12032,"formdata":12033,"Ġsubtract":12034,"utoff":12035,"åıĺ":12036,"efficient":12037,"ê³ł":12038,"PP":12039,"Square":12040,"amming":12041,"imshow":12042,"Ġcompli":12043,"REQ":12044,"Ġcalculated":12045,"Ġelapsed":12046,"Ġspawn":12047,"Ġcr":12048,"Profile":12049,"Seq":12050,"åıĤ":12051,"Ġraster":12052,"COMMENT":12053,"Ġdegrees":12054,"cpython":12055,"ĠSpatial":12056,"FFT":12057,"KEYS":12058,"ĠDatetimeArray":12059,"Widgets":12060,"ExecError":12061,"ĠmacOS":12062,"äºĮåıīæłĳ":12063,"sb":12064,"Ġfh":12065,"Ġpdf":12066,"Ġloops":12067,"Ġvs":12068,"Double":12069,"Book":12070,"ĠSimilar":12071,"rectangle":12072,"characters":12073,"Ġbounding":12074,".\",":12075,"CESS":12076,"matched":12077,"Ġroute":12078,"buy":12079,"ValidationError":12080,"ĠStreamWrapper":12081,"pixel":12082,"/__":12083,"Other":12084,"Ġshe":12085,"coeff":12086,"Ġencodings":12087,"ordering":12088,"clic":12089,"deprecate":12090,"Ġhuman":12091,"ĠSection":12092,"éĴĪ":12093,"fort":12094,"onnx":12095,"005":12096,"Ġangular":12097,"\"(?":12098,"ĠSing":12099,"ĠAut":12100,"Ġpydev":12101,"Replace":12102,"ifies":12103,"PIP":12104,"Ġequals":12105,"SCREEN":12106,"ifficulty":12107,"SubArray":12108,"Ġphone":12109,"æŃ£":12110,"oder":12111,"Ġcoo":12112,"ggle":12113,"ĠRequired":12114,"Short":12115,"Ġpurpose":12116,"è®¡ç®Ĺ":12117,"Ġåľ¨":12118,"ased":12119,"Ġbyref":12120,"Ġgeometry":12121,"Courses":12122,"åŀĭ":12123,"gc":12124,"locations":12125,"Ġtherefore":12126,"mmutable":12127,"Assign":12128,"ľëł¥":12129,"Ġmaster":12130,"IDTH":12131,"Ġfairseq":12132,"Ġæı":12133,"PORATION":12134,"ĠCORPORATION":12135,"DIS":12136,"Ġdates":12137,"Ġarmor":12138,"ssh":12139,"Ġdistribute":12140,"244":12141,"ĠParseResults":12142,"BooleanValidator":12143,"Ġpiece":12144,"Ġherme":12145,"-]+":12146,"Spe":12147,"warded":12148,"IOBase":12149,"ĠChange":12150,"avigation":12151,"Spline":12152,"Ġcand":12153,"cov":12154,"Ġ:]":12155,"ENER":12156,"RequestHandler":12157,"datas":12158,"Delta":12159,"BSD":12160,"lick":12161,"four":12162,"Ġmajority":12163,"Ġellar":12164,"allfiles":12165,"()])<":12166,"Easy":12167,"fol":12168,"ĠNUM":12169,"kemon":12170,"Student":12171,"Configuration":12172,"Ġcredentials":12173,"Ð¼Ð¸":12174,"Ġcapi":12175,"curve":12176,"Ġnormalization":12177,"Authorization":12178,"/\"":12179,"nume":12180,"Ġ\")":12181,"strategy":12182,"è¾¹":12183,"æłĪ":12184,"merged":12185,"Ġfuel":12186,"Ġtested":12187,"refs":12188,"PYOPENSSL":12189,"ĠFourier":12190,"pes":12191,"ĠCPython":12192,"trie":12193,"scaling":12194,"WHITE":12195,"xaxis":12196,"Ġ-------------------------------<":12197,"=================================================================<":12198,">`<":12199,"ita":12200,"itations":12201,"Ġeye":12202,"Ġ33":12203,"Delete":12204,"Ġnormally":12205,"Edit":12206,")._":12207,"Ġot":12208,"==\"\"\"<":12209,">\"\"\"=================================================================<":12210,"Ġmanually":12211,"Cycle":12212,">==================================================================\"\"\"<":12213,"Jumlah":12214,"Long":12215,"gan":12216,"xpr":12217,"rics":12218,"Ġ_(\"":12219,"Ġunders":12220,"Ġvariabel":12221,"ConsoleOptions":12222,"Ġgrammar":12223,"------------<":12224,"ĠModuleType":12225,"çĦ":12226,"Ġ.-.":12227,"agonal":12228,"textfont":12229,"\"(\\":12230,"Ġtoml":12231,"åŃĺåľ¨":12232,"Rout":12233,"qr":12234,"xlim":12235,"asi":12236,"firm":12237,"Ġexceed":12238,"enerate":12239,"éĩĮ":12240,"è®°":12241,">>>>>>>>":12242,"éĢļ":12243,"schedules":12244,"(('":12245,"Plot":12246,"Pipe":12247,"Ġten":12248,"ĠPadding":12249,"Ġlxml":12250,"ĠDown":12251,"entity":12252,"Ġcontiguous":12253,"packed":12254,"guide":12255,"videos":12256,"ä»»":12257,"Ġlimited":12258,"adjust":12259,"allenge":12260,"ki":12261,"elli":12262,"Ġmarked":12263,"serialization":12264,"ĠINT":12265,"Ġstrictly":12266,"Ġproxies":12267,"Fin":12268,"Ġsquares":12269,"Ġgzip":12270,"collect":12271,"Subsequence":12272,"MAGE":12273,"BatchNorm":12274,"ulse":12275,"Ġselector":12276,"Ġunexpected":12277,"Ġtexts":12278,"refcount":12279,"dtickrange":12280,"Ġlocals":12281,"darwin":12282,"imated":12283,"ĠND":12284,"Ġeigen":12285,"indexing":12286,"locity":12287,"RequestField":12288,"factorial":12289,"Detector":12290,"What":12291,"wan":12292,"Ġpin":12293,"Ġnth":12294,"Construct":12295,"regression":12296,"DIST":12297,"Executor":12298,"ĠRights":12299,"inion":12300,"edits":12301,"Ġhorizontal":12302,"Ġlistener":12303,"Ġ%=":12304,"FileCache":12305,"NotAvailable":12306,"Ġensures":12307,"How":12308,"Sent":12309,"Ġ(%":12310,"Ġcomes":12311,"Ġhist":12312,"probs":12313,"monos":12314,"Ġestimate":12315,"retries":12316,"lv":12317,"neum":12318,"ĠColors":12319,"hold":12320,"kn":12321,"osite":12322,"Ġvisitor":12323,"UDA":12324,"rob":12325,"hess":12326,"Ġmenu":12327,"crimin":12328,"managed":12329,"æĸŃ":12330,"Torch":12331,"ĠWill":12332,"Ġdense":12333,"Ĥ¬":12334,"ALPH":12335,"Requests":12336,"shake":12337,"totypes":12338,"Ġcmap":12339,"ĠAT":12340,"ĠFore":12341,"Ġlocated":12342,"Ġproduction":12343,"PAREN":12344,"åĪĹè¡¨":12345,"ĠCacheControl":12346,"Ĥĺ":12347,"Ġtot":12348,"modeling":12349,"general":12350,"bas":12351,"Ġ:=":12352,"Curve":12353,"Ġå¦Ĥæŀľ":12354,"__[":12355,"resnet":12356,"Ġpreviously":12357,"bca":12358,"psy":12359,"ĠInsert":12360,"ĠVert":12361,"menu":12362,"ĠDomainMatrix":12363,"abcdefghi":12364,"))):<":12365,"normalizer":12366,"mediately":12367,"æ¯į":12368,"futures":12369,"Ġints":12370,"è¯į":12371,"åĽł":12372,"Ġscalars":12373,"Renderer":12374,"Ġsalt":12375,"Ġcanvas":12376,"Ġfloats":12377,"Ġiterations":12378,"ĠBuffer":12379,"quotes":12380,"neumatic":12381,"ection":12382,"``,<":12383,"haust":12384,"ĠExt":12385,"Ġstructures":12386,"Ġreflect":12387,"[[_":12388,"Ġattempted":12389,"BYTE":12390,"fies":12391,"absolute":12392,"Ġlit":12393,"emon":12394,"SESSION":12395,"startLine":12396,"breaks":12397,"BUFFER":12398,"Ġpiles":12399,"ĠBFS":12400,"Ġcurve":12401,"Ġcompared":12402,"herme":12403,"Strategy":12404,"attPower":12405,"ìĹ´":12406,"ĠEXT":12407,"è·¯å¾Ħ":12408,"Circuit":12409,"QT":12410,"Ġfrequencies":12411,"Ġclone":12412,"Ġautomatic":12413,"assertNot":12414,"ouses":12415,"nearest":12416,"Ġapplications":12417,"Ġshadow":12418,"MPLE":12419,"ĠĠĠĠĠĠĠĠĠĠĠĠĠĠĠĠĠĠĠĠĠĠĠĠĠĠĠĠĠĠĠĠĠ":12420,"destroy":12421,"1999":12422,"ĠPair":12423,"Ġreached":12424,"åĻ¨":12425,"har":12426,"mouse":12427,"ĠIOWrapper":12428,"cumsum":12429,"ĠSetuptoolsDeprecationWarning":12430,"Ste":12431,"zilla":12432,"Ġmt":12433,"Ġissubclass":12434,"leno":12435,"ĠDynamic":12436,"ĠGame":12437,"mismatch":12438,"truststore":12439,"Ġanalysis":12440,"ada":12441,"ĠWAR":12442,"quiet":12443,"Ġnewlines":12444,"signals":12445,"ĠCONSOLE":12446,"è¿Ļä¸ª":12447,"æĸĩä»¶":12448,"thLargest":12449,"etc":12450,"Ġ{},":12451,"vendored":12452,"TTINGS":12453,"337":12454,"Ġattempts":12455,"today":12456,"Shape":12457,"İ·":12458,"ĠTake":12459,"ĠBox":12460,"BACKEND":12461,"ç»Ļå®ļä¸Ģä¸ª":12462,"codegen":12463,"kwarg":12464,"backbone":12465,"soletes":12466,"Checker":12467,"ĠÐ½Ðµ":12468,"Ġsender":12469,"Cor":12470,"pathlib":12471,"ĠSelect":12472,"((\"":12473,"cdf":12474,"Ġradi":12475,"Ġocc":12476,"Ġ\"?":12477,"ĠAI":12478,"setting":12479,"Ġdivisible":12480,"Recurs":12481,"Component":12482,"trainer":12483,"sktop":12484,"#-----------------------------------------------------------------------------<":12485,"arator":12486,"Ġidle":12487,"avas":12488,"Ġë§":12489,"æĢĿ":12490,"COOKIE":12491,"ĠSave":12492,"owin":12493,"ä¸İ":12494,"priority":12495,"Ġ~~~~~~~~~~~~~~~~~~~~~~~<":12496,"alindromic":12497,"Ġitemgetter":12498,"Ġran":12499,"itowin":12500,"Ġdropped":12501,"employee":12502,"ansitowin":12503,"ĠQuestion":12504,"'\"":12505,"Ġcome":12506,"Ġprinted":12507,"Ġæī":12508,"DOT":12509,"éĩįå¤į":12510,"IONAL":12511,"Ġframework":12512,"=(\"":12513,"Game":12514,"dialog":12515,"construction":12516,"ĠHidden":12517,"Ġ70":12518,"Ġregression":12519,"Ġsingular":12520,"Answer":12521,"integr":12522,"æĥħ":12523,"volume":12524,"Ġdeci":12525,"Ġuniform":12526,"**(":12527,"ĠStat":12528,"rotation":12529,"ç»ĵæŀľ":12530,"Ġmusl":12531,"Apply":12532,"ĠPeterson":12533,"æµĭ":12534,"ele":12535,"listen":12536,"ĠHashes":12537,"LIN":12538,"Push":12539,"iate":12540,"mn":12541,"ĠnumberOf":12542,"ĠSetting":12543,"savefig":12544,"Ġhostname":12545,"Ġsucceed":12546,"rooms":12547,"Ġ[{":12548,"Ġemit":12549,"elementary":12550,"Ġchosen":12551,"å½ĵåīį":12552,"AIL":12553,"Mac":12554,"hints":12555,"Ġuri":12556,"Ġinvoke":12557,"Ġemb":12558,"uspic":12559,"bugger":12560,"TextAttribute":12561,"Ġpredicate":12562,"./":12563,"ë¬¸":12564,"ĠLen":12565,"Ġthough":12566,"IND":12567,"ĠDistutilsExecError":12568,"ticle":12569,"Send":12570,"ĠCho":12571,"Ġconvent":12572,"ĠParam":12573,"containers":12574,"Ancestor":12575,"Ġdocutils":12576,"izza":12577,":')<":12578,">\")<":12579,"fA":12580,"ĠIssue":12581,"Ġdetection":12582,"Ġtimezones":12583,"ĠDictCache":12584,"transaction":12585,"Ġconvolution":12586,"Ġlimits":12587,"uspicious":12588,"]')<":12589,"ught":12590,"ĠSUP":12591,"DatetimeIndex":12592,"ìľ¼ë¡ľ":12593,"Icon":12594,"fancy":12595,"Ġlinalg":12596,"ĠOF":12597,"æĿĤ":12598,"Ġcircle":12599,"Ġchanging":12600,"Ġurls":12601,"åĪ¶":12602,"uptitle":12603,"åŃĹæ¯į":12604,"Ġproducts":12605,"Ġprobability":12606,"easy":12607,"splitext":12608,"Ġleftmost":12609,"ĠVari":12610,"refresh":12611,"ConfigParser":12612,"Preproc":12613,"iversal":12614,"libc":12615,"Rece":12616,"14159":12617,"Generation":12618,"ĠINST":12619,"BadVersion":12620,"Guard":12621,"^\\":12622,"recogn":12623,"atever":12624,"\"],[\"":12625,"customer":12626,"DefaultTable":12627,"chebint":12628,"èĢĥ":12629,"FillConsoleOutput":12630,"avascript":12631,"Fetch":12632,"Supported":12633,"ĠDNS":12634,"Ġrouter":12635,"ĠWHEEL":12636,"Ġinteract":12637,"userid":12638,"Ġimmediately":12639,"åĨĻ":12640,"PlatformError":12641,"ĠPOST":12642,"LP":12643,"determin":12644,"Ġaio":12645,"ung":12646,"')]":12647,"sqlalchemy":12648,"ĠSignal":12649,"psycopg":12650,"Ġprojection":12651,"iteritems":12652,"ĠExec":12653,"hemat":12654,"alls":12655,"ĠRepr":12656,"ĠWS":12657,"msvc":12658,"PIPE":12659,"Ġopenpyxl":12660,"earu":12661,"WOR":12662,"mu":12663,"ĭ¤":12664,"Ġfresh":12665,"Ġincompatible":12666,"ques":12667,"Ġgenerally":12668,"ttLib":12669,":`~.":12670,"Ã¶":12671,"singleton":12672,"$\",":12673,"asgi":12674,"ĠCPU":12675,"Ġpara":12676,"Ð¾Ð½":12677,"æĪĸ":12678,"media":12679,"WARNING":12680,"ĠDATETIME":12681,"éļ":12682,"peating":12683,"IncompleteRead":12684,"weet":12685,"Ġjsonify":12686,"changes":12687,"Ġinserted":12688,"å¤įæĿĤ":12689,"EG":12690,"horizontal":12691,"Ġ\"`":12692,"ĠIntegral":12693,"\"><":12694,"Ġnotation":12695,"Ġmeet":12696,"LEVEL":12697,"Ġaccuracy":12698,"Lat":12699,"buffers":12700,"Ġlive":12701,"Ġ---":12702,"aligned":12703,"PLATFORM":12704,"Pow":12705,"lack":12706,"Ġstone":12707,"ĠRational":12708,"Ġconfigured":12709,"éĽĨ":12710,"Rot":12711,"human":12712,"}\",<":12713,"ĠTarget":12714,"compressed":12715,"Ġentity":12716,"panel":12717,"ĠTemporary":12718,"Signature":12719,"ynchronous":12720,"grouptitle":12721,"Identity":12722,"NC":12723,"ÐŁ":12724,"ë²":12725,"deps":12726,"Ġformul":12727,"lend":12728,"ryption":12729,"åħ¨":12730,"ĠTextType":12731,"sensit":12732,"ä¹Ł":12733,"deployment":12734,"Odd":12735,"stock":12736,"loud":12737,"Ġhouses":12738,"ĠWu":12739,"\"]])<":12740,"Ġcombine":12741,"Division":12742,"ĠFoo":12743,"ĠMath":12744,"ĠBody":12745,"Ġparentheses":12746,"ĠLookupError":12747,"Ġplatlib":12748,"eled":12749,"(\"{":12750,"Ġprocesses":12751,"Ġdiscord":12752,"obot":12753,"General":12754,"(?:[":12755,"å½ķ":12756,"Structure":12757,"Cap":12758,"UCT":12759,"rock":12760,"Ġshlex":12761,"chardet":12762,"ĠResolution":12763,"ĠCompare":12764,"ĠmockAttr":12765,"manual":12766,"ForeignKey":12767,"Ġffi":12768,"Conf":12769,"jugate":12770,"Ph":12771,"Ġaspect":12772,"ysical":12773,"mini":12774,"SES":12775,"ĵįä½ľ":12776,"uro":12777,"nother":12778,"Ġavg":12779,"topic":12780,"ĠTokenizer":12781,"ĠParserElement":12782,"ï¼ī<":12783,"Ġentrypoint":12784,"gain":12785,"__\":":12786,"ĠShape":12787,"Ġ29":12788,"protected":12789,"Ġcontinuous":12790,"RCCommand":12791,"ĠRotation":12792,"800":12793,"dark":12794,"choose":12795,"Ġxs":12796,"capt":12797,"initialized":12798,"Ġmedia":12799,"ĠRectangle":12800,"Ġ::":12801,"':'":12802,"Ġplotting":12803,"å°ĳ":12804,"PROMPT":12805,"Rel":12806,"jump":12807,"iny":12808,"chive":12809,"ĠPo":12810,"Ġetree":12811,"libraries":12812,"Place":12813,"METHODS":12814,"students":12815,"Ġeasier":12816,"Ġsuggest":12817,"Completion":12818,"factors":12819,"music":12820,".],<":12821,">''":12822,"Ġoptionally":12823,"æĪ·":12824,"ĠBlockManager":12825,"Ġult":12826,"Ġ120":12827,"prep":12828,"ARIO":12829,"logits":12830,"wav":12831,"widths":12832,"clock":12833,"coin":12834,"som":12835,"soup":12836,"ÂłÂłÂłÂłÂłÂłÂłÂłÂłÂłÂł":12837,"ĠCurrently":12838,"FONT":12839,"Ġrandint":12840,"ORY":12841,"ĠDeque":12842,"ĠVAL":12843,"imension":12844,"Ġìŀħëł¥":12845,"-{":12846,"Ġder":12847,"Ġdetail":12848,"comments":12849,"Ġ72":12850,"ograd":12851,"ANUM":12852,"armup":12853,"éĤ£":12854,"æĪĳä»¬":12855,"MutableMapping":12856,"ĠMODELS":12857,"JK":12858,"Names":12859,"}.{":12860,"ScreenBuffer":12861,"GTH":12862,"browser":12863,"orphic":12864,"Ġdn":12865,"Ġcodeforces":12866,"Ġspatial":12867,"Ġrespons":12868,"FCompiler":12869,"undefined":12870,"chdir":12871,"Ġele":12872,"Ġuniv":12873,"ifft":12874,"feas":12875,"Ã£o":12876,"Pip":12877,"Ġturns":12878,"ĠWinTerm":12879,"DistutilsError":12880,"Interpolator":12881,"Ġips":12882,"ĠTT":12883,"Ġforeground":12884,"appdirs":12885,"trued":12886,"immutable":12887,"ĠCONFIG":12888,"PowerOf":12889,"Ġsuppressed":12890,"Ġtolerance":12891,"Ġclosing":12892,"ĠSeparate":12893,"truediv":12894,"(%":12895,"gwin":12896,"Ġcle":12897,"serves":12898,"ĠNAME":12899,"Ġjac":12900,"Requirements":12901,"positional":12902,"fontsize":12903,"`\"\"\"<":12904,"Ġé¢ĺçĽ®":12905,"race":12906,"ĠPAT":12907,"PathSum":12908,"180":12909,"dv":12910,"timer":12911,"Ġllama":12912,"Ġexpl":12913,"PoolError":12914,"Ġtracking":12915,"ĠAlign":12916,"ĠWuLC":12917,"Rank":12918,"yellow":12919,"ckpt":12920,"ĠCython":12921,"Ġexhaust":12922,"Ġhack":12923,"ĠRemote":12924,"ãģĹ":12925,"âķĲ":12926,"Ġanaly":12927,"rown":12928,"ĠAttribute":12929,"eli":12930,"revision":12931,"ĠKernel":12932,"strument":12933,"greement":12934,"IMAL":12935,"åı¯èĥ½":12936,"rpm":12937,"cancel":12938,"Ġtoday":12939,"fileno":12940,"Ġec":12941,"ambig":12942,"Ġbackoff":12943,"shuffle":12944,"ĠAppConfig":12945,"ĠFloating":12946,"AE":12947,"Safe":12948,"lstrip":12949,"xff":12950,"\")],<":12951,"IntEnum":12952,"then":12953,"Ġargv":12954,"Cent":12955,"ade":12956,"sampler":12957,"``)<":12958,"pecies":12959,"ĠArguments":12960,"Ġcolorama":12961,"SCEN":12962,"renderables":12963,"Ġpkgutil":12964,"ĠExitStack":12965,"'``.<":12966,"dget":12967,"hind":12968,"bases":12969,"Second":12970,"Ġeditor":12971,"ĠInvalidHeader":12972,"overrides":12973,"Even":12974,"Ġroaming":12975,"ĠReverse":12976,"share":12977,"Ġys":12978,"ĠCy":12979,"ĠCor":12980,"Ġgoes":12981,"ĠCUR":12982,"Ġplaced":12983,"2018":12984,"webdriver":12985,"Ġinstantiate":12986,"bipartite":12987,"BT":12988,"marg":12989,"InT":12990,"ĠColorTriplet":12991,"quantum":12992,"ĠApply":12993,"stage":12994,"Ġfar":12995,"Ġnargs":12996,"minus":12997,"ĠDevice":12998,"Ġcaches":12999,"20130101":13000,"ANGO":13001,"mapbox":13002,"Unable":13003,"Ġimplied":13004,"}:{":13005,"OUS":13006,"WIDTH":13007,"Ġgover":13008,"ĠWARR":13009,"ENCE":13010,"Ġheading":13011,"partment":13012,"ĠInstallation":13013,"ãĥĪ":13014,"ĠWARRANT":13015,"das":13016,"rack":13017,"aker":13018,"Codepoint":13019,"åĩºçİ°":13020,"StyleType":13021,"Follow":13022,"`)":13023,"hig":13024,"xb":13025,"}/{":13026,"though":13027,"listener":13028,"Ġleave":13029,"Ġ96":13030,"ĠMonth":13031,"Ġequation":13032,"Digits":13033,"bio":13034,"sandbox":13035,"ĠTEXT":13036,"ĠRO":13037,"spherical":13038,"ĠMinStack":13039,"quadratic":13040,"receive":13041,"itecture":13042,"Sec":13043,"lon":13044,"Ġtaking":13045,"PyTest":13046,"lowerbed":13047,"ENTRY":13048,"raly":13049,"RetryError":13050,"EXTRAS":13051,"å¤įæĿĤåº¦":13052,"ScreenBufferInfo":13053,"ainless":13054,"Properties":13055,"ĠProgress":13056,"deepcopy":13057,"ralytics":13058,"Cross":13059,"CEPT":13060,"[{":13061,"andb":13062,"behavior":13063,"Disposition":13064,"actor":13065,"nom":13066,"tensors":13067,"Ġcriterion":13068,"ĠFull":13069,"ÑĢÐµ":13070,"Ġë³":13071,"describe":13072,"John":13073,"vit":13074,"è¿ŀ":13075,"ANDARD":13076,"SCR":13077,"forcelist":13078,"ĠCorporation":13079,"çĦ¶":13080,"ina":13081,"Required":13082,"UserWarning":13083,"Download":13084,"CES":13085,"Ġfore":13086,"Ġlab":13087,"ĠFix":13088,"amil":13089,"needed":13090,"Ġvalidators":13091,"BackendHookCaller":13092,"ĠâĶĶ":13093,"abcdefghijk":13094,"say":13095,"Ġ01":13096,"ĠAgreement":13097,"Ġdims":13098,"Ġappdirs":13099,"Ġaccessing":13100,"dbapi":13101,"TokenType":13102,"ticker":13103,"ANGU":13104,"Ġreprodu":13105,"ĠSafe":13106,"Information":13107,"contenttypes":13108,"ĠDisplay":13109,"JANGO":13110,"ìĥ":13111,"research":13112,"Ġbright":13113,"lihood":13114,"ä¸Ķ":13115,"ĠJava":13116,"sympify":13117,"cart":13118,"Ġoops":13119,"hop":13120,"delay":13121,"ĠUseful":13122,"aro":13123,"assistant":13124,"ĠRel":13125,"Ð¸Ð¼":13126,"adjac":13127,"ĠWinColor":13128,"Ġpotential":13129,"UAL":13130,"Ġcrop":13131,"Ġgray":13132,"Ġ/<":13133,"threads":13134,"ĠWhat":13135,"8000":13136,"HH":13137,"mc":13138,"Ġsan":13139,"ubly":13140,"ĠBaseDatabase":13141,"CRIPT":13142,"Ġambiguous":13143,"ĠSplit":13144,"Ġgate":13145,"Ġë¬¸":13146,"Ġchunked":13147,"cam":13148,"male":13149,"Ġpref":13150,"Ġ\"\",<":13151,"ĠStainless":13152,"Ġinitially":13153,"dimensions":13154,"alphas":13155,"Ansi":13156,"rier":13157,"Ġseg":13158,"formatstop":13159,"ĠAb":13160,"Ġpywin":13161,"ĠGaussian":13162,"accounts":13163,"DELETE":13164,"evaluation":13165,"âĢĭ":13166,"TERMIN":13167,"ĠCONTRIBUTING":13168,"ĠMove":13169,"NDArray":13170,"your":13171,"Ġscl":13172,"Ġmultiplication":13173,"Ġrelation":13174,"Ġchunksize":13175,"Ġapplying":13176,"SCENARIO":13177,"'\\\\":13178,"bat":13179,"ĠÂ":13180,"inherit":13181,"urtle":13182,"][::-":13183,"Ġconstructed":13184,"ĠPolynomial":13185,"cleanup":13186,"ĠÑį":13187,"BASIC":13188,"bst":13189,"Ġpjoin":13190,"__``":13191,"classed":13192,"ĠAdapt":13193,"Ġunchanged":13194,"ĠDelete":13195,"Ġheads":13196,"rstuv":13197,"blas":13198,"REQUIREMENT":13199,"Cell":13200,"Router":13201,"Tk":13202,"sg":13203,"alone":13204,"ĠMerge":13205,"Ġcontroller":13206,"subs":13207,"OUTPUT":13208,"'(":13209,"GS":13210,"æĵįä½ľ":13211,"__()":13212,"Forward":13213,"ĠremoveDuplicates":13214,"PATTERN":13215,"Ð°ÑĤÑĮ":13216,"coroutinefunction":13217,"ĠIncrementalDecoder":13218,"removed":13219,"Ġnom":13220,"chn":13221,"plugins":13222,"Ġlos":13223,"Ġlooking":13224,"ĠChecks":13225,"ELE":13226,"nop":13227,"ylim":13228,">##<":13229,"Ġalt":13230,"joinpath":13231,"hashed":13232,"something":13233,"Ġmimetype":13234,"Vi":13235,"Ġemployee":13236,"appings":13237,"Ġrotated":13238,"Ġcoefficient":13239,"ĠHandle":13240,"ĠâĶľâĶĢâĶĢ":13241,"?\"<":13242,"GDAL":13243,"¨æĦı":13244,"ÑĶ":13245,"Ġclock":13246,"Ġsampling":13247,"Ġsens":13248,"imaru":13249,"astic":13250,"StringArray":13251,"Ġwants":13252,"ĠTimedeltaArray":13253,"Whitespace":13254,"Ġcoeff":13255,"Ġjit":13256,"Ġclause":13257,"Ġ57":13258,"triangle":13259,"LAB":13260,"pin":13261,"__(\"":13262,"ĠEmail":13263,"Ġìĺ":13264,"ĠRequestField":13265,"ĠNamedTemporaryFile":13266,"æŁ¥":13267,"ĠCompatibility":13268,"311":13269,"?[":13270,"]},<":13271,"bt":13272,"}(":13273,"Ġannotation":13274,"Ġtriangulation":13275,"replacement":13276,"Ġshows":13277,"Ġknows":13278,"Ġactivation":13279,"}`":13280,"Ġhero":13281,"ableDiffusion":13282,"Ġundefined":13283,"104":13284,"temperature":13285,"å½¢":13286,"(\"-\",":13287,"LayoutHierarchyType":13288,"Ġoriginally":13289,"dating":13290,"emath":13291,"bbbb":13292,"Ġlaunch":13293,"ĠAssert":13294,"Signal":13295,"macosx":13296,"|<":13297,"invoke":13298,"Ġach":13299,"Ġvary":13300,"Ġchecker":13301,"ALLED":13302,"shortest":13303,"Ġconvenience":13304,"tan":13305,"orange":13306,"iring":13307,"((-":13308,"spin":13309,"simplify":13310,"\";":13311,"Break":13312,"Ġincremental":13313,"websocket":13314,"_,<":13315,"tip":13316,"xls":13317,"rogram":13318,"==\"":13319,"ĠPM":13320,"ĠPR":13321,"Ġdesign":13322,"fpn":13323,"Ġidentifiers":13324,"æŃ¤":13325,"qrstuv":13326,"sr":13327,"ÃŃ":13328,"repository":13329,"Ġinfinity":13330,"ĠTyp":13331,"isSameTree":13332,"classproperty":13333,"ĠLast":13334,"Ġcomplement":13335,"moke":13336,"ĠDistutilsError":13337,"strictly":13338,"Ð¿Ð¸Ñģ":13339,"HERE":13340,"=\\":13341,"Candidates":13342,"coordinates":13343,"ĠFixed":13344,"Ġresolver":13345,"Ġproc":13346,"textTools":13347,"ĠWSGIEnvironment":13348,"Ð¾Ð»ÑĮ":13349,"æıĲ":13350,"ĠtearDown":13351,"Press":13352,"UV":13353,"]/":13354,"pur":13355,"éĶ":13356,"Ġä¸ª":13357,"Ġclassification":13358,"Ġnetloc":13359,"Sem":13360,"tls":13361,"tutorial":13362,"reach":13363,"ads":13364,"endpoint":13365,"Ġcolour":13366,"353":13367,"ĠÐ¿Ð¾":13368,"MML":13369,"Compat":13370,"ĠDoes":13371,"Ġinsertion":13372,"\"},":13373,"MM":13374,"çľ":13375,"Ġquality":13376,"ĠCertificate":13377,"filenames":13378,"SED":13379,"Ġdiscrete":13380,"ĠXOR":13381,"NOWN":13382,"2006":13383,"æĢģ":13384,"Support":13385,"WHEEL":13386,"--------<":13387,"nsrc":13388,"))[":13389,"Ġ2002":13390,"ĠOpenSCENARIO":13391,"Annot":13392,"carpet":13393,"tight":13394,"along":13395,"Ġdom":13396,"achine":13397,"abcdefghijklm":13398,"*\\":13399,"kb":13400,"rear":13401,"ĠInfinity":13402,"ĠIOError":13403,"ucky":13404,"!')<":13405,"'d":13406,"follow":13407,"Ġhit":13408,"00007":13409,"FFFE":13410,"æł·":13411,"Three":13412,"11111111":13413,"ĠProxyScheme":13414,"nr":13415,"nv":13416,"Ġbroken":13417,"Ġ###<":13418,"ĠÐ°":13419,"statement":13420,"aTe":13421,"ĠMethods":13422,"Global":13423,"hf":13424,"spaces":13425,"Ŀå§ĭ":13426,"ony":13427,"ĠAwaitable":13428,"Ġdec":13429,"aily":13430,"ĠWindowsCoordinates":13431,"Ġphase":13432,"ISTR":13433,"bul":13434,"alty":13435,"ĠDriver":13436,"ĠRef":13437,"readlines":13438,"ãģ§":13439,"150":13440,"åĢĭ":13441,"Tokens":13442,"Done":13443,"HEL":13444,"vm":13445,"Ġ.<":13446,"Ġcx":13447,"ĠUses":13448,"])-":13449,"sycopg":13450,"éĢĴå½Ĵ":13451,"every":13452,"Ġpasses":13453,"live":13454,"ĠSNI":13455,"Ġoften":13456,"heapq":13457,"grades":13458,"Ġranks":13459,"SUB":13460,"WRITE":13461,"(...":13462,"ITER":13463,"Ġhowever":13464,"Ġdetected":13465,"needle":13466,"BACKOFF":13467,"éĹ®é¢ĺ":13468,"qrstuvwxyz":13469,"_[":13470,"isode":13471,"Ġpermissions":13472,"fficulty":13473,"igrate":13474,"Ġimpl":13475,"8859":13476,"æĸ¹æ³ķ":13477,"BN":13478,"jpeg":13479,"lhs":13480,"ĠRLock":13481,"Ġmeasure":13482,"mous":13483,"ĠĠĠĠĠĠĠĠĠĠĠĠĠĠĠĠĠĠĠĠĠĠĠĠĠĠĠĠĠĠĠĠĠĠĠĠĠĠ":13484,"Passing":13485,"ehicle":13486,"testclient":13487,"Ġ{%":13488,"oman":13489,"Ġplaces":13490,"Ġwidths":13491,"srs":13492,"Ġarange":13493,"Ġ''')<":13494,"#]*":13495,"¢«":13496,"Ġregenerate":13497,"Traversable":13498,"Util":13499,"Ġì¶ľëł¥":13500,"Rule":13501,"strength":13502,"Ġmaxsize":13503,"ictures":13504,"MMLab":13505,"Pay":13506,"Ġ!":13507,"ĮĢ":13508,"ĠPe":13509,"Ġgf":13510,"Ġrole":13511,"Printer":13512,"Ġcards":13513,"ĠEntry":13514,"ĠRedis":13515,"ĠRemovedIn":13516,"åĮħåĲ«":13517,"Difficulty":13518,"Free":13519,"ĠãĢĤ<":13520,"Ġ[[-":13521,"Ġ[{\"":13522,"Ġonnx":13523,"subclasses":13524,"lcpr":13525,"Ġautoreset":13526,"bboxes":13527,"æĮĩéĴĪ":13528,"Ġintroduced":13529,"NONE":13530,"wind":13531,"ĠÑĢÐ°":13532,"ĠSto":13533,"ĠLinux":13534,"ĠQiskit":13535,"Channel":13536,"ticklabels":13537,"Ġ'/'<":13538,"resolvelib":13539,"'},":13540,"Adapt":13541,"CV":13542,"Face":13543,"Flag":13544,"Ke":13545,"amel":13546,"Ġsessions":13547,"prite":13548,"slashes":13549,"Ġrendering":13550,"lipse":13551,"Pointer":13552,"segments":13553,"ĠBot":13554,"(''.":13555,"Ġready":13556,"CLASS":13557,"rikimaru":13558,"ë§":13559,"usters":13560,"ĠPyPy":13561,"ĠVER":13562,"Ġshorter":13563,"æ²¡":13564,"GIS":13565,"NORM":13566,"Pop":13567,"resample":13568,"Ġextracted":13569,"çİ¯":13570,"LD":13571,"mg":13572,"Ġdefinitions":13573,"Ġcovered":13574,"Ġ55":13575,"Ġplots":13576,"Ġ\"\":<":13577,"lesky":13578,"Ġmanagement":13579,"UInt":13580,"iff":13581,"Ġrename":13582,"Ġcomputing":13583,"Ġprerequisites":13584,"bfs":13585,"Ġ'\"":13586,"Ġ':":13587,"Ġ44":13588,"\">":13589,"+(":13590,"Menu":13591,"Ġmini":13592,"acher":13593,"locator":13594,"ãĢĮ":13595,"LENGTH":13596,"IMPORT":13597,"Median":13598,"PKG":13599,"yy":13600,"Ġconverter":13601,"Compare":13602,"Ġmetaclass":13603,"FuncFactory":13604,"moment":13605,"nsample":13606,"SETTINGS":13607,"ĠBaseException":13608,"ĠRegister":13609,"æ¡Ī":13610,"Ġddm":13611,"PEG":13612,"oci":13613,"Ġpneumatic":13614,"ĠUUID":13615,"ĠContributor":13616,"Ġnice":13617,"ĠTho":13618,"Ġground":13619,"country":13620,"Ġappa":13621,"ÑĢÑĥ":13622,"IPv":13623,"éĿŀ":13624,"fact":13625,"fusion":13626,"ĠDDM":13627,"ãĢį":13628,"Ġ\".\".":13629,"ĠDistutilsPlatformError":13630,"Ġmemoryview":13631,"Ġdescribing":13632,"NotImplementedError":13633,"!\\":13634,"DLL":13635,"Good":13636,"Za":13637,"catch":13638,"kes":13639,"ino":13640,"Ġstrong":13641,"Ġ56":13642,"Ġpermission":13643,"grouping":13644,"ĠStatic":13645,"={}<":13646,"ĠMarkdown":13647,"éĢī":13648,"amilys":13649,"ories":13650,"orrow":13651,"Ġtodo":13652,"ĠPanel":13653,"Ġrooms":13654,"players":13655,"Ġsingleton":13656,"fullname":13657,"Center":13658,"Fast":13659,"youtube":13660,"ëŀ":13661,"sty":13662,"leading":13663,"Ġsites":13664,"residual":13665,"ĠDAT":13666,"ĠGrid":13667,"generation":13668,"çĶ¨æĪ·":13669,"DOUT":13670,"OID":13671,"Ġresize":13672,"ĠDel":13673,"Ġjaraco":13674,"osing":13675,"Alg":13676,"ĠCacheController":13677,"pil":13678,"Ġ})<":13679,"Ġexceeded":13680,"Wrapped":13681,"AK":13682,"Ġxx":13683,"house":13684,"æĿ¡":13685,"adapters":13686,"Ĳľç´¢":13687,"abcdefghijklmnop":13688,"AUTH":13689,"lator":13690,"vae":13691,"stk":13692,"Ġdatsp":13693,"Ġdidn":13694,"Ġnumerical":13695,"yi":13696,"Ġev":13697,"ipv":13698,"Nums":13699,"Ġdisplayed":13700,"ĠÑĦ":13701,"ISTRY":13702,"Ġappauthor":13703,"Ġtreat":13704,"developer":13705,"Ġft":13706,"Ġsolved":13707,"Price":13708,"é¡º":13709,"Ġinc":13710,"Ġmixin":13711,"ĠPandas":13712,"chains":13713,"svd":13714,"ĠDesign":13715,"Ġsending":13716,"Ġparametriz":13717,"'})<":13718,"Cast":13719,"_:":13720,"ĠTotal":13721,"')))<":13722,"COORD":13723,"Ġmarkdown":13724,"ĠRegistry":13725,"Coder":13726,"java":13727,"ĠSty":13728,"pyopenssl":13729,"filelist":13730,"ĠUSER":13731,"Ġ/)":13732,"dpi":13733,"dropped":13734,"Ġtxt":13735,"Ġsieve":13736,"entific":13737,"\")))<":13738,"Ġcamera":13739,"ĠSTR":13740,"igraph":13741,"osx":13742,"Ġmatter":13743,"oseconds":13744,"OpenAI":13745,"Running":13746,"ä¹ī":13747,"SYSCONFIG":13748,"Impl":13749,"Multiple":13750,"}}<":13751,"animal":13752,"raight":13753,"ĠHook":13754,"\"]],":13755,"Ġinteraction":13756,"Ġdocstrings":13757,"Ġ~~~~~~~~~~~~~~~~~~~~<":13758,"íĺ":13759,"Ġnamedtype":13760,"Ġgetting":13761,"Ġdialects":13762,"ĠPipSession":13763,"heatmap":13764,"Ġproper":13765,"Ġcountry":13766,"Ġjsonschema":13767,"ĠProvides":13768,"Links":13769,"á´ĩ":13770,"enchmark":13771,"¤æĸŃ":13772,"Ġfood":13773,"Ġ'{}":13774,"Ġdecorators":13775,"ĠEst":13776,"creation":13777,"Ġstatistics":13778,"Upload":13779,"Trie":13780,"anch":13781,"Ġei":13782,"Ġunset":13783,"]]]":13784,"ĠCombine":13785,"tended":13786,"Ġsuccessful":13787,"COMMA":13788,"Causal":13789,"Jupyter":13790,"ĠVideo":13791,"ĠwordDict":13792,"ĠWARNING":13793,"vices":13794,"substring":13795,"argmax":13796,"Inputs":13797,"å¤Ħ":13798,"makefile":13799,"clarative":13800,"èĢħ":13801,"abcdefghijklmnopqrstuvwxyz":13802,"AML":13803,"Ġbrute":13804,"coo":13805,"ĠDefaultTable":13806,"staticfiles":13807,"]][":13808,"Ġinstructions":13809,"vehicle":13810,"Ġseparators":13811,"\"(":13812,"bank":13813,"igma":13814,"ĠÐ³":13815,"ALE":13816,"ĠBuildBackendHookCaller":13817,"/')<":13818,"mml":13819,"leet":13820,"resolver":13821,"Ġ{(":13822,"ACY":13823,"extractor":13824,"Ġserializers":13825,"áº":13826,"oracle":13827,"hev":13828,"Ġobs":13829,"aba":13830,"(\"{}":13831,"Ġsupposed":13832,"Ġurlun":13833,"earth":13834,"Private":13835,">================================================":13836,"Ab":13837,"Tz":13838,"yb":13839,"æ¶":13840,"defer":13841,"definition":13842,"pem":13843,"Ġ')":13844,"vecs":13845,"enshi":13846,"gnore":13847,"ĠImports":13848,"Ġ{}'.":13849,"Ġproduces":13850,"remainder":13851,"Ġrelationship":13852,"aTeX":13853,"Light":13854,"band":13855,"appends":13856,"Ġbitwise":13857,"ĠRecursive":13858,"æĽ´":13859,"ĠMore":13860,"lexible":13861,"TRAN":13862,"grams":13863,"UMENT":13864,"sigmoid":13865,"SOUR":13866,"Ġadjacency":13867,"NBit":13868,"Ġtrap":13869,"abling":13870,"ĠPDF":13871,"Ġ%}<":13872,"345":13873,"elligent":13874,"euler":13875,"ĠTA":13876,"Ġvcs":13877,"Ġvocab":13878,"Ġ1996":13879,"TXT":13880,"Ġultralytics":13881,"Ġed":13882,"003":13883,"ĠFraction":13884,"Ġbehind":13885,"Ġmet":13886,"ĠEl":13887,"anyarray":13888,"centrality":13889,">`_<":13890,"TZDtype":13891,"Estimator":13892,"Sw":13893,"Sim":13894,"ĠPage":13895,"Ġtransport":13896,"lapack":13897,"ĠService":13898,"Children":13899,"Ġmarkupsafe":13900,"çŃĶ":13901,"Ġequations":13902,"Ġ+--------+------+<":13903,"IAL":13904,"clf":13905,"è¢«":13906,"oral":13907,"-------<":13908,"ĠDeprecated":13909,"ĠBased":13910,"ĠBaseCommand":13911,"ĠFileCache":13912,"Move":13913,"OrderedDict":13914,".:":13915,"uc":13916,"()._":13917,"paced":13918,"Ġ48":13919,"Reverse":13920,"LOAT":13921,"ĠAutoTokenizer":13922,"ĠÐºÐ»Ð°ÑģÑģÐ°":13923,"µ¬":13924,"é«":13925,"dean":13926,"ĠCSR":13927,"rcnn":13928,"ArrayValidator":13929,"ãģĭ":13930,"=\"\",":13931,"Visible":13932,"GetConsoleScreenBufferInfo":13933,"MD":13934,"xz":13935,"à¹":13936,"Ġorthogonal":13937,"asof":13938,"ĠNested":13939,"ĠLight":13940,"deriv":13941,"CONST":13942,"PROJECT":13943,"åĮº":13944,"TERMINAL":13945,"hr":13946,"sell":13947,"ĠOptionalDependency":13948,"Ġupdates":13949,"Ġ'.'<":13950,"Ġretrieve":13951,"BLACK":13952,"Ġengines":13953,"ctime":13954,"ĠSup":13955,"ĠIBM":13956,"Ġbases":13957,"Ġsimulation":13958,"huggingface":13959,"salt":13960,"__\"):<":13961,"Ġblob":13962,"Ġ\"(\"":13963,"Ġgas":13964,"paragraph":13965,"Ġkde":13966,"iflags":13967,"Ġ```<":13968,"Ġ||":13969,"ĠInterface":13970,"Ġyears":13971,"ĠOptionalDependencyNotAvailable":13972,"Flow":13973,"åł":13974,"ĠTABLE":13975,"Constructor":13976,"necess":13977,"Stub":13978,"Ġtravel":13979,"grouped":13980,"connectionpool":13981,"CommonAncestor":13982,"EY":13983,"xi":13984,"Ġpaper":13985,"ĠBound":13986,"intercept":13987,"VersionTypeVar":13988,"Ġreasons":13989,"lazyclassproperty":13990,"CodecInfo":13991,"Ġliterals":13992,"SECURE":13993,"Choice":13994,"ëıĦ":13995,"IPython":13996,"Patch":13997,"ÙĦ":13998,"æº":13999,"Ġujson":14000,"pological":14001,"ĠĠĠĠĠĠĠĠĠĠĠĠĠĠĠĠĠĠĠĠĠĠĠĠĠĠĠĠĠĠĠĠĠĠĠ":14002,"Ġsubarrays":14003,"Ġoperand":14004,"ĠForward":14005,"ĠSSLError":14006,"Ġquotes":14007,"Ġforeign":14008,"$')<":14009,"PASS":14010,"fuck":14011,"squares":14012,"è°":14013,"ĠSame":14014,"ĠFOR":14015,"ĠCOPY":14016,"Ġaccessed":14017,"Ġå®":14018,"Users":14019,"ĠÐ¾Ð±ÑĬÐµÐºÑĤ":14020,">.":14021,"Rational":14022,"Ġfine":14023,"ĠSuper":14024,"('{":14025,"Ġsetter":14026,"Matcher":14027,"Modified":14028,"semble":14029,"]**":14030,"Ġcha":14031,"ĠinputName":14032,"ĠDependency":14033,"ASCA":14034,"PLACE":14035,"IntegerField":14036,"Ġnullable":14037,"ASCADE":14038,"HKEY":14039,"balanced":14040,"ĠMedium":14041,"orders":14042,"irc":14043,"DEV":14044,"regular":14045,"ificant":14046,"density":14047,"ĠSO":14048,"Ġnotna":14049,"Ġhasn":14050,"submissions":14051,"usecols":14052,"ÑĤÑĮ":14053,"Ġaligned":14054,"ìļ°":14055,"+-]?\\":14056,"Player":14057,"Sing":14058,"Ġincoming":14059,"emy":14060,"ĠEvery":14061,"ä¸ī":14062,"Ġprefixes":14063,"ĠConsoleRenderable":14064,"Ġsentinel":14065,"ĠLength":14066,"/_":14067,";',<":14068,"Alice":14069,"ypass":14070,"ĠDataLoader":14071,"Since":14072,"Ġdll":14073,"yper":14074,"Ġmesh":14075,"ĠWindow":14076,"Ġpyplot":14077,"CODES":14078,"ĠSpecific":14079,"Fl":14080,"Â£":14081,"Ġinstr":14082,"Ġlcm":14083,"ariadb":14084,"etags":14085,"ĠLogger":14086,"çĶ±":14087,"ÐµÑĤÐ¾Ð´":14088,"Ġpropag":14089,"é«ĺ":14090,"FUNCT":14091,"Pix":14092,"equiv":14093,"ij":14094,"qs":14095,"Ġrvalues":14096,"maxpoints":14097,"324":14098,"Login":14099,"ARCH":14100,"ĠìĦ":14101,"\\\\.":14102,"iltin":14103,"AGES":14104,"ercion":14105,"uclidean":14106,"Ġfamily":14107,"through":14108,"again":14109,"antics":14110,"ĠIncrementalEncoder":14111,".)":14112,"night":14113,"ê²":14114,"Ġmmp":14115,"ĠTEST":14116,"(\"[":14117,"permissions":14118,"Ġ>>=":14119,"Ġdescribe":14120,"Ġbracket":14121,"benchmark":14122,"Merge":14123,"åŁ":14124,"rain":14125,"Ġbul":14126,"ĠImmutable":14127,"Ġui":14128,"Consecutive":14129,"Ġminim":14130,"åĲį":14131,"ABCD":14132,"ĠJSONDecodeError":14133,"linen":14134,"Visitor":14135,"ĠConfigurationError":14136,"weekday":14137,"=(<":14138,"IMAGE":14139,"cian":14140,"ĠDetermin":14141,"DataArrayValidator":14142,"äºº":14143,"radio":14144,"ĠmockWin":14145,"Ġrenamed":14146,"extended":14147,"ĠAvoid":14148,"Ġexposes":14149,"Ġsoft":14150,"Ġsupporting":14151,"ìĿ¸":14152,"Pacific":14153,"Ġsimplified":14154,"consumption":14155,"IDDLE":14156,"SCRIPT":14157,"Ġcancel":14158,"Ġdark":14159,"isolated":14160,"ĠRTF":14161,"URN":14162,"speech":14163,"'%":14164,"MB":14165,"ujson":14166,"additional":14167,"Ġsock":14168,"simplefilter":14169,"ä¹Ī":14170,"cnn":14171,"esian":14172,"Ġ'))<":14173,"pyf":14174,"Complex":14175,"Ġcaller":14176,"Generated":14177,"å·²":14178,"Ġpredictions":14179,"\"``":14180,"$',":14181,"IID":14182,"saf":14183,"è¨":14184,"Ġtries":14185,"arithmetic":14186,"Ġanchor":14187,"cler":14188,"ĠSP":14189,"Ġgarbage":14190,"mbly":14191,"Ġbackport":14192,"Ġappended":14193,"æľº":14194,"failure":14195,"hematical":14196,"Classes":14197,"quit":14198,"izations":14199,"vertical":14200,"ĠDevelopers":14201,"ĠÐĴ":14202,"mypy":14203,"Ġmount":14204,"Ġmodern":14205,"flax":14206,"going":14207,"ĠABCMeta":14208,"CONTAIN":14209,"åİŁ":14210,"ìłľ":14211,"LongestSubstring":14212,"')):<":14213,"lated":14214,"Ġgap":14215,"ĠOK":14216,"heading":14217,"ĠEncoding":14218,"Ġfinish":14219,"Ġslices":14220,"STATUS":14221,"ĠRepresents":14222,"Emoji":14223,"alter":14224,"olding":14225,"ĠLive":14226,"Ġunsigned":14227,"Ġtempdir":14228,"Ġacceler":14229,"Regression":14230,"Authentication":14231,"2345678":14232,"CB":14233,"Ġsr":14234,"Ġ'[":14235,"Ġeg":14236,"Ġhits":14237,"testutils":14238,"ledge":14239,"Ġestab":14240,"ĠEnter":14241,"Jar":14242,"ĠMARK":14243,"Ġwhatever":14244,"\")]":14245,"typed":14246,"Ġtopic":14247,"Ġrecords":14248,"Ġjobs":14249,"Zeroes":14250,"alphanum":14251,"]\"":14252,"ban":14253,"criterion":14254,"Ġfe":14255,"probab":14256,"INDEX":14257,"usefixtures":14258,"Ġrefresh":14259,"Ġabspath":14260,"suffixes":14261,"Ġprincip":14262,"sensitively":14263,"MANY":14264,"ĠPearu":14265,"Ġdeprecate":14266,"Debug":14267,"TEGER":14268,"ĠMonday":14269,"Ġroutine":14270,"ĠArgumentParser":14271,"Ġpredicted":14272,"MAN":14273,"Shell":14274,"SOCKS":14275,"bol":14276,"gid":14277,"Ġqual":14278,"Ġfold":14279,"Ġrestore":14280,"``:<":14281,"caches":14282,"Ġupon":14283,"Keyword":14284,"æĺİ":14285,"FTWARE":14286,"å°±æĺ¯":14287,"Ġ~~~~~~~~~~~~~~~~~~~~~~<":14288,"å¼Ģå§ĭ":14289,"xn":14290,"Ġquestions":14291,"otes":14292,"estimator":14293,"EXCL":14294,"åıĳ":14295,"Candies":14296,"DT":14297,"VENT":14298,"Ġ'?":14299,"ArrayLike":14300,"voice":14301,"Ġtrusted":14302,"ĠAccount":14303,"Ġenvironments":14304,"ç¡":14305,"Ġtup":14306,"uby":14307,"subtype":14308,"AnyCallable":14309,"Anagram":14310,")-(?":14311,"ln":14312,"nltk":14313,"ë°":14314,"allery":14315,"movie":14316,"Ġimpossible":14317,"Ġwebencodings":14318,"REGEX":14319,"ĠPyPIRCCommand":14320,"'(?":14321,"Api":14322,"Big":14323,"Lines":14324,"Trees":14325,"ÑĦ":14326,"æĲľç´¢":14327,"ineq":14328,"Ġpipenv":14329,"Ġparsedate":14330,"ëĭĪëĭ¤":14331,"ĠElementTree":14332,"Ġlittle":14333,"µľ":14334,"rase":14335,"chi":14336,"Ġdecreasing":14337,"ensity":14338,"masks":14339,"Ġprocessor":14340,"cipher":14341,"ĠRoot":14342,"Frequency":14343,"iral":14344,"interp":14345,"ĠOpenMMLab":14346,"ritical":14347,"bsd":14348,"rmtree":14349,"Ġendian":14350,"ĨĮ":14351,"Ġtimer":14352,"Ġitr":14353,"ingu":14354,"Ġchart":14355,"Ġcomputation":14356,"lacian":14357,"Ġspinner":14358,"Ġgreat":14359,"èĩª":14360,"244353":14361,"cffi":14362,"inclusive":14363,"Ġcb":14364,"__',":14365,"unsupported":14366,"ĠĠĠĠĠĠĠĠĉ":14367,"yshev":14368,"Ġjupyter":14369,"INIT":14370,"ĠComplex":14371,"Condition":14372,"ĠUnique":14373,"ç»Ń":14374,"blank":14375,"POL":14376,"ÐĴ":14377,"æ·":14378,"ĠSpecial":14379,"(\"__":14380,"icol":14381,"ĠBroken":14382,"ĠPretty":14383,"ĠPrepared":14384,"Fn":14385,"NaN":14386,"Ġpsycopg":14387,"ascending":14388,"Ġ65":14389,"Armor":14390,"IDNAError":14391,"Ġskipped":14392,"{}\".":14393,"ParseAction":14394,"alignment":14395,"ĠConnectionError":14396,"Ġdebugger":14397,"REGISTRY":14398,"ei":14399,"rink":14400,"tc":14401,"urations":14402,"Ġdq":14403,"ĠGre":14404,"ARB":14405,"Ġ2010":14406,"ĠLeetCode":14407,"ĠAutoModel":14408,"ĠAdded":14409,"bp":14410,"cand":14411,"Ġprom":14412,"Ġaltered":14413,"Ġprod":14414,"widthValidator":14415,"Ġadapted":14416,"ĠOutOf":14417,"ewels":14418,"Ġtransition":14419,"WORDS":14420,"Ġ1999":14421,"ĠìŀĪ":14422,"endi":14423,"Ġstable":14424,"])/":14425,"))+":14426,"ãģŁ":14427,"Keyboard":14428,"ĠMatrixSymbol":14429,"Member":14430,"ĠALPH":14431,"314":14432,"Sys":14433,"otor":14434,"setParseAction":14435,"Ġaddresses":14436,"MAIN":14437,"ContextManager":14438,"Ġexecuting":14439,"Execution":14440,"Visual":14441,"CURR":14442,"assertIsInstance":14443,"Rectangle":14444,"ĠRemovedInDjango":14445,"increment":14446,"__):<":14447,"ĠmaxArea":14448,"Ġdog":14449,"trio":14450,"topics":14451,"-]*":14452,"camera":14453,"spl":14454,"yo":14455,"__:":14456,"ĠOracle":14457,"Regex":14458,"ĠZIP":14459,"EDIT":14460,"AppConfig":14461,"IBLE":14462,"Vertex":14463,"Ġnatural":14464,"isupper":14465,"scriptors":14466,"PRES":14467,"Dispatch":14468,"legendgrouptitle":14469,"ĠSTANDARD":14470,"ilinear":14471,"existing":14472,"Clip":14473,"ISS":14474,"isin":14475,"ĠSF":14476,"Ġuf":14477,"Ġintegr":14478,"NoValue":14479,"Ġtruncated":14480,"ĠOperation":14481,">~~~~~~~~~~~~~~<":14482,"GTK":14483,"Similar":14484,"subdtype":14485,"\")):<":14486,"ĠÐŁ":14487,"Ġ127":14488,"Ġtriangular":14489,"Minimum":14490,"shortcuts":14491,"Ġ3600":14492,"Buzz":14493,"Ġsentences":14494,"Ġearlier":14495,"references":14496,"Ġ'|":14497,"Ġld":14498,"Ġorm":14499,"suming":14500,"works":14501,"primary":14502,"Ġpairwise":14503,"ĠEXTR":14504,"ĠPATH":14505,"sax":14506,"met":14507,"adv":14508,"ĠDuration":14509,"licing":14510,
[...]
